#version: 0.2 - Trained by `huggingface/tokenizers`
e n
e r
c h
Ġ d
e i
u n
i e
s t
i n
a n
Ġ s
ei n
i ch
e s
a u
Ġ S
Ġ w
Ġ un
Ã ¼
o n
g e
a l
t e
Ã ¤
Ġ m
Ġun d
Ġd ie
a r
a s
un g
i t
s ch
Ġ v
Ġ ein
Ġ b
Ġ D
Ġ A
e l
o r
Ġd er
a t
Ġ B
Ġ i
Ġ n
Ġ z
h r
Ġ au
t en
u r
g en
Ġ M
e m
d er
Ġ h
Ġ f
Ġ E
Ġ in
t er
Ġ F
d en
Ġ K
Ġ k
Ġ G
Ġ W
e t
Ã ¶
Ġ P
Ġz u
l ich
a b
i r
o l
a ch
t i
Ġ g
a m
l e
Ġ H
Ġ T
Ã¼ r
d e
Ġ I
c k
Ġd as
ei t
Ġ V
Ġ ge
b er
Ġ L
i er
Ġ R
Ġd en
r o
Ġm it
i s
Ġ er
i l
ich t
Ġ an
r e
u s
â Ģ
o m
Ġv on
Ġi st
i g
Ġau f
u m
s en
u t
Ã Ł
Ġ al
e h
r a
Ġ N
i sch
an d
Ġv er
Ġf Ã¼r
s e
an n
Ġ o
Ġ l
r ei
Ġi m
b en
l en
Ġ Z
Ġ U
Ġ 1
en t
Ġs ich
f t
n en
Ġn icht
ĠS ch
Ġw ir
Ġs ch
Ġb e
i on
o ch
ĠD ie
s er
m en
Ġ (
ĠS t
Ġau s
Ġ J
Ġ 2
Ġ p
ĠV er
Ġein e
in d
e u
Ġd es
f f
a hr
Ġ es
Ġau ch
Ġ âĢ
Ġ C
a g
k t
s p
ĠI n
Ġd em
st en
e hr
ĠS ie
ie l
ĠA n
Ġb ei
ch en
el l
a h
in g
Ã¤ n
ung en
Ġ t
Ã¼ ber
Ġs o
Ġ ab
Ġ st
Ġ j
Ġ O
Ġw er
er n
Ġw ie
Ġ ich
u ch
i k
i en
v er
et z
Ġal s
Ġo der
w ei
Ġ Ã¼ber
es ch
. .
Ã¶ n
m er
l ei
Ġwer den
un d
o s
ĠE in
Ġh at
o t
b e
h n
en n
ĠU n
Ġs ind
at ion
ĠE r
ung s
Ġh ab
Ġs ie
Ġs ein
0 0
ol l
u f
i m
Ġv or
or t
Ġ um
ti g
ĠS p
r au
ch t
e st
Ġn ach
a d
ur ch
ei l
isch en
Ġ -
u l
Ġdas s
Ã¼ n
e d
r i
g er
Ġi hr
Ã¤ t
h e
an z
Ġw ar
Ġwir d
au s
e g
p p
h al
en d
l a
ĠP ro
Ġein en
w er
an g
k ti
au f
al l
Ġein er
te l
ein e
Ġm an
Ġ r
Ġk ann
l er
ter n
te t
Ġzu m
p f
0 1
g t
Ġd a
sch a
ĠâĢ ŀ
i ck
z en
st e
Ġn och
Ġein em
ĠA l
âĢ ľ
Ã¼ ck
Ã¶ r
Ġk Ã¶n
ĠD as
z u
Ġ am
Ġ ent
r u
ĠA r
Ġz ur
n er
i v
Ġd urch
ar t
b t
r Ã¤
ch e
ĠG e
ĠD er
i gen
Ġn ur
ĠJ ahr
lich en
Ġun ter
ĠA us
Ã¤ r
ei ter
r ie
ĠM it
e x
Ġhab en
Ġab er
ier t
f Ã¼
ge l
an k
st er
h l
or m
Ġs p
isch e
l ie
ei ten
ĠR e
Ġ "
ar b
o p
l in
us s
Ġ 3
Ġm ehr
ge b
o g
ach t
ĠB e
lich e
i ge
Ġw ur
e ben
scha ft
ier en
eh en
st ell
Ġ Ã
ĠâĢ ĵ
ĠI hr
es s
el t
Ġb is
Ġun ser
ĠE n
ĠkÃ¶n nen
der n
er s
sch en
e ut
at z
g r
b ar
as s
at en
h en
Ã¤ l
k eit
h er
om men
h t
Ġan der
ei ch
b l
as sen
ĠB er
ĠG r
Ġdie s
i st
el len
Ġ re
ĠA b
ah l
Ġn eu
ĠV or
sch l
h eit
Ġ2 01
er t
g lich
f en
ĠA uf
Ġun s
Ġw enn
il l
ut z
o b
etz t
m e
Ġal l
d u
Â Ń
ff en
ÃŁ en
ei gen
r it
Ã¤ hr
on t
.. .
g es
s am
un den
Ġb er
an t
Ġd ann
m al
e ch
r Ã¼
m t
o k
ĠE s
a p
a k
ĠW ir
a st
il d
Ġk l
i c
z e
b st
Ġ 4
f ahr
eh men
kti on
Ġg es
k en
al t
Ġwur de
Ġ gen
Ġs ehr
Ġw eiter
Ġb es
ĠI ch
e kt
Ġw as
Ġwie der
Ġj e
p l
i z
s s
w ar
n is
ĠZ u
Ġd ar
w ie
a ge
n e
Ġs oll
ĠA u
o d
Ġ 5
ĠS o
Ġsch on
Ġ c
i bt
Ġ et
p er
Ġh ier
Ġim mer
ÃŁ e
l o
Ġl ie
ĠB ei
Ġ1 9
ĠI m
e b
ra g
ie le
Ġdie se
i al
f orm
k l
a ck
at t
h o
ĠH er
Ġh in
ĠZ eit
ein en
Ġv iel
f ach
Ã¶ glich
f er
eit s
Ġg ro
ar k
Ġh er
Ġge w
Ã¼ t
o sten
Ġg ibt
Ġg anz
Ã¤ ch
ĠN ach
ĠU m
lei ch
f e
ach en
el d
Ġk om
gen d
Ġ Â
Ġs el
Ġv om
ĠG es
Ġhab e
m it
it Ã¤t
Ġm ir
sch ie
el n
el le
o hn
f l
f ol
d em
w as
in den
l os
Ġ a
h nen
Ġal le
ĠM en
Ġbe st
Ġz wei
p t
d ig
ĠK l
hn e
l ung
a gen
Ġm ich
on der
q u
fÃ¼ hr
b r
in der
ĠB l
Ġdie ser
z eit
u d
ĠEn t
ei te
ĠÃ ľ
et t
Ġd u
Ġ le
ĠO r
rei s
Ġ e
ĠUn d
ĠUn ter
au t
or d
ti gen
ĠG esch
) .
b ur
Ġge gen
ich tig
ra gen
ĠAr b
hal ten
on n
k te
ÃŁ er
a te
ad t
Ġg ut
sch e
Ã¼ hr
Ġge m
ol len
Ġ eigen
Ġein fach
ĠC h
ĠM a
ck en
v or
l au
g esch
Ġ 6
ĠD eut
i d
ĠW as
sp iel
ĠF l
Ġm ein
r ank
am m
in n
ier ung
is sen
al e
ĠP l
ĠW er
Ġk eine
Ġw o
ation en
ig er
ol le
rei ch
Ġg er
an gen
Ġso wie
Ã¼ s
it z
ĠK om
Ġbe k
ie len
Ġein es
ĠÃľ ber
am it
Ã¶ ch
Ġm al
ei st
k e
eu te
r in
r an
ĠSp iel
w ischen
ĠK on
at ur
n et
ti ge
es en
Ġp ro
re u
ĠF rau
Ġg r
ĠL eben
eh t
Ġ |
n o
ĠT h
Ġihr e
ich er
Ġsel bst
ĠE ur
w ick
un de
Ġo hne
u g
a de
iv e
Ġg esch
f or
Ġs on
n ah
Ġb et
ers on
p ro
Ġw en
) ,
g ab
ab ei
Ġbei m
ĠL and
b au
kti v
ĠH and
ti on
st Ã¤n
im m
al en
o ff
ar ten
uch t
w e
Ã¤ u
Ã¶ ff
i a
at er
Q u
Ġhat te
Ġj ed
wei se
ĠD a
s o
m a
ĠS ex
Ġw el
lin e
Ġm uss
ge ben
Ġdies em
ar d
t eil
z eu
Ġet was
s atz
ĠM ar
ei m
f all
f ten
y st
w end
u st
Ġ2 00
ĠF Ã¼r
h a
Ġd ir
sp r
ĠD aten
ĠW ie
Ġer st
Ġan ge
ĠB et
Ġd eut
er en
d ing
a y
Ġsein e
Ġ 7
Ã¤ h
Ġander en
ĠD u
i de
Ġb ie
ĠMen schen
e z
st and
arb eit
Ġ Qu
z t
Ġ 8
ĠS e
ĠR ei
auf en
Ġin s
yst em
ch er
Ã¶ l
m ent
am en
Ã¤ d
i o
or en
ĠW enn
in e
Ġ 0
Ġo b
k el
ru ck
ier te
it ion
hal t
s k
Ġge l
s st
Ġd amit
bur g
ĠL ie
tern ehmen
Ġj a
Ġf inden
n ung
in nen
u ten
ĠB o
ĠPro du
r en
ĠH o
Ġge f
u te
au m
Ġm achen
ĠG er
an ge
Ġd och
ĠK inder
Ġge ht
ĠA m
im mer
c e
Ġsch n
ich te
Ġl ei
l and
re chen
ĠA ut
ĠT ag
ĠIhr e
Ġaus ge
ĠB r
w eg
Ġ1 0
a ar
b es
hal b
ah n
stell t
Ġj etzt
ver s
Ġm Ã¼s
Ġneu e
o ur
Ã¤l t
in de
l t
ĠGr und
ĠJahr en
u chen
Ġv iele
ĠB es
Ġ 9
z ei
schl and
d r
ĠT eil
schie den
ra d
h m
ei ÃŁ
g ang
u b
Ġden n
an der
Ġ /
pp en
sch ei
Ã¶ s
Ġall es
Ġk ein
Ġge h
Ġw Ã¼r
o w
i p
Ġz wischen
un der
Ġbe g
la ge
at s
isch er
ĠA uch
Ġwur den
o st
at Ã¼r
z ent
a kt
ich ten
ĠEin e
k eiten
Ġwar en
s etz
Ġl assen
fahr en
Ġn un
Ġson dern
mit tel
or g
te m
f Ã¼r
ĠSt adt
b ild
k ommen
ĠM an
ĠI hnen
ol og
ĠW elt
z ie
in gen
as se
w ir
el e
s i
Ġs eit
ĠSch w
ge m
Ġ eben
Ã¤ re
au pt
2 01
am t
o v
ann t
Ġk onn
ĠM us
Ġ &
f te
k s
Ġd abei
i um
es se
rie b
ei g
ur z
Ġsoll te
ĠP erson
Ġein z
al ten
Ġb in
Ġber eits
r icht
lich er
ĠB est
o gen
Ġ1 8
und es
s el
ĠH aus
ĠP art
an den
ro t
ĠM in
ĠM on
un ktion
ĠU hr
t ur
ĠF r
Ġunser e
es sen
ĠDeut schland
o ten
Ġbes onder
Ġander e
al d
Ġer sten
ĠDie se
Ġal ler
ach e
ĠF ahr
ra ge
ig keit
âĢ ¦
h ol
am il
Ġm Ã¶ch
ĠN eu
lie ÃŁ
la gen
1 2
ĠG l
Ġdies es
ĠJahr e
p h
ĠW ei
ĠE x
ĠIn form
ĠGe w
ĠVer s
ĠK ont
ber g
st ag
S t
bl em
Ġge st
Ġsein er
or den
Ġk osten
ch n
ĠA ber
ĠR eg
in ter
Ġk ommen
pp e
Ġb esch
fol g
Ġs ei
Ġl etz
Ġver l
ĠUn ternehmen
ĠP ol
Ġn ie
00 0
al itÃ¤t
Ġ ex
stell ung
1 0
Ġ2 0
i an
il der
Ġw ill
Ġm Ã¶glich
g l
uch e
ĠW och
sam men
rei chen
er v
Ġd e
au er
ĠB ild
Ġ te
ĠF re
Ġzur Ã¼ck
Ġg leich
Ġzu sammen
w o
Ã¤ uf
ĠR o
a il
en den
at iv
wer t
Ġh eute
u ÃŁ
D ie
ĠÃ ĸ
Ġals o
ĠD e
ĠIn tern
ĠmÃ¼s sen
un kt
ind et
ĠArb eit
t ag
p r
Ġd rei
Ġp er
Ġ1 5
Ġver schieden
ĠTh em
ĠE l
a den
s icht
atÃ¼r lich
Ã¤t z
ĠkÃ¶n n
ĠT e
h aus
Ã¤n der
t rag
eu er
m in
un ter
rei ben
ĠSch l
t s
t schaft
ern e
st ellen
ier ten
ei le
z eich
ĠW eb
rau m
d ung
Ġver s
z w
a c
ĠSt ra
am p
as ch
ĠB au
Ġda zu
Ã¤hr end
k lich
Ġw eil
ĠG ro
Ã¼n st
ĠZ us
z ahl
Ġschn ell
Ġunser er
i f
Ã¤ m
Ã¼ l
ent lich
Ġ ...
Ġneu en
n it
ĠH ier
kt u
Ġkom mt
ĠWas ser
g ie
er e
b el
k ten
Ġein mal
y m
r um
ĠF or
Ã¤ ÃŁ
ĠGe b
ĠD es
Ġihr er
I n
Ġi hn
ig n
1 1
Ġ1 2
ach ten
is s
Ġdie sen
h Ã¤lt
Ġf Ã¼hr
ei ster
Ġbe f
Ã¤ hl
Ġm eine
ie s
Ġsch Ã¶n
ĠM ed
Ġihr en
g ar
ĠL e
ĠG em
r at
ĠU r
ĠIn ter
am men
kl Ã¤r
ĠO n
m an
ĠD urch
ĠS te
ĠK o
ĠP f
ĠG en
Ã¤n g
ĠS ti
ĠW ohn
rit t
Ġge b
en de
Ã¤n ger
ĠRe cht
ag t
r on
ĠC o
ĠF ot
Ġst eht
ĠF rei
sch utz
sch u
w a
ĠFrau en
ĠK unden
Ġf ol
i sten
g lie
ot t
y p
t lich
for der
or n
m ann
g leich
Ġh o
sch ein
k er
ĠM o
m us
ĠEur o
Ġver b
r em
w w
Ġ .
Ġh och
ĠÂ »
st Ã¼t
w ort
t re
ĠDie s
ien st
h in
Ġsich er
âĢľ ,
Ġsein en
ĠM ann
ge w
al len
sp rechen
Ġje der
or f
e ter
ra in
g ung
eu ch
ri v
Ġs ol
Ġjed och
fall s
ĠB undes
ĠS eite
f ern
ĠF il
ĠAl s
re cht
im mt
Ġall em
ĠF all
ion en
nah me
b o
nis se
ĠW ar
gr und
ĠK osten
Ġ en
a z
ĠwÃ¼r de
Ġs ex
alt ung
Ġf est
Ġ on
Ġein ge
ck er
Ġl ang
z ial
Ġ em
ĠB uch
en s
al s
Ġ [
zu g
a f
k ehr
ck e
or gen
ĠVer b
Ġb lei
le gen
Ġg ar
ff e
ĠF amil
Ġd ort
Ġv oll
z immer
ĠL u
Ġ â
Ġre cht
k un
p rÃ¤
en z
Ġ eh
ĠN e
Ġin ter
b ung
Ġs ehen
ĠIntern et
ĠSch u
j ekt
Ġi hm
Ġwel che
wer k
Ġwir klich
ĠR Ã¼ck
1 5
ĠÃ Ħ
Ġk on
m un
Ã¤ ft
f ang
Ġm acht
v on
stÃ¤n d
enn t
Ġf rei
ĠB eg
p ti
Ã¶r t
Ġal len
ĠAr t
E R
ck t
Ġb el
ĠEn de
Ġbie tet
el s
Ġb en
ĠM Ã¶glich
Ġkonn te
ĠJ u
ĠPro blem
Ġb r
ĠBer lin
eit ung
t t
Ġb eh
ĠAl l
u er
gr amm
Ġbes ser
arb eiten
gab e
k on
Ġst ehen
ding s
Ġnicht s
ĠS on
f Ã¤l
schie d
w or
in o
Ġw ichtig
Ġm us
ĠF orm
an st
ic e
sten s
rie ben
Ġn atÃ¼rlich
al is
um en
ĠLeben s
c o
ĠL in
Ġb zw
w eit
ti ert
ĠD r
f rei
ĠW eiter
y s
ach sen
ĠSch ul
en nen
ation s
ĠK ar
ie t
h Ã¶
ra f
Ġ ,
schl uss
il fe
lei cht
it te
wo hl
Ġa ktu
f ort
iel t
i te
un st
3 0
ĠInform ationen
ĠB esch
et ten
an s
ĠL ei
tig t
Ġlie gt
j e
Ġletz ten
Ã¼n f
ĠOn line
ĠO ber
as st
scha ften
ing er
et te
ei len
z ogen
ĠSt ud
k auf
kun ft
ĠP h
Ġgr Ã¶
Ġ1 6
z er
n eh
Ġw ollen
ra ft
ĠM al
1 9
a v
in anz
an is
Ġgen au
Ġ1 4
Ġda fÃ¼r
Ġsch w
h len
l ig
ul tur
Ġwo hl
ch te
ĠP reis
kt ur
ĠS el
S ch
Ġn Ã¤ch
d et
ĠSt and
Ġg erne
Ġ Y
gab en
Ġst att
g angen
Ġ3 0
on e
lau b
i der
Ġver st
ĠAn geb
ĠU S
o te
Ġer halten
ti er
ĠV ide
ĠS tel
ĠB Ã¼r
ĠH och
ĠD ar
Ġo f
ĠB eh
f il
v oll
ers Ã¶n
Ġgem ein
Ġger ade
ĠmÃ¶ch te
ĠZus ammen
ein er
Ġver w
1 6
Ġge ben
au se
Ã¶r per
Ġ :
wick lung
h eim
Ġ201 8
Ġein ige
Ã¤ ter
ĠArb eits
st ra
k om
ag er
ech n
1 4
ru ppe
Ġw Ã¤re
ol it
Ġje den
Ġv ielen
s eite
icher heit
ĠW eg
Ã¼ ss
Ġw e
Ġw Ã¤hrend
Ã¤ sst
ick en
1 8
ut ter
zeu g
Ġo ft
le x
ier e
ro m
or no
it zen
am pf
b ei
5 0
Ġwen ig
Ġsein em
ing t
Ġ1 7
d ruck
Ġi r
n ehmen
is k
s Ã¤tz
ĠN utz
1 7
Ġdir ekt
ĠO b
" ,
Ġh Ã¤t
ĠG eld
u p
Ġweiter e
Ġden en
ĠSp ort
Ġw ei
st off
r Ã¤n
ĠK Ã¼
b et
h and
Ġgro ÃŁe
âĢ Ŀ
s ol
ut zen
ĠB ed
ĠGem ein
A n
Ġr und
ĠMus ik
ach te
wei l
ob il
Ġh and
ri ft
Ĥ ¬
Ġl ange
Ġge t
et ter
ĠSt a
h op
Ġf r
b ie
Ġge hen
ĠS a
Ġbei den
ĠGe gen
p unkt
ĠF ar
ĠD i
ie f
Ġk urz
ah er
k o
ell schaft
Ġgro ÃŁen
ol z
Ġ ch
ĠF ach
ti kel
ĠC om
p e
ĠD en
Ã¤ ss
ri ff
lei st
ĠWoch en
ig ung
ater ial
Ġm o
v en
it u
Ġso gar
ĠC hr
- -
ĠK r
a ÃŁ
Ġbesonder s
al er
ar e
f eld
rot z
ĠEur op
ing s
Ġo ffen
Ġg ute
Ġauf ge
rau en
1 3
ĠVer l
Ġem pf
Ġer ste
Ġ1 00
Ġb rau
Ã¼ b
Ġet wa
ri st
ĠSt r
Ġt he
Ġbe sten
Ġdar auf
ah men
ĠI de
em ber
ol d
ĠP ar
Ġon line
ei tet
er k
i x
ĠM od
st r
ĠV on
Ġgem acht
Ġver m
Ġgro ÃŁ
ĠPl atz
eh n
ur s
ĠThem a
ein ander
ĠHo tel
st adt
ĠL eist
at ive
Ã¶r en
Ġbie ten
ĠB ilder
ĠT i
Ġeigen en
Ġw issen
ver b
ĠMit glie
Ġst ell
ei gt
u ter
b eh
ĠâĢ ľ
Ġt eil
Ġ X
ĠkÃ¶nn te
ĠOr t
on d
ĠS eiten
ah len
lich t
ĠH aupt
ĠE m
ab en
m Ã¶glich
2 0
m ar
ti k
Ġ1 3
or e
ĠBei spiel
rei se
ĠS u
zie h
Ġ Ã¶ff
ge gen
ho f
le gt
ĠJ e
sch lieÃŁ
Ġunser en
Ã¼ d
ech s
Ġ euch
ĠM ill
fÃ¼hr t
ĠN atur
a x
ĠT he
ĠZ iel
ĠD och
ĠJu gend
au en
Ã¶r der
le ben
m b
in a
l i
w and
Ġl Ã¤sst
in en
ĠA ben
ĠMit tel
Ġf rÃ¼
ank en
Ġp l
ĠH Ã¶
c om
j Ã¤hr
ĠEr fahr
Ġ u
Ġw oll
au ft
ĠS om
Ġab ge
Ġc a
ĠPart ner
Ġf ast
Ġd ich
wei s
ĠT er
ĠT est
Ġda von
ur t
! !
Ġau ÃŁer
fÃ¼ l
ĠSel bst
i b
ĠK unst
ĠD enn
ĠGesch Ã¤ft
ĠPro zent
re ffen
los sen
sch nit
ĠGr Ã¼n
ĠUn ser
Ġp aar
Ġinter ess
ĠE ner
Ġ rei
E N
Â «
Ġz ie
i ster
ĠSp r
Ġr ichtig
ĠF ol
ĠF rage
gen den
il t
ge stellt
ĠA d
ich tet
. âĢľ
Ã¤n d
Ġw eiÃŁ
Ġent sprechen
ĠAn t
ĠV iel
m Ã¤ÃŁ
arb eiter
Ã¤ ten
w ahl
ĠM ehr
uf en
Ġgemein sam
Ġ5 0
ĠF rank
bild ung
olog ie
ĠM et
Ġir gend
ĠRe gel
am e
Ã ©
Ġihr em
ĠH in
Ġmein er
ĠT echn
ĠVer ein
o se
ĠIhr er
m m
ti eren
ge hen
Ġin ner
Ġf indet
Ġda ÃŁ
ĠK ir
y n
as e
Ġunser em
Ġg l
ĠT ex
ĠS k
Ġent wick
Ġje weil
h le
Ġg ab
Ġhin ter
an ten
Ġ x
ar te
Ġp ersÃ¶n
Ġm ei
nah men
ĠTe am
ĠE igen
ĠF ir
Ã¤d chen
ur e
_ _
d es
Ġhat ten
ĠA pp
ĠBer eich
Ġher aus
Ġz war
isch es
ur en
Ġ #
Ġ el
pl atz
st Ã¼ck
Ġv ier
Ã¤ tig
at h
Ġkl eine
am er
ĠR ahmen
Ġkl einen
au sen
ann ten
re d
Ġk aufen
ĠM ein
sch w
w elt
Ġ2 5
Ġ19 9
ĠM ark
ĠN icht
Ġer folg
etz en
ar m
ĠIhr en
I N
Ġaller dings
war e
i vers
Ġ ro
ĠZ um
al ter
ĠâĢ ¦
re ch
ĠS ystem
b ach
ĠL i
ti sch
Ã¤h len
ig es
l es
Ã¤n ge
V er
rin gen
ĠS icherheit
Ġsch wer
om e
Ġin d
at ten
ĠM Ã¼n
Ġg ilt
ĠT r
ĠBes uch
o pp
z ung
Ġt un
ĠF est
s y
b uch
ĠJ un
ĠM e
ag te
ik er
o ok
j ahr
Ġsoll ten
Ġw ahr
ĠIn st
o ck
om at
ti v
lo se
g lichen
ro ffen
iv i
Ġkosten los
Ã¤ us
lich es
le b
ant wort
ĠVer fÃ¼
ĠD ir
Ã¤t ze
it al
Ġer n
ĠK a
Ġver fÃ¼
Ġn eben
ĠM Ã¤n
h eiten
ĠEin satz
ĠQu alitÃ¤t
i ff
Ġder en
u bl
Ġn ehmen
ĠD at
ĠH a
ze pt
ĠD ank
Ã¤ hn
ĠD ann
it y
ĠAu ft
v ent
Ġsp Ã¤ter
lich keit
eh len
i le
Ġunter schied
b all
sch t
on s
ĠR u
s l
Ġi hnen
ich tige
bl ick
gen ommen
inde st
o ber
ĠV ol
ĠP rÃ¤
Ã¤hl t
Ġk am
le ge
ĠN ie
8 0
et s
Ġle ben
ĠF ragen
ĠW e
ann te
ĠGesch ichte
Ġp rÃ¤
ĠVer t
de ut
ĠP er
fÃ¼hr ung
sp ro
Ã¤n dern
ra kti
n a
m o
Ġw eit
ĠS er
Ġbek ommen
a in
ĠB el
at te
Ġd Ã¼r
Ġw orden
er st
Ġsp ez
art ner
ster reich
ĠW issen
Ġs agen
ĠKont akt
ĠAr tikel
; ;
âĢľ .
ĠF er
t h
ĠGro ÃŁ
ell er
Ġunter stÃ¼t
mal s
be ding
ĠP r
ĠMar kt
ber eich
m Ã¶
fl Ã¤
a ffen
ĠF rÃ¼
ĠB Ã¼
Ġ1 1
ru ppen
ĠE U
st ehen
ĠB eit
Ġst ark
ivi du
Ġsch reiben
Ġn ah
Ġeigen tlich
ind ung
ĠG eh
Ã¤ um
ĠPro jekt
s ehen
ĠN ov
setz ung
C H
z Ã¼
ĠG o
Ġf or
gr Ã¼n
icht ung
ĠK rank
ĠP at
ĠS erv
um m
ĠL ehr
at or
ĠD abei
ri gen
re g
Ġ2 4
ol f
age ment
P ro
ver l
ĠMÃ¶glich keit
ĠEner gie
ĠN eben
ĠH am
Ġf re
Ġlei cht
la den
Ġwen iger
ĠAl le
ĠBl ick
stell er
Ġ qu
ĠC as
Ġer klÃ¤r
und heit
st ein
Ã¶ff entlich
ĠProdu kt
ĠF uÃŁ
k ung
ĠH e
Ġkl ein
ĠW or
Ġver t
ru ktur
Ġsch l
ĠFil m
o ol
Ġk einen
Ġz eigt
ĠSch wei
ĠhÃ¤t te
Ġviel leicht
ĠAu gen
Ġsp ielen
en te
S p
ut t
rei fen
rÃ¤ ge
s f
i ent
ein t
Ġbe de
ĠZ ahl
ĠT ran
f on
w ohn
Ġeben falls
.. ..
Ġges p
ĠH ei
arb eitet
fÃ¼ hl
arbeit ung
ak te
ĠMin uten
Ġz ahl
ation al
Ġin tern
ĠN acht
Ġ201 7
Ġver k
den t
ĠT age
rei che
ĠBer uf
l ungen
in ner
Ġverschieden en
Ġf reu
ĠAut o
f r
Ġau t
neh mer
ĠD em
her ap
s weise
ĠEr geb
Ġkann st
ĠK Ã¶rper
A N
ĠS al
um mer
il f
Ġeh er
ĠEin z
Ġge k
Ġk ont
U n
est er
ges etzt
Ġst ellen
Ġb l
spr uch
p tion
icht s
Ġm einen
Ġd aher
ĠSom mer
bar en
ĠVerfÃ¼ gung
Ã¤r en
rÃ¼ f
sch er
/ /
ĠW o
an ce
Ġer z
ien en
ĠV ort
z ess
ĠR aum
Ġo pti
ĠAben d
war z
pf en
bar e
ĠK ind
Ã¤n de
Ã¤ch st
âĢ Ļ
ĠB as
ie g
Â »
Ġkl ar
ĠF unktion
ĠVer anst
ge ber
ĠSch n
ĠG ott
ch es
Ġc m
Ã¼ ler
Ã¤ te
ĠHer r
Ġp assen
D as
as chen
ĠH al
ĠT ele
h Ã¤ng
ĠChr ist
Ġs ollen
ich tigen
ĠPerson en
Ġzu sÃ¤tz
ĠMit arbeiter
Ġg ing
: //
schei den
Ġbe w
Ġ end
tre ten
ĠT rain
mb H
ĠSt unden
ĠFl ug
ff iz
D er
bes ser
ei chen
an te
gem ein
. "
wend ung
ĠJahr es
ĠL es
l ungs
ĠLand es
hr en
Ġwe gen
ĠBet rieb
ĠAngeb ot
b in
ĠPro f
Ġsie ht
un k
sp ort
Ā Ā
le g
ĠN etz
Ġkom pl
ĠR ad
ĠG arten
ĠC l
" .
ar f
ĠRecht s
or ien
zei tig
Ġbek annt
ĠRei se
Ġwer de
ĠM Ã¤r
ĠnÃ¤ch sten
Ġan geb
ess ion
os ition
Ġan d
la f
la y
Ġw under
ĠA t
ab el
wer b
schl ag
Ġs agt
f in
anz en
Ġgeh Ã¶rt
stÃ¤n dig
ie gel
c t
z lich
ĠZ wei
ĠWir tschaft
ĠN amen
ĠR est
Ġz un
Ġs agte
ĠDes ign
ĠS ing
ĠW ert
Ġt rotz
ĠK ap
el fen
sp l
ĠS am
ik a
rau ch
Ã¼n d
p en
ĠG mbH
ĠSt Ã¼ck
ĠPro gramm
ĠP orno
rie den
ĠOr g
onder e
er nen
p ar
gen de
Ġbest eht
ter s
ar r
ĠK at
ĠÂ «
ĠKo pf
Ġer sch
Ġf l
Ġbis her
Ġwoll te
Ġso fort
iz in
ĠProdu kte
Ġmei sten
st att
ĠBÃ¼r ger
ĠG ed
ĠWer k
b esch
ĠJ an
ĠH olz
ĠW ahl
Ã¤ f
ĠG ut
Ġblei bt
m et
in s
ĠJ ul
utz t
ĠG el
au ber
ĠW ind
Ġdeut lich
ge f
ĠB en
ĠEnt wicklung
ĠS h
ĠM aterial
schu le
2 00
Ġk ennen
in ge
Ġ201 6
ab l
Ġ4 0
Ġeinz el
ĠK auf
Ġdar f
ĠS uche
ĠM Ã¤dchen
ĠWoch e
ik an
ik ation
Ġjed em
2 4
Ã¶s ung
Ã¶ ÃŁe
ĠNe w
ĠPl an
Ġh eiÃŁ
. )
t ler
m el
icher ung
Ġganz e
Ġj em
ĠS eit
Ġbe d
ĠFamil ie
ĠVide o
Ġâ Ĥ¬
sy ch
ass ung
ĠAu g
Ġlei der
ĠDie ser
M ail
ik en
ig ht
ot s
ĠB and
Ġdar Ã¼ber
au r
ti sche
lei chen
e k
us st
ĠFamil ien
d orf
Ġmein em
ĠFre und
un kte
Ġson st
Ġdeut schen
2 5
wend et
ĠEnt schei
Ã¤ch lich
h aupt
m eld
ĠK ultur
Ġre g
ti f
ĠSt art
Ġh ast
ra x
Ġsch le
and lung
ĠD ienst
ĠLu ft
Ġver d
schnit t
Ġind ividu
Ġf Ã¼
rit ten
rie g
ktion en
wei sen
it er
un t
tem ber
Ã¼ck en
v est
W ir
ĠG ast
ĠT Ã¼r
tt p
ĠmÃ¶ch ten
Ġf unktion
ĠUn ivers
ar en
it Ã¤ten
c en
Ġb itte
Ã¶ hn
ĠAb s
ĠF inanz
Ġinner halb
w alt
si te
Ġn e
m eister
ĠI st
om it
Ġre gel
te gr
ot or
eig net
w Ã¼r
ĠB ad
ech sel
Ġblei ben
ur op
ĠEl tern
fol gt
ĠEr folg
ge h
I ch
ĠgrÃ¶ ÃŁ
s ystem
ges amt
lie ÃŁen
ĠIhr em
ha ft
Ġ *
Ġstell t
Ġh Ã¶
hal te
g Ã¤n
is mus
it ter
ar i
ent r
ot he
ĠAn g
Ġp riv
Ġer w
Ġer war
bes ondere
al y
ĠW inter
Ġd ein
Ġz eigen
Ġges am
ĠHer z
6 0
ie b
ĠK n
Ġb ringen
t ragen
ĠH inter
un ge
Ġo ben
ad urch
ĠAn fang
ĠF ern
Ġ Ã¼b
Ġs uchen
ĠGl Ã¼ck
ĠO kt
f est
ĠA k
z ip
Ġhin aus
ĠG Ã¤
ĠT our
ig t
ĠB i
Ġben Ã¶
ĠH ilfe
ten s
ĠZu kunft
ĠNie der
ĠP riv
s on
ĠKl ein
ĠGeschÃ¤ft s
ĠSch Ã¼ler
is on
ĠN Ã¤
Ġ %
Ġh ttp
Ġeigen e
Ã¤uf ig
Ġn utzen
Ã¶ t
Ġ ar
ĠZ ur
ĠK Ã¶n
is e
Ġh ei
ĠS ol
ĠHÃ¶ he
ĠJun i
ow n
r ichten
ĠD amit
an ach
sch ung
Ġh al
Ġje de
Ġk aum
u h
Ġf Ã¼nf
zie hen
Ġ Ã¶
d el
zeich net
Ġn ot
ĠP ark
Ġgegen Ã¼ber
ei en
Ġa ktiv
k a
Ġi de
Ġg uten
Ġverschieden e
z us
ĠKom mun
ĠN ord
Ġh alten
ĠÂ §
it ten
was ser
u ck
ĠD ruck
ĠM ag
d ienst
o u
ĠGes undheit
Ġer k
s a
ft ware
ĠB ar
k ont
ĠMa i
Ġkonn ten
Ġweiter en
setz en
ĠEr w
st elle
Ġ +
Ġg Ã¼nst
at is
f el
Ġpro f
ĠR es
ĠAn d
ĠB us
l eitung
Ġ2 2
Ġbest imm
ĠG est
ĠPol iz
ĠH eim
Ġ2 1
ĠSch utz
ge st
ĠE le
au ch
Ġin form
Ġ201 5
r uf
h em
z uf
Ġt o
ges etz
k sam
Ġh elfen
Ġab sol
rad ition
at ung
ahr en
du z
Ġbek om
os it
en zen
ĠAus wahl
ien ten
og le
pf er
tig keit
d ie
ĠLie be
ĠMill ionen
un sch
Ġw eg
ĠN ur
sen t
ĠJ o
ĠfÃ¼hr en
ĠBo den
we gen
ist or
Ġte chn
ativ en
k or
Ġbe vor
ĠSe p
. ,
ul t
Ġher vor
ĠL auf
s h
ĠL icht
stra ÃŁe
Ġs u
stell ungen
ĠAu ÃŁer
ĠEr n
as en
4 0
ter t
st imm
ĠMa ÃŁ
r ich
ĠEinz el
o c
f rage
eh m
E in
Ġer f
h ein
y l
ber t
ĠVer trag
ei den
ĠPol it
A l
Ġvor h
ĠDies es
Ġs ucht
ĠMed ien
kl us
sp iele
ig in
fahr t
rax is
iel l
og raf
ĠReg ion
ĠGes ellschaft
Ġn orm
u tet
ĠIn f
on nen
be zogen
l ang
p ort
Ġp erson
a un
ĠH aut
Ġdes sen
ĠT em
k r
w ehr
ĠMÃ¤n ner
ĠTag es
pp s
ent lichen
eh ler
ĠLie fer
ĠOkt ober
u e
Ġl in
- ,
ĠF Ã¼hr
Ġver sch
ord nung
Ġso zial
ĠB ro
au sch
it ze
mÃ¤ÃŁ ig
wir tschaft
Ġ '
2 2
s ie
Ġm ag
ĠM utter
ĠT o
or gt
ĠIn nen
Ġso wohl
Ã¶ sen
i ver
os sen
Ġd eine
iel le
Ġmehr ere
ĠCh ar
Ġw elt
Ġ arbeiten
Ġlie gen
ĠD ach
ĠK in
9 9
ĠThem en
Ġbei spiel
Ġ2 3
Ġver wendet
br ingen
och en
k reis
Ġander s
mar kt
j a
ĠWei se
c l
ĠSep tember
org anis
richt ung
ĠNov ember
ĠE is
ĠfÃ¼hr t
ĠIn s
ate g
an de
Ġg lau
l auf
b ahn
Ġs omit
bie ter
ei er
ĠWeb site
um s
Ġdar an
ack en
rit te
fÃ¼hr er
ĠF euer
ĠP ap
Ġ201 4
Ġum f
ĠK raft
Ġz eit
rÃ¤ gt
ch ten
ĠM ich
Ã¶ nen
ir t
ĠL eute
ĠW el
Ġp ass
ĠFot o
ĠAl so
ier ungs
te chn
7 0
en ten
Ġer hÃ¤lt
h under
Ġt Ã¤
op h
ĠP o
Ġmus ste
rit er
ĠgrÃ¶ ÃŁer
Ġp olit
ĠP ost
Ġst and
ak ter
Ġex t
ĠT ier
ick t
ĠheiÃŁ t
Ġl Ã¤nger
k osten
ĠSpiel er
Ã ĥ
ĠS m
n ach
ubl ik
ĠUnser e
Ġhand elt
red it
ĠB ay
ĠS Ã¼d
eh l
ĠZ immer
ĠS onn
Ġ6 0
gel n
in ne
h ab
u sch
sch ul
s b
Ġr ein
ĠSch m
gesch lossen
Ġer fahren
Ġgef unden
ĠA pr
Ġent scheiden
mit t
ĠM il
Ġdes halb
Ġber eit
Ġsol che
Ġt ats
4 5
an ger
ĠE ben
ĠEr st
ĠIn d
ĠL age
ĠGe bur
Ġal ten
l esen
ĠE ro
Ġge geben
ĠT ur
f re
ĠSte uer
ĠV oll
ĠUnter stÃ¼t
ĠM ont
ĠGen er
w issen
ĠSo zial
Ġer forder
ĠMÃ¼n chen
im men
ĠJul i
201 8
Ã¤l lt
h ei
iel len
E S
Ã¼n dig
rei cht
Ġw es
ĠS en
Ġd am
ĠT agen
ĠSp aÃŁ
ĠBeit rag
ĠS il
ĠMÃ¤r z
Ġun ver
Ġm eist
sp e
ĠB is
ĠW ein
f allen
ĠH el
Ġjed es
ĠT ra
flÃ¤ che
f Ã¤h
ig it
& #
ĠS itz
E r
Ġ 01
ĠJ etzt
te te
ĠBer g
herap ie
g ruppe
geb ung
ig keiten
ĠhÃ¶ her
ĠSch Ã¶n
lieÃŁ lich
r acht
Ã¼nst ler
ĠFot os
ĠAr ch
f ft
as che
ĠServ ice
et ail
ĠD ez
ĠWei hn
ĠA c
ĠH ause
al tet
u ell
z eiten
om ent
pe ten
ĠVer gleich
Ġzwei ten
ge t
ĠD ort
Ġk m
lie gen
st at
forder ungen
ĠK ur
w ill
al ien
Ã¶ st
ie ÃŁen
te st
ĠUS A
ĠÂ ·
ĠW ahr
ð Ł
Ġm m
ĠÃĸ sterreich
' s
o o
w Ã¤r
Ġm Ã¶
ĠEr k
Ġgew esen
pl an
ra gt
ĠR om
il den
ĠC ar
Ġfreu en
ww w
Ġganz en
Ġl esen
la st
Ġer reichen
Ġ Ã¤hn
ĠH eil
ĠSt re
ne te
ĠBe weg
ĠW ien
s ver
is se
tig ung
Ġeben so
f urt
sch rift
p on
ĠT op
ĠAug ust
ĠBeh andlung
ĠT re
Ġbeispiel sweise
ĠGo ogle
ĠdÃ¼r fen
ab il
sp h
Ġp rakti
iv en
c a
; &#
ĠMen sch
al le
u ar
ĠD is
2 3
sp ann
ĠÃ¼ber haupt
wie sen
ĠD on
Ġver gangen
ĠAuÃŁer dem
Ġjem and
s sen
os s
teil t
ĠG ar
w agen
ĠP ort
ĠBl ut
rei bt
schu he
ĠHam burg
s ei
ĠPoliz ei
ft ung
Ġf inde
asch inen
ĠBl og
ĠGes amt
ĠprÃ¤ sen
r oll
lin gen
or ie
ĠVer kehr
ĠN un
Ã¤t zen
ĠAl ler
ĠR olle
ĠUr laub
Ġins besondere
an geb
Ġnot wend
Ġwel ches
ĠR a
teil ung
u ster
meld ung
wert ung
ĠCom p
Ġmit tel
Ġk ur
ĠBei m
Ġvorh anden
d i
A r
Ġent st
ĠErfahr ung
Ġ201 3
min ister
ĠW ider
m lich
A R
Ġh Ã¶ch
b ank
ĠF ac
ie w
per atur
ĠFrÃ¼ h
ĠF e
ĠEurop a
ĠOrg anis
ĠW and
k ur
ĠEle kt
inde stens
Ġauf grund
ĠStel le
Ġ rau
rei b
Ġd r
9 0
inn t
Ġgew orden
Ġver z
ig ar
ab e
h ilfe
Ġun be
ĠfrÃ¼ her
ĠT or
ĠG ruppe
ĠApr il
Ġge d
ĠS c
je kte
ĠIde en
Ġbef indet
Ã¼hr en
Ã¶ffentlich t
am ent
zieh ung
ĠAl t
Ġd ank
Ġent fern
el te
ĠEs sen
ĠR ichtung
ĠW Ã¤hrend
ĠS an
Ã¤uf er
eb ook
h ang
ĠProblem e
Ġander em
ĠD amen
ĠPf lege
Ġmo dern
ĠJahr hunder
Ġbe ste
schlieÃŁ lich
Ġaut omat
ĠDa zu
ĠSch laf
ĠKom ment
eh e
ĠN ot
ĠCas ino
ĠH aar
ĠÃĸ ff
ĠSchu le
ĠKrank en
e cht
ĠSp iele
ĠMitglie der
ĠW ald
Ġjeweil s
ĠI I
Ġerfolg reich
ĠwÃ¼r den
ĠSonn tag
re ten
klÃ¤r ung
ĠTi tel
no v
ĠS or
l assen
ĠO l
tig er
Ġvor her
ĠNutz ung
Ġein igen
Ã¤u de
ver stÃ¤nd
f ekt
ĠK urz
ĠGÃ¤ ste
ĠGes etz
sicht lich
Ġ2 8
ĠEm pf
weg s
ĠW ett
ĠB ur
ĠSon nen
ï ¿
ĠS ym
z te
ĠW ort
s m
zeu gen
ĠGes prÃ¤
k rÃ¤
Ġintern ation
Ġm ed
sch au
zei gt
hÃ¤lt nis
iz iert
Ġs etzen
o x
Ġsel ber
y r
Ġh Ã¤ufig
ï¿ ½
ĠMitglie d
s or
ĠErgeb nis
ĠTex t
ktiv e
ĠR at
Ã¤u ft
ck s
it h
Ġgr und
Ġer hÃ¶
Ġhoch wer
Ġ2 6
ich ter
f rist
Ġbet roffen
ĠC on
ab hÃ¤ng
ĠDeut schen
ĠFar be
ĠB ru
Ġaktu ellen
a ir
g ien
lo sen
ack t
ĠMÃ¶glich keiten
Ġges ehen
M it
st ieg
Ġall ein
Ã¤nder t
Ġsu per
Ġer folgt
Ġp osit
Ġt reffen
Ġ2 7
ken nen
Ġbede utet
v e
Ġentwick elt
ĠZ we
m ehr
Ġ201 2
ĠS itu
lei ter
ĠB aum
ĠG anz
ungs ver
Ġw Ã¼n
Ġ ur
ĠB ahn
z ig
ro p
de ck
ĠB ank
ĠGr Ã¶ÃŁe
ĠAuft rag
bar keit
Ġl eich
Ġi s
sam m
p reis
ĠK olle
se x
ĠBes onder
ĠNÃ¤ he
aur ant
ĠStra ÃŁe
Ġwar um
pro du
Ġan ges
gel d
I T
Ġbr ingt
ĠM otor
Ġdeut sche
Ġmit tler
Ġk Ã¼
ĠP fl
ĠW Ã¼r
ĠJan uar
Ġ us
u be
ĠWie der
Ġw ww
ĠSp ez
k ungen
um ent
Ġbest ehen
rei ten
ĠP ass
Ġ ak
ĠEx per
ĠK il
Ġlie be
ĠG leich
ch mal
Ġr el
m and
ĠK lei
l ing
A S
Ġl os
ei ger
2 6
ĠK reis
ĠF Ã¶rder
Ġ y
f ter
Ġal te
eit ag
beh Ã¶r
ĠA G
ob ei
dr Ã¼ck
Ġf and
mittel n
ĠH all
im a
. :
A T
ĠR ein
ĠDaten schutz
Ġperson en
Ġet c
em in
ĠB al
Ã¤l ter
Ġm indestens
ĠGemein de
rÃ¼f ung
dr esse
v olle
Ġzun Ã¤chst
r y
Ġ or
ĠO der
b ol
m ed
Ã¤n dig
ĠFl Ã¼
ĠD isk
ik o
ar ch
ĠGebur t
ĠK Ã¶l
Ġbel ieb
rei sen
ĠFer ien
ĠV iele
ion s
Ġal t
s uch
Ġbrau cht
ĠB itte
zent r
Ġ8 0
Ġ19 8
fol ge
ĠE ing
Ġf er
Ġkl ass
m ack
be d
ĠschÃ¶n e
Ã¤m lich
ĠR is
Ġgen ug
ĠFar ben
ĠZu g
wei le
Ġel ekt
Ġb em
ĠSt ein
I S
Ġz w
E D
ĠKin dern
st a
ach tet
hl t
own lo
eich er
Ġver besser
rÃ¤ ger
ho w
ri ften
Ġv Ã¶l
Ġf rauen
ĠDez ember
ser v
ĠSt rom
halt ung
ĠUnterstÃ¼t zung
Ġins gesamt
Ġan zu
it t
ĠF eb
rei bung
m iss
ĠM er
ĠSam stag
Ġho hen
ĠSo ftware
Ã¼t zen
Ġgel ten
ĠK or
rei ber
p rÃ¼
d aten
ĠB on
p el
ĠMod ell
ĠUm welt
ĠSu per
Ã ľ
Ġl ernen
ĠP rin
ĠVer antwort
ĠF Ã¤l
Ġs e
â Ĥ¬
z wischen
Ġgeh Ã¶ren
E L
2 7
s ichtig
2 8
i pp
3 5
Ġempf ehlen
ak e
du st
Ġ >
g liche
Ġf ort
E n
Ġneu es
Ġpersonen bezogen
m od
Ġj unge
ĠTele fon
ĠN r
st o
na pp
ĠSm art
ĠS oll
il len
__ __
er in
ĠF ort
se e
ĠStra ÃŁen
Ġho he
ĠD inge
ĠRe gen
ĠT ri
ist r
Ġtats Ã¤chlich
Ġsp iel
ĠAl ter
ĠP eter
ĠEntschei dung
ĠIn halt
Ã¼r f
w esen
Ġges agt
Ġend lich
b y
em ent
ĠS P
ĠE t
l ass
Ġb ist
v ol
ĠâĢ ¢
ĠHer ren
schl Ã¤
br acht
ĠW etter
ĠAut or
Ġvor bei
Ġbei de
Ġ =
ver t
ĠT od
O N
Ġd adurch
p or
ohn t
ĠAn ge
m obil
ĠEn d
Ġeinzel nen
Ġn Ã¤mlich
Ġopti mal
ĠUnivers itÃ¤t
hr e
Ġentfern t
Ġge eignet
Ġverw enden
Ġn immt
ĠGl as
a ktion
Ġver ein
om aten
ĠVide os
reu de
op er
ĠStand ard
ĠL a
ra te
ĠInter esse
ĠSti l
ĠM Ã¶
Ã¼s se
Ã¤n gt
Ġzu dem
ĠF en
an e
k lei
h ausen
ĠSch ritt
ĠO st
pro chen
Ġer fÃ¼l
il le
ĠKÃ¼ che
ne ten
asch ine
Ġbekom mt
it i
Ġz ehn
opp el
ĠL og
ul l
ar ian
an lage
ĠA ktiv
rie d
ĠW est
am a
2 9
geb iet
itz t
st re
ĠErfahr ungen
ĠTeil nehmer
Ġe urop
Ã¶l ker
ĠR ot
ĠGew inn
ĠPriv at
ĠD etail
ĠH eute
ĠJ a
ĠEn g
Ġl aufen
Ã¤ ischen
Ġvergangen en
ĠD ien
in k
Ġsch eint
Ġsel ten
Ã¼ ch
Ġsp ann
u ft
ĠAn der
Ġges etz
Ì Ī
s ein
ĠK re
ĠPat ienten
n ess
Ġverb unden
;; ;;
Ġst Ã¤r
ĠLeist ung
ĠVer kauf
ĠSt u
wor ten
pf lich
ĠK ateg
ĠHer aus
f ar
ĠS icht
ĠB ab
ĠÃĦ n
3 3
ĠSa ison
schlieÃŁ end
ur f
ĠVerb indung
st ru
ĠH ig
Ġm en
Ġt oll
ĠBas is
es ser
ru ar
Ġf al
ges sen
uch s
ĠB ran
de cken
z ahlen
Ã¼ss el
Ġnah e
ĠVer arbeitung
Ġbe ein
deut ung
7 8
g n
Ġent halten
ĠP raxis
ĠSchwei z
Ġ2 9
al k
ik e
ar s
zeu ge
er r
ri fft
Ã¼ gen
ĠM ass
Ġ201 1
g te
Ġf ahren
v is
ĠIde e
ĠStud ien
ĠC he
ĠProdu ktion
r olle
ĠWohn ung
ĠS w
reu z
off e
o der
ei d
Ġso gen
am mer
Ġer reicht
l s
ĠSti m
Ġkompl ett
Ġ Ð
a el
Ġh Ã¤lt
ĠBesuch er
sp ar
si dent
Ġdam als
ĠPolit ik
Ġf inanz
ownlo ad
ĠPh il
b Ã¼r
ĠG old
ĠSch au
ĠerklÃ¤r t
Ã¤hr t
Ġin dem
6 5
ĠT isch
o ut
us e
Ġm on
l ad
og ra
Ġd anach
Ġm in
ĠFeb ruar
ĠMe er
Ġb ald
i as
Ġs etzt
bur ger
ĠMen ge
ĠAu ÃŁen
p ark
Ġ ðŁ
ier ter
ĠBest ell
ĠÃĦ r
ĠW unsch
zent rum
ĠSta ats
ver ein
anz eigen
ĠFol ge
ĠSch wer
de te
Ġn Ã¤
ĠKir che
ĠvÃ¶l lig
h el
et ing
ho st
ĠEnt wick
Ġbest immt
Ã¶s ungen
leist ungen
z on
Ġs ah
7 5
n ern
am es
Ġd rau
u hr
beding t
Ġl aut
ĠB ett
Ġbeh and
ĠG ruppen
s itzen
k raft
A us
ĠVor aus
re cher
ĠS and
ĠM eine
ĠK an
a i
Ġst ar
ĠAus bildung
Ġt ragen
wei ter
ro h
Ġfol genden
ge fÃ¼hrt
ĠStel len
ĠC D
ĠFac ebook
fl uss
be w
ĠunterstÃ¼t zen
alt ungen
ĠI t
s eh
Ã¤n gen
ĠG et
Ġsp ielt
rÃ¤ um
O R
schein lich
ĠKÃ¶n ig
ĠS l
0 9
ĠGed anken
ĠD re
gl isch
ĠR ed
B er
Ġs echs
ra un
Ġzu l
is iert
ti schen
hol z
au st
Ġeh em
la ck
-- --
Ġ ech
anz Ã¶s
ĠD om
Ġ201 0
Ġwer t
ĠIn halte
ĠD ok
ist ischen
lo ck
ĠRest aurant
ĠFr eitag
eu cht
ĠI s
ĠT ro
w ig
Ã¼ ÃŁ
ap an
U S
Ġjeweil igen
z eigen
ĠR und
Ġun ten
ĠMon ate
v iew
Ġaus zu
as h
ĠWissen schaft
Ġh il
R e
fol gen
ger icht
Ġgleich zeitig
Ġzie mlich
d o
ĠIn vest
Ġt h
ĠTer r
ĠunterstÃ¼t zt
G B
dust rie
it en
ĠT ab
ti l
mÃ¶glich keiten
Ġangeb oten
Ġkom p
den ten
ĠAuf gaben
ĠK amer
be g
Ġge stellt
Ġm ax
ĠFir men
ĠGe fÃ¼hl
Ġ Ã¤u
Ġw obei
O S
Ġtrotz dem
ĠN atÃ¼rlich
Ġer mÃ¶glich
sch n
Ġs orgen
al if
ĠD rei
Ġletz te
Ġr ichtige
x t
zei chen
ff er
beding ungen
Ã¼ck e
k arte
Ġsein es
Ġkein er
ĠMit te
Ġweiter hin
ĠBe deutung
9 5
E s
ĠK rieg
Ġen g
ĠL iter
ĠFir ma
Ġfre und
rau t
au l
ĠBer atung
ĠH ome
ok rat
h ard
g arten
ĠDeut sche
u x
w och
em en
Ġein zu
- )
Ġj en
ĠV ater
aly se
jÃ¤hr ige
Ġsch lieÃŁlich
ĠJ ob
rei te
Ġw ider
stÃ¤n de
Ġ ?
ĀĀ ĀĀ
Ġh eu
lei tet
b and
ĠVers and
ie ten
Ġg ern
ĠP orn
ĠZu dem
ĠA mt
Ġwel cher
st all
) :
ĠSch warz
4 8
ĠR el
af ft
Ã¶ pf
ul ar
ĠW ill
ĠBeg inn
h ann
ĠGe f
ĠWeiter e
Ġbesch Ã¤f
. -
ĠK u
ach st
in t
at es
org ung
2 1
Ġbe gr
Ġe cht
ĠW olf
w ind
lt ag
alis ierung
ĠzusÃ¤tz lich
Ġsp r
lie b
ĠP al
imm el
ĠSchu he
Ġ9 0
ĠDas s
Ġzum indest
ĠF ehler
ma ÃŁ
ĠP reise
Ġ ;
Ġin tegr
at ik
ĠM art
ĠMon at
ĠP unkt
z ul
ĠS atz
ĠAller dings
Ġder zeit
ĠAngeb ote
Ġh ol
it ut
ĠUnternehmen s
ĠEr d
ĠKosten los
Ġo ber
Ã¤ den
ĠMein ung
ĠVer fahren
es e
ĠPerson al
k unden
Ġper fe
n ungs
lei sch
ĠDeut sch
ĠWeihn acht
s se
Ġw ohn
Ġp h
ei sen
3 8
richt ungen
Ġp orno
ĠL Ã¶sung
ĠUm gebung
Ġper fekt
A L
ĠB all
ĠS inn
ĠL o
4 9
ĠS ache
am in
ĠT V
pr ess
ar a
0 5
Ġber ech
ĠW ander
sp rÃ¼
k ir
Ġgen ommen
ĠAn bieter
a ktiv
Ã¤us er
Ġher r
ĠWar en
ĠD ich
Ġt ran
ĠAl ltag
itz er
ig ur
den ken
Ġmo der
ĠÃ¼ber n
Ġsei en
w altung
D F
0 8
ĠE d
ĠFuÃŁ ball
sch riften
a kti
Ġrecht s
ĠL ust
Ġs inn
Ġer kennen
ĠKa ffe
sp ir
ĠverfÃ¼ g
Ġgro ÃŁer
ĠT yp
ĠB ern
an en
s uche
ĠD o
om eter
ĠSt Ã¤d
ĠR hein
Ġjeder zeit
0 6
Ġfunktion iert
uch te
lie ben
Ã¼t zt
Ġ organis
zeu gt
s burg
In nen
verb and
ann e
lo w
mer z
los s
Ġbeg innt
Ġt ot
0 7
Ġver g
ĠTechn ik
mitt lung
Ġh istor
Ġge pl
ĠkÃ¶nn ten
Ġgesch rieben
ele gen
g ut
at ing
Ġ3 1
lin ge
ĠermÃ¶glich t
ĠRei he
Ġander es
Ġsch affen
be werb
Ġ ad
st euer
ĠFahr zeug
zahl ung
ĠKÃ¶l n
jÃ¤hr igen
wer te
neh m
gesch ichte
ĠL ang
ĠHer steller
ĠI r
ĠGeb Ã¤ude
ir e
3 9
ĠA p
Ġ7 0
3 6
stimm ung
ĠVol ks
Ġ200 9
ĠP aar
Ã¼t z
Ġer le
om as
ĠFen ster
4 4
im e
ze p
u tion
on g
igin al
Ġverst ehen
ĠHall o
ĠSal z
ĠNutz er
Ġsch Ã¶nen
Ġs ing
geb aut
Ġst ets
ĠKon z
ier ungen
ĠAng st
ĠAll es
ĠK ampf
mer zen
Ġer h
b s
ĠM eter
enn ung
sch rank
U N
leb nis
Ġg leichen
leist ung
Ġ ehr
Ġzahl reiche
S ie
ĠZusammen arbeit
ĠR eich
der ung
Ġr uh
ĠZ wischen
ĠN ational
Ġehem al
ĠSitu ation
Ġbe ant
ĠZu stand
ĠComp uter
Ġ3 5
Ġprof ession
a ff
ĠÃ¼b rigen
spr icht
ir m
ul ti
Ġâ Ĩ
eg al
ĠK Ã¼nstler
Ġzwei te
ist ische
ĠAn gaben
y er
ĠVer m
ĠAl tern
z in
ĠBÃ¼ cher
ĠErw achsen
ho ben
ĠS inne
ĠP osition
statt ung
tel l
lei ten
Ġst e
ĠMet ho
0 4
ennt nis
host w
v an
Ġgr Ã¼n
ge geben
ĠG ra
Ġlang sam
gel t
ow s
ĠMich ael
ie fer
Ġun bedingt
ĠOr d
rie f
ĠF arb
âĢ¦ ]
ĠSpr ache
uch ten
Ġext rem
ei che
ieren den
fl ug
tig es
o ver
ĠV ier
p s
ra st
Ġsch warz
mer ksam
r es
Ã¤hr ung
ach er
g ern
ĠDes halb
Ġk napp
ĠMon aten
c ial
Ġhil ft
e um
ĠIm mobil
ĠMa x
ĠL Ã¶
Ġw ichtige
Ġaktu ell
ĠM oment
Ġl o
ĠS hop
umm ern
chen k
Ġj ungen
ges ehen
s eiten
ĠM eister
ĠE uch
e f
Ġm ass
Ġneu er
Ġgesam ten
ĠLin k
Ġer o
z ehn
Ġab zu
en der
ĠFre unde
och ter
f rieden
ha fen
Ġan sch
ĠN a
ĠStr and
Ġl au
arb eite
Ġwelt weit
3 4
ĠK redit
Ġent stehen
ĠFrank furt
ĠS onder
Ġr ichtigen
etz ung
ĠPro zess
utz er
Ġt olle
ĠTer min
ĠB ade
Ġschw ier
Ġd igit
ĠIn dustrie
ĠAn spruch
d urch
ĠP sych
P l
n ungen
Ġihr es
ĠVer k
Ġt ro
Ġan gen
ĠRe ch
d ass
schaft s
ĠAb schluss
g art
ĠF reude
an cen
Ã¤ss ig
aus o
ĠhÃ¤t ten
Ġsp rechen
Ġz entr
V or
bau en
sÃ¤tz lich
ĠTi pps
ei dig
ad em
z ut
Ġh aus
gew Ã¶hn
ĠVers icher
Ġdurch aus
qu em
Ã¤tig keit
ĠP unkte
0 3
ĠE ind
v iel
Ġman chmal
olit ik
f a
ĠBe k
Ġausge w
z ir
Ġs orgt
f le
ĠH und
ĠInter essen
en k
ĠGesprÃ¤ ch
Ġlie ber
ĠkÃ¶nn t
ĠF in
ĠWeb seite
Ã¶ff net
ĠAn ti
Ġde fin
ĠM orgen
ieren de
Ġl Ã¤uft
Ġbrau chen
Ġer g
un ternehmen
ĠgrÃ¶ÃŁ ten
p a
Ġr es
ir n
Ġzu vor
Ġumf assen
Ġunser es
ĠJo hann
ĠK rÃ¤
ĠSo hn
ĠSch on
Ġteil weise
ĠT on
ĠB rÃ¼
ĠAn zahl
Ġgen ieÃŁen
sch Ã¶n
ĠSpez ial
ĠB ack
Ġdar in
ĠK arten
Ġp asst
ĠS ach
Ġbesonder e
sch uss
Ġk n
wohn er
ĠnÃ¤ch ste
ĠCo ok
am s
ĠT rotz
ot o
ĠV is
tion en
Ġf Ã¤llt
ĠAr zt
ĠpersÃ¶n lichen
rau cht
k Ã¼
at ter
eich ert
Ġander er
ĠR uss
ĠS amm
ge g
zu stellen
h y
ĠAuf gabe
Ġgar an
d a
Ġle dig
ick e
Ġer l
Ġz er
Ġsol chen
f ragen
ĠÃľ b
zÃ¼ glich
Ã¶ se
ĠM acht
ĠEU R
spr ung
Ġge bracht
ĠVers ion
Ġgen utzt
samm lung
Ġge kommen
ent rum
Ġunter wegs
ist ik
x x
v Ã¶lker
Ġaktu elle
Ġerforder lich
Ġ[ âĢ¦]
Ġ Ã¤lter
uf e
f inden
stell ten
ĠViel leicht
6 8
v el
ĠVer wendung
Ġver Ã¶ffentlicht
ĠErgeb nisse
ĠGer Ã¤t
ĠAn wendung
ĠLeist ungs
att form
ern t
Ã¤n den
Ġein ger
ĠI S
Ġn Ã¶
mÃ¶ glichen
ver kehr
ĠD an
Ġer he
3 7
Ġzu frieden
ĠBay ern
ĠLeist ungen
Ġzie hen
we der
vers icherung
etz te
ĠK er
g ruppen
b ieren
ĠHer bst
ĠÃ¤u ÃŁer
Ġdeut sch
Ġledig lich
ĠAu st
Ġgesam te
r aten
Ġd re
techn ik
ĠO ut
Ġgew innen
ĠO ption
Ġbis schen
ĠH ol
Ġ200 8
Ġent gegen
ĠTem peratur
ĠArb eiten
Ġeinz igar
fer enz
ĠGes icht
ĠH ann
K W
ĠmÃ¶glich st
s etzt
ĠH om
Ġschle cht
Ġvers ucht
ĠL ager
Ġgen er
ĠBeruf s
ĠM Ã¼l
s wert
Ġob wohl
âĢ ĵ
Ġd rin
an lagen
Ġm achte
z un
ĠSta at
ĠZ ahn
5 5
ri ffen
ĠSch ne
de ckt
ĠG raf
ĠauÃŁer dem
ĠP C
Ġmittler weile
Ġaus schlieÃŁlich
ab end
Ã ĸ
ĠNach dem
au ern
Ġn atÃ¼r
geh end
ĠZeit punkt
v ollen
w echsel
ĠAnt wort
Ġm uÃŁ
w ser
ĠfrÃ¼ h
ĠHal b
Ġdar um
utt gart
ĠKommun ikation
Ġsch war
lei che
ĠHinter grund
spiel er
ĠK urs
d s
rau cher
Ġdenn och
ĠVeranst altung
a dern
ik al
ĠReg ierung
ĠN ame
ĠV i
ĠA ktion
ĠWar um
p artner
ten t
0 2
c m
u le
p ft
Ã¤ ger
ent liche
k arten
ĠD oppel
Ġverl oren
6 6
âĢ ĺ
sp ielen
el ten
Ġp reis
Ġd ah
stoff e
ĠGott es
Ġk or
for men
ĠverfÃ¼ gt
ĠS ehr
Ġunterschied lichen
ĠU p
Ġbet r
our n
ĠAn trag
fre und
ĠBe f
ide o
Ġ5 00
Ġt radition
w ald
ĠT raum
ĠKom bin
ab r
ĠV o
ĠÃ¶ff entlichen
ĠA ss
Ġwir tschaft
ig ten
ĠBe zug
ie ÃŁ
flÃ¤ chen
f o
is h
br uch
Ġent hÃ¤lt
Ġhin zu
Ã¤um e
re ut
ĠSch rift
Ġus w
ĠGesch mack
ĠH y
ĠAl b
pro gramm
ĠFor um
Ġver antwort
ĠtÃ¤ glich
ger ech
ĠH unde
Ġo ffiz
an a
ĠS uch
Ġnach dem
ĠA ma
Ġer lau
ĠSmart ph
ĠK no
k u
ĠSch aden
Ġbeg ann
Ġvers uchen
ĠSt unde
klus ive
ĠP fer
Ġregel mÃ¤ÃŁig
Ġrau s
ĠHer zen
ĠSch nit
Ġd isk
mÃ¶ gen
ĠO hne
Ð ¾
pf el
eh mer
ĠnÃ¤ her
ĠZusammen hang
wer ke
der t
Ġ )
ĠS ucht
zeich nung
kt or
ĠLei der
Ġ Ã¼
ĠAnd re
ĠMont ag
Ġkl einer
ĠI T
I m
ĠBest e
Ġden ke
Ġp ar
Ġ reich
S o
Ġfol gen
setz ungen
in st
ĠZ eiten
ĠD ein
Ã¤l te
7 7
Ġaus reichen
Ġentsprechen d
ĠSe e
ĠSt at
Ġautomat isch
ĠA ktu
Ġkosten lose
it s
ĠP ublik
Â ®
ogra ph
st ud
i at
Ġerwar tet
Ġein gesetzt
j en
de ten
* *
Ġf orm
ler nen
Ġlin ks
Ġentwick eln
am me
ĠB il
r t
ĠBo ok
ĠM ess
ĠKl asse
ĠMa in
ĠCh ance
as er
ĠÃ¼ber r
ĠS achen
as ino
Ã¤ mt
un kten
Ġm orgen
hostw riter
im al
ob ile
ĠMo tiv
fÃ¼hr en
ĠHeim at
ĠBr and
a pp
ĠIhr es
ĠE vent
Ġer leben
Ġw Ã¤hlen
p o
ĠPfl anzen
al te
Ã¤ st
Ġge legen
Ġwen ige
Ġun er
ri d
othe k
ĠMaÃŁ nahmen
ik ro
ie te
f ert
end es
ste chn
sph Ã¤re
h ung
S G
Ġgew Ã¤hr
ĠpersÃ¶n lich
ĠSch war
ampf adern
r et
Ġgen annt
A uf
Ã¤ dig
Ġ att
mittel t
ĠCl ub
ĠIt alien
is ierung
ĠL aut
ĠWochen ende
Ġbest ellen
ĠM el
Ġk amen
ĠF el
ĠDisk uss
Ġh alt
tier te
ĠH or
P h
ĠF eld
ĠMa il
un kel
al z
Ġso weit
Ġz eig
ĠD aher
Ġer ster
verstÃ¤nd lich
ĠMed izin
Ġfer tig
ĠO pti
Ġt ief
ha fte
ĠS zen
man agement
Ġbef inden
la pp
ĠTh omas
ĠM obil
spr Ã¼n
st Ã¤t
ur m
Ġt yp
spr ach
or y
Ġ at
Ġern eut
ĠSchl ag
? ?
ĠBed ing
ach el
Ġbestimm ten
E T
s an
Ġ egal
Ġabsol ut
Ġb ild
it Ã¤r
Â °
ĠFrei zeit
Ġda gegen
Ġb ein
ym p
r ein
ber ger
ĠAma zon
spr ache
Ã¼ h
ĠSt ruktur
im in
4 6
ab et
Ġgl Ã¼ck
wer ten
ĠK e
ĠAn forderungen
ber eitung
ĠEin en
Ġpersonenbezogen en
o f
ak et
Ġwen igen
tig ten
ĠTur n
4 7
Ġ as
ges ellschaft
Ġk rit
B e
ĠUnter such
Ã¼ ÃŁe
ĠK ann
s g
ĠW Ã¤r
ĠRu he
ĠG u
ĠBed Ã¼rf
ĠV en
ĠVor stand
ĠGeburt stag
al es
ite ktur
ĠM iss
gang s
ĠK rit
Ġin tens
i ar
ĠN och
Ġall gem
Ġg uter
ĠAn schluss
ĠW ild
ĠEr satz
Ġver gessen
Ġfol gende
ĠBest and
Ġeinz ige
Ġj Ã¤hr
d lich
Ġ4 5
ĠA ir
Ġgen auso
Ġwar ten
ner stag
Ã¤m pf
D R
ĠIn sel
Ġnotwend ig
ĠK lin
duz iert
ĠD eine
ĠLe der
ĠS tern
der ungen
Ġd i
Ġden ken
ĠVer halten
ĠH ar
mit tag
Ġgem Ã¤ÃŁ
Ġ acht
ĠMet all
ĠSon ne
l ag
ĠVer Ã¤nder
ĠKir chen
ĠJe der
ent halt
ĠA bt
ĠF rie
ĠT ochter
ĠAn meldung
b Ã¼
ĠWo hl
m ark
ack te
Ġverl assen
Ġber uf
Ġm el
ĠT reffen
Ġauf zu
in ess
ĠJ ung
ĠChar akter
Ġbesonder en
st Ã¤r
b us
Ġwir kt
Ġp r
ĠE g
ĠTrain ing
ĠH off
Ġwichtig sten
Ġp artner
h aben
Ġl angen
ĠD auer
ĠG eist
pf licht
bo x
ĠL ive
ĠS eine
ĠVer d
ĠWir kung
Ġgest alten
ĠEro tik
ĠFlÃ¼ cht
ĠLi ste
ost et
Ġl and
ĠRÃ¼ck en
bet rieb
Ġgew Ã¼n
i os
in es
ĠAus s
ĠV arian
ĠD el
ĠSp ielen
Ġun abhÃ¤ng
Ġwissen schaft
ĠBesonder s
ĠM ir
ĠFÃ¤l len
3 1
ĠDar Ã¼ber
ot h
ĠIm mer
Ġgr atis
v ier
Ġso dass
end et
ĠU l
Ġmehr eren
Ġlie ÃŁ
Ġl ag
Ġd einen
ei ert
3 2
ĠâĢ Ķ
au b
ĠVerl ag
ĠSing le
ĠS ein
sp rech
Ġ Ã¤ndern
ĠM at
Ġw ith
Ã¼r en
om en
bar er
Ġvor aus
ĠMar ken
Ġst ud
Ã¼ss eld
ĠbenÃ¶ tigt
ĠGesch ichten
f unktion
Ġirgend wie
ĠMart in
Ġirgend w
A b
ĠR ie
zun ehmen
Ġher um
ĠW Ã¼n
Ã¤nd ler
ĠE he
Ġin zwischen
ic ro
z i
in os
u ff
ĠA bl
l ern
I E
A M
Ġan al
Ġ Ġ
ch ter
ĠMit t
f assung
ri ffe
h ause
Ġh Ã¶ren
Ġbeg eister
bie ten
Ġle gen
ĠLei p
ĠHand y
ĠRom an
Ġver h
Ġerwar ten
Ġgef Ã¤hr
bl i
ĠSchl uss
s Ã¤tze
ĠMann schaft
i tel
Ã¤l fte
Ġdurch gefÃ¼hrt
is er
mit glie
ĠWe ge
ĠT eile
p ol
ffiz ien
ĠT ats
ĠP oten
ĠGer Ã¤te
ĠK reuz
T E
ĠD ownload
ĠL eit
wend ungen
Ġer reich
Ġver f
Ġwe der
on en
ĠÃĸ l
I D
ĠgÃ¼nst ig
Ð °
lig a
h Ã¶r
ĠT at
Ã¼ck t
Ġgef allen
Ġzul etzt
ĠG elegen
ide os
Ġpass iert
r ig
wir kungen
wÃ¼r dig
lin ie
ĠSchnit t
eh lt
ĠSt off
ĠNach bar
Ã¶t zlich
ennt nisse
Ġwahr scheinlich
grÃ¼n det
ven tion
ĠW eiÃŁ
ĠHand el
ĠSp ann
Ġ ti
A G
ĠKom p
ĠT iere
Ġf ehlen
ĠUr s
stÃ¤n den
Ġbest Ã¤
ĠWind ows
or k
p ack
u elle
b i
ĠWel che
ĠEin t
au ert
ti c
p lay
ĠA lex
ĠWirtschaft s
Ġbe quem
Ġf ach
Ġher unter
Ġlie ben
ĠSt uttgart
bau m
ĠEx t
Ġd ur
z Ã¤hl
Ġver pflich
ĠG lau
p art
9 8
Ġsie ben
Ġer mÃ¶glichen
ĠT radition
te uer
u k
isch em
ĠA mer
reu ung
K om
alen der
d ungen
ĠSchwei zer
ium s
ĠZ eichen
ĠO ffen
Ġp f
Ġf allen
ok al
Ġj Ã¼n
Ġbe ob
rÃ¤um e
Ġun g
ĠBon us
ĠSt ar
ru g
ĠD orf
ol e
Ġrel ativ
Ġc om
ĠNach richten
Ġd iver
Ġum fang
Ġst Ã¤ndig
ĠSie g
ĠBeweg ung
ĠLin ks
Ġs icht
ĠImmobil ien
ĠSch ei
ĠKr ampfadern
ĠL Ã¤ndern
Â ´
ĠAus land
ĠC amp
ĠAr m
ru cken
ĠBeg riff
f alt
Ġgut es
tre ter
Ġgesch lossen
ĠBild ung
Ġbestimm te
ĠSer ie
Ġ200 7
a der
Ġ ag
ĠSon g
Ġbet eil
ekt or
ĠW il
ĠM Ã¼
ĠK unde
Ġer inner
Ġsp richt
201 7
ĠTr end
ĠFeuer wehr
Ġinternation alen
fil m
!! !
le cht
f angen
ĠHotel s
Ġinform ieren
ob by
Ġges ucht
S V
ĠInform ation
Ġ !
b le
i kt
ĠEigen t
zep te
ĠBe vÃ¶lker
w echs
ĠK ern
ĠBe w
7 6
m on
ĠN o
ĠThe ater
ĠAn lage
gef Ã¤hr
l eit
w art
fahr er
ĠGer ade
Ġentst anden
ĠEin sch
ĠDon nerstag
ĠG rad
ed es
ĠP lay
an ien
Ġf ur
Ġentsprechen den
U R
ĠLie bl
1 00
ĠDa fÃ¼r
ktiv en
ĠP an
ĠFrank reich
ĠBetrieb s
ĠÃ¼ber all
sch ungs
utz ung
ĠSicherheit s
Ġbe achten
ĠW h
ar kt
ĠP il
Ġent schieden
ĠGro ÃŁe
wissen schaft
b ilder
ĠBab y
ic a
ra h
kl asse
ĠFunktion en
em pf
Ġer wei
A dresse
ĠFor schung
hol en
ĠHo f
Ġ3 00
p assen
ĠH ans
ĠFre e
ĠFl Ã¤
ĠWohn zimmer
ĠVerein s
ĠK al
Ġk ennt
ge legt
Ġt ut
ĠF C
ĠEr inner
ĠDetail s
ĠS im
ĠverfÃ¼g bar
âĢ ŀ
ĠG eg
l Ã¶sung
ĠBÃ¼r o
s ser
Ġglau be
Ġbeg innen
Ġsp ort
lich keiten
Ġb as
krÃ¤ fte
ĠDat ing
z um
ie gen
ri ge
ĠVerkehr s
ĠS ter
eu ten
ĠGrund lage
in kel
K on
yn am
Ġindividu ell
s ion
ĠFr anz
ĠE del
Ã¤d ag
ah nen
Ġ0 8
G r
Ġge z
em ente
ive au
Ð µ
7 9
an walt
sch te
Ġzahl reichen
qu alitÃ¤t
un n
ĠOr iginal
u pp
ĠZ entrum
Ġr ies
I L
ĠRis iko
ar zt
ĠS emin
hab er
ĠBesch wer
rie be
ĠEr de
ĠMitt woch
ĠSti mm
ĠPap ier
ĠVol k
ĠKosten lose
a at
Ã¶ ÃŁen
ri ck
ĠNeu e
ĠKl ass
Ġgest ern
ĠKil ometer
Ġnach hal
Ġnie mand
Ġp sych
Ġrei cht
Ġgen annten
ĠExper ten
Ġbes uchen
Ġan t
ĠVort eil
8 8
on es
Ġf rau
Ã¼ ten
ele v
fl Ã¼
Ġs org
l l
ss ystem
ff ekt
ger Ã¤t
Ġan s
Ġj ahr
ur g
Ġ arbeitet
ĠFÃ¼hr ung
Ġviel fÃ¤l
ge ord
Ġent weder
wor tet
ĠKaffe e
Ġver n
Ġkommen den
ĠP rem
Ġb lau
ab le
ĠU N
pf l
ĠVeranst altungen
heit s
miss ion
cl ub
ĠF Ã¤h
stat tet
Ġmen sch
i ft
Ġf icken
Ġm od
S ystem
ĠBeding ungen
w urf
ott o
ver fahren
ĠJahrhunder t
schein t
tif iz
le gung
p age
ĠMark eting
ĠH Ã¶r
stell te
ĠWer be
Ġschnell er
zahl t
4 3
p unkte
ĠSpr ach
gr ess
v in
Ġnie der
ĠH ard
ĠLes er
g reifen
Ġk re
ip s
ĠN or
ĠLin ie
Ã¶ ÃŁ
Ġheu tigen
Ã¤ng st
hal le
Ġbet rÃ¤gt
ourn al
ĠZwe ck
Ġ200 0
p asst
e w
b ad
s es
ei ge
ĠRei sen
ĠgrÃ¶ÃŁ te
Ġsch rift
le fon
Ġausge stattet
l Ã¤ss
ber icht
ĠF ein
ĠFrÃ¼h stÃ¼ck
ĠO per
ose x
ĠGe fahr
ĠGew icht
ers eits
ĠZ uf
ber eit
ĠIn tegr
ĠK ol
ĠL Ã¤nder
tern ehmer
ĠF it
m aterial
tier ung
Ġun mittel
Ġklein es
ĠR en
A P
ĠTran s
Ġerst ellen
ĠPart ei
all s
Ġk Ã¼r
Ġdir e
ĠDank e
kr et
ch em
i ste
ĠMÃ¶ bel
ic s
u gend
kont akte
ĠCh em
Ġhttp s
Ġunterschied liche
ĠStra te
ĠÃ¼brigen s
serv ice
Ġgem Ã¼t
ĠKo oper
wert ungen
ĠBer eichen
d auer
ĠW echsel
Ġer gÃ¤n
Ġpro blem
ĠGew alt
ĠKat zen
Ġgeb oren
Ġm Ã¤n
lin ien
Ġs uche
wind igkeit
c tion
ĠbenÃ¶ tigen
ĠFahr t
ĠKar te
Ġein gesch
enn e
ĠNetz werk
Ã¼nf tig
Â ¼
ĠW eil
z ur
ĠBerlin er
ĠOrganis ation
Ġb ilden
atz e
ĠSer ver
Ġt rÃ¤gt
ĠSP D
ĠH Ã¼
Ġm er
rin k
en ze
8 5
ĠN orm
ĠKl ima
ĠTe en
Ġin stall
ĠCook ies
Ġs auber
g ro
ĠLiter atur
6 9
ĠBro wser
ĠSp e
au chen
Ġk o
Ġst ra
ĠPro jekte
Ġbew usst
ks hop
os oph
fÃ¤l le
ĠT rau
ĠSt Ã¤r
i us
u hl
bild ungs
Ġsicher lich
ĠâĢ ļ
Ġd auer
Ġbe zeichnet
ikan ischen
ĠH ilf
Ġnah m
ĠZ eu
ĠH ein
on ie
Ġinteress ant
ĠAu ff
ber n
ĠFall s
ĠUm gang
olog ischen
ĠC ont
s um
ĠprÃ¤sen tiert
ro chen
ĠMark e
Ġges etzt
ĠM or
ĠEin fach
Ġb i
Ġer scheint
ĠwÃ¼n schen
ĠZ er
Ġmus sten
V O
ĠJ ack
ĠLu x
Ġkom bin
olog ische
Ġall eine
angeb ot
Ġver r
N ach
ĠPr esse
schlÃ¤ ge
ĠVor der
dr ich
Ġvoll er
Ġverbesser n
ĠHaus halt
ĠFahr rad
ĠTrain er
ĠV om
ĠChrist ian
ĠKombin ation
ĠgroÃŁ es
Ġin nov
Ġzun ehmen
w Ã¤
ĠVer gangen
ĠM und
m aschine
ĠKon zept
Ġfol gt
ĠJ es
it es
ĠW al
w ach
Ġver schw
Ġerz Ã¤hlt
k an
Ġw Ã¤ren
Ġmittel s
om in
Ġunterschied lich
ĠB ier
t es
ĠRe chte
ĠElekt ro
Ġes sen
s inn
ang t
Ġin nen
rÃ¤ gen
Ġge halten
ĠZu gang
M S
ĠF a
ĠL Ã¶sungen
ĠV it
c ri
ĠSch iff
ĠKateg orie
ĠGr enzen
entlich keit
ĠA ch
ĠFr em
ĠT abl
Ġmit einander
Ġvor stellen
ĠKl assen
ĠT el
Ġentsprechen de
achel or
p ublik
ie bt
tier ten
g ten
Ġl etzt
Ġs an
ĠLehr er
Ġgesp eichert
re en
ĠG as
l d
ition en
ĠMan agement
ĠKamer a
ĠInf os
ĠB io
ĠZ it
Ã¤m pfen
s ucht
Ġre ch
le ger
ĠK och
Ġprof it
mo sphÃ¤re
ĠBed arf
ĠI P
ha ften
se qu
Ġp ol
ĠGes chenk
ant as
Ġgel ungen
M an
stÃ¤nd igen
ĠT a
E G
ĠW under
ĠAn al
am mt
m essen
walt ungs
f an
Ġc asino
et isch
Ã¼ck sichtig
ĠRo ck
Ġwir ken
Ġb auen
ĠH immel
b ett
Ã ¡
t eile
d igen
ĠAl ters
alis iert
ĠGesundheit s
Ġd einer
Ġf ragen
Ġk r
ĠZahl ungs
vol ution
c on
ĠGeh eim
ĠCh at
z esse
iv al
ag no
ab t
ĠH Ã¤lfte
ĠD anach
ĠFil me
ĠBe ziehung
ĠerhÃ¤lt lich
ief el
O L
Ġt rifft
Ġre ag
son sten
ĠP or
ĠVer besser
ĠEin kauf
fÃ¤h igkeit
l Ã¤nd
ĠMa ster
ĠAuf enthalt
om m
ĠP e
Ġbe weg
Ġern st
Ġsch auen
ĠBru st
J Ã¤hr
Ã¼s sen
W enn
ĠR Ã¶
ĠM icro
Ġver treten
Ġdar unter
Ġfr anzÃ¶s
oll ar
ĠBe wer
ĠÃ¤hn lich
ĠJ apan
4 2
ĠR unde
ĠSing les
k ampf
Ġbede uten
k unde
ĠBe zir
Ġ01 80
Ġ200 6
ond s
hol t
sp f
recht s
Ġgrund sÃ¤tzlich
Ġhab t
ĠDien stag
ĠT herapie
ĠLebens mittel
m und
K l
ĠStand ort
ĠEin ige
ĠUnter richt
Ã¤ ck
ĠAuf bau
amp e
ist isch
ul ation
Ġw or
ichte te
ĠHin weis
Ġ Q
ĠF ans
ĠGrÃ¼n den
Ġh eim
ig ital
d ungs
Ġatt ra
it ar
A D
Ġ @
ĠVerb raucher
Ġzie ht
T e
ĠUm setzung
Ġam er
ĠLeip zig
stÃ¤nd ige
i den
ĠM aschinen
ĠâĨ Ĵ
Ġf ein
aler ie
la fen
h och
ger Ã¤te
Ġauf genommen
Ġs Ã¤mt
Ġ0 9
ĠStud ie
I C
ĠR icht
ĠP ersÃ¶n
ĠFlug hafen
auft rag
gest altung
n etz
ass ungs
ĠÃ¼ber nehmen
ma il
fil me
ĠEis en
Ġange geben
Ġn eg
ĠWer bung
ĠZ ahlen
Ġpriv ate
Ġaus drÃ¼ck
Ġ ed
Ġpl Ã¶tzlich
ĠEind ruck
ern er
ĠAus stellung
l y
ĠBeit rÃ¤ge
nit ten
d as
ĠEin fluss
Ġgel esen
tig te
st eh
f rau
O M
ro ck
Ġge zeigt
Ã¶r ter
t o
6 7
k urs
C h
ĠF leisch
ĠR oll
ĠD Ã¼sseld
Ġber ichtet
R E
Ġur sprÃ¼n
ĠM y
ĠSt ahl
Ġk Ã¶rper
ĠSchlaf zimmer
Ġs amm
ĠBest imm
ĠT al
ĠH at
ĠA s
Ġab geschlossen
z y
ĠB lack
ĠZ w
ĠBer icht
rei f
Ġtot al
Ġmodern e
kom mt
sch m
ĠWett bewerb
5 8
forder ung
4 1
ĠpersÃ¶n liche
Ã¼r t
Ġz eich
ĠerklÃ¤r en
g Ã¤nge
s em
Ġmoder nen
Ġein st
d ate
ĠB rief
sprÃ¼ che
Ġ15 0
and id
rei g
Ġvoll stÃ¤ndig
c ess
Ġdrau f
ĠM ikro
ĠF o
ĠF rieden
k re
Ġd ritten
ĠMaterial ien
ie ter
Ġwichtig er
be k
Ġelekt ron
sei tig
h an
Ġw achsen
Ġan schlieÃŁend
ĠBe wertung
ti ment
Ġstell te
etz ten
ĠLand kreis
Ã¤n e
Ġeinfach e
g o
ank e
Ġge be
ei ern
zen z
Ġge fÃ¼hrt
Ġf il
p ul
ĠT Ã¤tigkeit
Ġerlau bt
Ġf indest
peten z
ĠKomment ar
Ġnoch mal
wei te
Ã¼ se
ĠD adurch
ol den
eil ung
ĠWeihnacht s
Ġd ating
Ġmed izin
et a
Ġ3 2
bo den
Ġl ust
ĠC or
Ġwel chen
Ġerw Ã¤hn
u al
Ã¼ ÃŁen
ĠBus iness
ĠVor sitzen
d ien
ĠVergangen heit
ĠfÃ¼ hlen
Ġz ahlen
o de
Ġgew onnen
in form
hin dern
ĠBestell ung
Ġbesch rieben
ĠB aden
ĠPart y
ĠFreund in
Ġj ung
ĠBild ungs
Ġspez iell
ĠD ro
Ġt r
Ã¼ st
ĠCh ina
en ter
ĠMill iar
lad ung
au p
Ġein geb
Ġw echs
ick s
te xt
ĠT w
ĠDr es
ograf ie
fer nen
Ã¤dag og
Ġzu erst
Ð ¸
ĠP S
Ġbek annte
sch irm
A C
Ġpassen de
ã ģ
ĠBet eil
ĠInst itut
Ġw ann
ĠServ ic
Ġp orn
tre ffen
it or
ĠP aul
acht ung
ut lich
Ġt Ã¤tig
om ie
ĠfÃ¼hr te
ĠdÃ¼r fte
ver trag
T he
ĠW ichtig
d f
ĠBevÃ¶lker ung
ra el
k rieg
rem e
ĠTran sport
ĠHerr n
Ġe ffe
Ġbegeister t
ĠGeg ner
B l
ĠSmartph one
us ste
ĠL ED
d at
Ġst eigen
ĠFol gen
ier end
ĠSchl Ã¼ssel
Ġf lex
il la
Ġber aten
amp ag
gr amme
ĠKolle gen
p ap
ĠProdu kten
ĠL ab
ĠGeb rauch
c el
ri b
Ġger ing
Ġerhe b
re chte
ĠÃ¼ber zeugt
y le
Ġbelieb te
ĠT aschen
Ġlie b
zei ge
rÃ¤ f
bl att
Ġerst mals
ĠInter view
Ġ200 5
ĠBesch Ã¤f
M od
de u
ĠKÃ¼ chen
ĠHann over
ĠIn ner
Ġl ok
nis sen
hl ight
ĠE reig
ĠL eiter
ĠF isch
ĠF akt
Ġd ient
ĠÃ¼ber prÃ¼
sk i
Ġspr ach
ĠIn nov
Ġged acht
Ġf ot
ĠL Ã¤nge
ym n
ĠPlan ung
amp en
ko hol
r ufen
ĠMin ister
ĠB ud
Ġperfe kte
ĠP DF
ĠP op
ĠBo x
ĠVort eile
ĠT anz
ĠSchw anz
ĠR os
ĠP rÃ¼f
ĠKont akte
ĠPro t
gel assen
S T
us sen
hand el
ĠS ind
ĠÃ¼ber w
ĠGelegen heit
b ack
j ob
Ġhochwer tige
ĠB ot
ĠSchu len
ĠDok ument
b as
ĠIn iti
ĠMed ik
ĠMo dern
Ġs Ã¼d
Ã¤ umen
Ġfal sch
ger ufen
Ã¼n dung
pl atte
ĠBeh Ã¶r
Ġzu k
ĠB or
Ġ0 7
isch ung
Ġwoll ten
Ã¶rder t
ĠDeutschland s
stell ungs
rÃ¤n kt
ĠUn fall
zieh ungs
Ġbr eit
Ġsch m
tiv e
Ġverantwort lich
Ġw ichtigen
ei tern
st eiger
ra ktion
ehr t
Ã¶r dern
Ġsozial en
s itz
ĠMod elle
ĠInst rum
ĠM iet
sch reiben
ĠSch loss
G es
Ġb lieb
Ġin kl
ahr ung
Ġf ehlt
m aschinen
Ġverk aufen
Ġdar aus
Ġreg ion
Ġkur ze
Ġpolit ischen
ĠMil ch
ĠGeb iet
Ġfre e
Ġdisk u
ĠP la
ond on
li ste
Ġentst eht
eh me
ĠL Ã¼
ĠS ign
ĠInform ations
tell igen
n ummer
Ġb y
Ġf rem
T V
ĠBur g
ĠAus gabe
c y
ĠM ig
Ġs en
ĠSil ber
Ġh offe
Ġgen Ã¼
at oren
Ġver hindern
sl am
er weise
ie fe
ĠFern seh
I P
Ġverpflich tet
ĠSym bol
pf lege
ĠFrie drich
r and
Ġst arten
ĠVerantwort ung
ig ungs
wer be
Ã¼ m
ĠSp eicher
Ġhin ein
ĠKom pon
W as
Ã¤hl te
k ultur
ge ht
usch i
ĠPublik um
ĠKÃ¼ hl
ĠzusÃ¤tz liche
ĠF ett
Ġtro cken
ĠM erk
ĠbeschÃ¤f tigt
ĠK art
Ġauf s
w ander
ĠÃĸff entlichkeit
ĠK ant
Ġt ollen
ĠW achst
Ġg eile
ap e
er ei
Ġh ilf
201 6
Ġver gleich
ĠBer eits
ĠArbeit geber
Ġdein em
Ġposit iv
mun ity
W er
Ġgek auft
V ers
ĠBr em
Ġw and
ĠG ir
ĠRei fe
. [
i bel
ĠK eine
reg ierung
ĠFrei heit
Ġkur zen
ĠKar l
Ġsch reibt
ĠStra f
k n
ĠK ein
ĠRuss land
Ġer stellt
or ben
ĠKrit ik
ĠWeiter lesen
Ġ3 6
ĠLei den
h Ã¤user
ĠZ entr
ĠUnter schied
Ã¶r se
ĠI hn
Ġg leiche
ar if
Ġzu verl
Ġlei sten
ag es
a ce
Ġaus fÃ¼hr
ĠZu cker
Ġs erv
m achen
ie fen
Ñ Ĥ
b eit
I I
Ġent decken
b eu
ĠR ab
Ġeurop Ã¤ischen
isch t
Ġges ellschaft
ĠEigen schaften
ĠW a
Ġn o
ĠH D
ĠStim me
gesch rieben
m l
o hlen
k ap
O P
ĠVertrag s
Ġ achten
m esser
ĠJun ge
ro id
Â ²
ĠA gen
Ġex ist
zeich nen
ĠFor schungs
ĠSch reib
ĠRel ig
ĠVert rieb
Ġgesp ielt
A m
e ck
ĠO pfer
er gie
I CH
Ġk ultur
ma ÃŁen
ĠM uster
ĠauÃŁer halb
iel ten
ĠZ Ã¼r
Ġkom mun
rÃ¤n ke
ess el
Ġ orden
ĠE p
ĠPl us
Ġr uss
fer tigt
ĠEr lebnis
Ġz Ã¤hlt
L AN
or te
ĠGer icht
ĠSp itzen
je kten
Ġver urs
Ġinteress iert
S h
p ert
inder t
ĠP rÃ¼fung
ĠInter ess
le hr
frist ig
ĠPro fil
Ġersch einen
spl atz
v o
ĠZ iele
ĠZ ul
me ter
ĠS et
Ã¼ hm
ren nen
sp iegel
Ġaus geb
ak ten
ber atung
Ġent spricht
m ung
ĠB in
ĠAr ten
I G
Ġvor ber
f igur
ĠTeil nahme
Ġle bt
ĠS icher
ĠWÃ¤r me
l ament
Ġwes entlich
Ġeinzel ne
5 9
Ġun ge
o ben
Ġglau ben
pl Ã¤tze
ĠL ad
Ġprakti sch
st ahl
ĠBl umen
sch lieÃŁen
ĠFahr er
Ġl ohnt
ĠHig h
Ġd ienen
ation alen
ĠAn frage
ĠG ute
r asch
ĠR ob
d io
ra gend
ĠP u
ĠStud ium
wer ben
ĠZu sch
Ġeng ag
ĠVer z
m ine
at ische
r am
Ġerst mal
ĠMilliar den
Ġgef Ã¤llt
ĠAll gem
ĠErn Ã¤hrung
alt ungs
Ġgaran tiert
k Ã¼ndig
rain ing
Ġf rag
Ġs er
ĠÃ¼ber tragen
Ġbem er
ĠKonz ert
ĠL au
ital ien
scha ffen
ĠZeit ung
Ġvor ne
ĠðŁ ĺ
ĠH um
6 4
rit z
aut omaten
ie d
k at
en a
ĠA tt
Ġg rau
ĠRech nung
Ġhin gegen
eg t
v id
qu e
alis mus
jen igen
iv il
ges p
Ġbehand elt
ĠAt mosphÃ¤re
Ġsch Ã¼tzen
ĠWas ch
ĠS how
ĠUr teil
ĠF alle
Ġwunder schÃ¶n
or s
Ġk ostet
forder t
Ġent lang
ĠTex te
l aufen
Ġher gestellt
k ul
Ġk at
ĠL ern
Ġleich ter
Ġausreichen d
z a
ĠMin ute
Ġe vent
ren z
Ġte lefon
b u
Ġzu gleich
Ġs ehe
at isch
ĠJ ur
Ġverw ende
F l
Ġpriv aten
Ġh e
om mer
ĠT her
ĠGest altung
L e
Ã¤ ische
lie fer
Ġzeig te
Ġher zlich
ĠAn alyse
ĠL esen
ĠCh ancen
Ġwir st
ĠH aben
Ġgew Ã¤hlt
ĠErwachsen e
Ġin klusive
ang s
;;;; ;;;;
rei tet
frei e
ĠDre h
Ġopti m
k rank
Ġsp aren
ver sammlung
ĠN ummer
wÃ¤r ts
Ġein iges
ĠF inger
Ġpassen den
ĠG al
r Ã¶
ĠN ein
ĠGlau ben
eich ern
ĠerfÃ¼l lt
s Ã¤
ĠZu behÃ¶r
spl an
Ġweiter er
ĠWor te
it a
ad a
Ġinteress ante
H er
r ess
ĠErk rank
ĠDÃ¼sseld orf
w en
ĠA dresse
ĠInternet seite
ab er
d re
ĠK op
7 2
ĠP ay
nah m
auf nahme
ĠP et
u ellen
ich ert
Ġin vest
ĠMit tag
Ġung laub
ĠSta aten
dig t
amil ien
ĠApp le
ĠM esse
ĠAn teil
ĠChe f
ĠZus Ã¤tz
v al
ar tige
vers orgung
Ġg eist
Ġget ragen
- /
Ġ3 8
Ġn ennen
ĠW ol
Ġbek annten
G er
Ġl eist
hÃ¶ he
Ġz Ã¤hlen
spann ung
ĠSchn ell
Ġl a
ĠIns gesamt
ĠverfÃ¼ gen
ĠOr ts
ei der
Ġsch wei
kti en
ĠTechn ologie
d essen
ĠSt amm
gew icht
ent wicklung
ĠDiskuss ion
ĠD rit
Ġmus st
as zin
Ġhin ten
ĠL ondon
ĠM ulti
ĠViel zahl
ate ur
ĠEn glisch
Ġf e
ĠFor men
e p
ĠerfÃ¼l len
Ġein iger
Ġbes itzt
Ã¤uf e
st eigen
Ġbeein fl
ĠKomment are
Ġh art
ti m
ant ie
Ġindividu elle
it iv
ĠLiefer ung
ig a
ĠD V
ĠAktiv itÃ¤ten
ĠMus eum
s w
ĠD eb
Ġ4 00
ige m
ann en
Ġm obil
is st
ĠZeit raum
Ġkon zentr
sl etter
duz ieren
est e
ĠKont rolle
w enden
Ġwei ss
ĠDienst leistungen
Ã Ħ
Ġn atur
Ġ rot
ĠSe kunden
O T
Ġr en
ĠM and
ag d
ĠBet roffen
fil ter
Ġg eil
ĠMo de
7 4
sp artner
E x
zÃ¼ ge
Ġverst Ã¤r
ĠKunst stoff
isten z
v a
Ã¶r te
riter ien
ĠA f
ĠWer te
he ber
Ġsogen annten
Ġ ei
ed ia
ĠS achsen
ĠDe ck
Ġstark e
Ġb ilder
ĠVer waltungs
Ġselbst verstÃ¤ndlich
ĠWir d
Ġext ra
U m
Ġumf asst
ĠUm satz
an o
Ġgemeinsam en
ĠSen i
ĠInst all
7 1
ber ech
ĠRad io
ĠS ehen
ĠWor kshop
Ġen gl
schu len
il ler
ĠVer g
ĠK abel
ĠMin i
ĠH Ã¤nde
van gel
ĠF ran
ĠO ff
Ġn utz
den burg
re ff
. Â«
ĠAuf nahme
tel n
Ġtechn ischen
ĠJ ohn
ind ungen
ĠB rot
ĀĀĀĀ ĀĀĀĀ
n t
ĠF ur
7 3
bed arf
ĠOrd nung
m ut
st es
ĠAu ge
ĠOb wohl
gesch Ã¤ft
ĠM os
ĠnÃ¶ tig
Ġe ure
osex uell
in i
ĠBl au
l Ã¤nder
Ã¼ nen
Ġk inder
ĠB lock
Ġk g
5 6
Ġ <
z ellen
rÃ¤ umen
Ġbetroffen en
ĠFre unden
Ġstar ken
Ġver Ã¤ndert
Ġsinn voll
p erson
Ã¶r ung
Ġfr isch
ĠP rakti
Ġverk auft
ĠAndre as
Ã¤t ter
ĠÃ¶ sterreich
Ġviel es
Ġp rÃ¼
ĠFit ness
Ġb ill
zieh ungen
ĠNew s
S er
o tion
Ġange zeigt
Ġm ache
Ġaus ger
sp ekt
ĠSchw anger
g Ã¤nger
schei det
Ġb o
ĠEs s
! âĢľ
Ġreg istr
sp ez
ĠÃľber blick
Ġs itzen
for schung
ĠF le
Ġz erst
am b
ĠSp iegel
Ġweiter es
ik ations
ĠH art
ĠP ul
l ager
o ge
h Ã¤nger
ĠZus atz
ĠTeam s
ĠSo und
Ã¤us e
ĠEin fÃ¼hrung
Ġer geben
ĠG ang
ol a
ĠJugend liche
Ġfrei en
sch ten
wer tet
ĠEng agement
ord in
Ġ Ã¤r
Ġ: )
ĠH abe
hn ung
ĠkÃ¶n ne
Ġein deu
I M
ĠGegen satz
ĠDen k
ĠP KW
ak er
k le
Ġm ark
ĠFÃ¶rder ung
au te
t eilen
ĠSex y
Ġbeh aup
ĠMetho den
eu ert
ĠSoll te
sprechen d
ĠVer f
ĠS V
Ġkont roll
____ ____
Ġel eg
ĠW ell
ĠBru der
Ġh aupt
k Ã¼n
ĠBau ch
Ð ½
tem berg
ĠKooper ation
W ie
ĠW es
ĠSte fan
Ġbesser e
ĠBÃ¼rger meister
Ġget r
Ġ201 9
C D
Ã¼ ter
ĠPrin zip
ĠStre cke
rin ken
ĠKl aus
umen te
an ischen
ĠC re
ĠA g
Ġschn elle
usst sein
geb racht
Ġverm eiden
Ġer folgen
stÃ¤nd nis
w ay
alis ieren
Ġide al
Ã¼l tig
ĠH u
ĠS yn
ĠJahr zehn
Ġgef ragt
A B
it is
ĠBen utzer
ĠAnt worten
ĠG rie
Ġt eilen
lie gt
Ġwieder um
Ã¤d t
Ġgepl ant
ru he
ĠUn ion
Ġan bieten
ĠK enn
under t
eu ern
ĠSw inger
eucht ung
Ġvor gestellt
Ġge grÃ¼ndet
G e
ig ner
zie ht
Ġz weit
ĠHig hlight
st ar
ĠR ichter
m acht
hel m
ĠBÃ¼ hne
Ġs eiten
ĠAus druck
az in
ĠHome page
Ġe ur
Ġnie dr
Ġl aden
ĠK lo
ol er
inn ern
angeb ote
Ġ200 4
ok us
Ġi Ph
ĠAl ten
ag ten
ĠAn lagen
Ġsch ul
ĠKrank heit
spruch s
Ġeigen es
al og
ĠprÃ¤sen tieren
Ġd achte
far ben
Ġklass ischen
ĠDres den
ĠG ru
Ã¼ hle
ĠJ ungen
ĠS au
b is
Ġwel chem
a ster
er klÃ¤rung
B ei
ĠT ick
ĠEurop Ã¤ischen
Ġehemal igen
iz ieren
ĠSt ock
Ġkomp lex
Ġmein es
ĠJ ust
aler weise
Ġlie fern
ĠD igit
Ġd unk
Ġaus ges
ge fÃ¼hl
Ġi den
ĠHand els
ĠS ei
Ã¶r ungen
9 6
s eits
Ġwen den
lie sen
ĠKl ar
reu en
ĠRegel n
ĠTrain ings
an dern
lie genden
Ġent fernen
ĠVer hÃ¤ltnis
wei ÃŁ
ĠKont o
ĠM ut
201 5
ĠGrund stÃ¼ck
! )
ĠT itten
weis ung
we ge
ver anst
um in
Ã¼r e
ĠH an
rÃ¼ st
au schen
ĠM otto
ikan ische
Ġ7 5
Ġget an
ĠGrÃ¼n de
Ġbr achte
Ġ1 000
ei se
ĠVert rauen
ĠP re
Ġbis lang
ĠG i
Ã¶ tt
ĠLand schaft
Ġinform iert
Ġl Ã¤ngst
ĠerhÃ¶ ht
ĠM ad
ĠZ ut
s uchen
Ġsogen annte
ĠAmt s
Ġmus ikal
ĠAben teuer
Ã¼r n
ĠN utzen
ĠB ir
il ien
Ġst abil
ĠS Ã¼
Ġm ann
ĠAn zeige
hal ter
Ġf alls
Ġver lie
ag ra
Ã¤ch er
s n
Ġindividu ellen
O r
ĠKon kur
ĠAuf grund
ĠB unde
ĠL aden
ĠRe al
Ġd auert
ĠTele f
ĠWÃ¼n sche
ĠgrÃ¶ÃŁer e
Ã¤h ler
ĠEmpf eh
L E
ĠRe de
Ġlei den
gemein schaft
Ġpolit ische
ort s
ĠRe zept
ĠB ill
Ġangen ehm
wir ken
ur n
ĠSti ftung
ĠDir ekt
ĠPrÃ¤ sident
ĠAut os
ĠDenn och
ĠL ud
ĠHoch zeit
ĠJ ournal
ĠAltern ative
ĠEin richtung
ĠÃ¶ff entlich
Ġau ÃŁen
ĠH yp
ĠGem Ã¼se
Ġd est
ĠMass age
Ġverw and
am ing
Ġk rank
merksam keit
ess our
wohn ung
Ġ raum
zip lin
Ġhal b
ĠAb satz
ĠPar is
Ġf ahr
ĠN et
ĠBahn hof
ĠÃ¶ff nen
ik ationen
ĠPol y
zeich nis
ĠG olf
Ġst aat
gel s
Ñ Ģ
ĠT hr
rast ruktur
an c
un a
Ġt reten
Ġne un
ol t
ag s
ĠAr me
ĠJ ose
Ġget roffen
h et
iert es
so ft
ĠKar r
ĠWar e
Ġ arbeite
P S
f ot
Ġre st
p olitik
h ler
Â ¤
Ġt rain
En t
ĠO pen
Â« ,
ĠB u
ĠPer spe
ĠS E
ĠS at
ĠAnd roid
ĠE i
b eln
z ern
ial e
te ten
Sp iel
ĠStu denten
arb eits
l uss
Ġgesetz lichen
Ġaus gel
ĠAlb um
ĠM att
Ġc ool
an ische
ĠPl attform
ĠCD U
Ġein s
ĠM indest
met ho
Ġ italien
ĠmÃ¼s ste
Ġelekt r
ĠGut schein
A pp
fÃ¼l lt
h Ã¶ren
ien te
ĠGer man
hn t
ĠZ un
Ġwechs eln
at ch
... ]
ĠVersicher ungs
zus etzen
ĠÃ¼ber zeugen
ĠTi pp
ĠEin richtungen
8 9
ĠKom pl
ĠGr atis
ĠSt ad
Ġent deckt
ĠSe ele
i men
ind ust
ĠmÃ¶ glichen
pp ich
ĠR and
Ġverl ieren
Ġkom peten
el en
be ck
ĠAb m
sam en
ĠBade zimmer
Ġwill st
far be
ub il
ĠAn f
Ġm Ã¤dchen
ĠMÃ¼l ler
n icht
ĠNach mittag
ĠAust ausch
Ã¼ mer
Ġnahe zu
ĠE cht
ĠVers uch
Ġl ive
ĠQu elle
ĠÃĦr zte
re ck
ar n
ĠMed ia
ĠKon fl
Ġwas ser
Ġjeden falls
ĠMa c
Ñ ģ
schl ossen
bli othek
ti s
Ġso fern
Ġber Ã¼hm
ĠKateg orien
okrat ie
ym bol
Ġp o
ell es
ation ale
Ġschwier ig
Ġent sp
l as
ĠHal le
leist et
ĠSch reiben
ĠGener al
ĠBei de
ig uren
mus ik
ĠF ick
ĠK Ã¶r
Ġfreu e
E U
ze pti
zuf Ã¼hren
klei dung
Ġw eb
I V
Ġw est
Ġvor ge
Ã¼l le
ver k
arb eitern
ĠSom it
ĠTÃ¼r k
ĠB ra
lieÃŁ t
Ġ12 0
ĠBed ien
Ġs h
Ġver ab
ĠÃĦn derungen
ĠStÃ¤d te
Ġbe zahlen
Ġtechn ische
sicht s
ĠBau ern
ĠJahrhunder ts
Ġwar m
g ier
on a
ĠNew sletter
ri c
as i
ĠA cht
wie gend
Ġverm utlich
par atur
Ġeigen t
ĠAr sch
ĠS T
k und
sam e
Ġbe wegen
ĠVoraus setzungen
Ġerinner t
ĠBr emen
Ġab end
ĠRo sen
ĠA ktien
ĠVer waltung
all er
ge wiesen
ĠPf arr
ĠVerb and
ĠS ho
ĠM io
UN G
ard s
il de
Ġgemeinsam e
Ġirgendw ann
t op
Ã¤r m
ĠVer treter
h te
Ġge gangen
Ġregel mÃ¤ÃŁ
ĠUm fang
Ġl es
ĠE hren
Ġgest altet
ffizien z
Ġ3 4
rech nung
ĠB ord
ĠGen au
maÃŁ nahmen
ĠB M
is en
T echn
bÃ¼r ger
Ġgesch affen
Ġ eignet
ĠZ oll
ĠHei z
Ġgesch Ã¼tzt
or ten
Ġr Ã¼ck
Ġc o
st uhl
ĠEg al
is ieren
Ġge eig
ĠstÃ¤r ker
) ;
Ġin spir
ĠVer mÃ¶gen
leg ten
Ġle gt
ĠJugend lichen
ges prÃ¤
ĠBal kon
ĠT im
Ġge he
R A
ĠBedÃ¼rf nisse
6 3
stru ktion
Ġ5 5
be weg
ĠMar ia
Ã¤hl ten
Ġ4 8
ĠRe fer
ĠBil dern
Ġun gefÃ¤hr
ĠglÃ¼ck lich
ĠbestÃ¤ tigt
ĠK la
Ġh Ã¤ngt
ĠProf ess
ĠSch merzen
ĠBer at
Ġ3 3
ĠB ig
ĠSor timent
ĠG hostwriter
Ġspez ielle
lo ud
Ġver ste
fÃ¼l lung
Ġ200 3
p al
ĠÃ¶ff entliche
Pro du
b indung
Ġmei stens
s dorf
ĠB Ã¶
ĠL at
ĠZusÃ¤tz lich
d rucken
Ġs etzte
r hein
ĠAut oren
Ġkor re
Ġgl ob
ĠJ ungs
Ġallgem einen
ĠW agen
ĠT rink
ger ichts
Ġerle bt
ĠZÃ¼r ich
ko pf
arm on
ĠKap ital
6 1
Ġben utzt
ĠGeschÃ¤fts fÃ¼hrer
Ġgeb aut
ver mittlung
ĠA spe
fahr ung
ĠSchne e
Ġer innern
un ken
Ġl Ã¶
ĠU ser
S P
ĠWahr heit
ĠausdrÃ¼ck lich
Ġman che
ack e
ĠGr ill
ĠiPh one
ĠHin weise
p ass
Ġm aÃŁ
Ġan erk
ĠAn kauf
ĠE ich
ĠKranken haus
anz e
lin es
ĠPf licht
6 2
201 4
Ġange messen
c c
Ġinternation ale
t r
ĠL ernen
ĠY ork
ĠH on
Ġoffen bar
ĠAuf merksamkeit
ĠR ett
Ã¼t ter
ain er
ĠÂ °
r eit
Ġr um
ĠN ah
Ġaus pro
Ġpriv at
m ach
ĠZusch auer
Ġbeg leitet
ĠBel ast
Ġsch afft
Ġ200 2
ĠLiebl ings
od y
ĠWer ke
ĠSp itze
ĠPark platz
Ã¼l len
at a
ĠStr ess
ra ÃŁe
Ġaus einander
Ġl Ã¶sen
ĠunabhÃ¤ng ig
ĠSk i
ĠC H
ĠR enn
Ġkurz er
ad s
Ã¤te stens
rei ter
Ġbetroffen e
Ġ ra
G esch
ĠC ro
m st
ĠAr g
ik on
Ġprofit ieren
ĠRestaurant s
ĠUS B
ver waltung
rah men
ĠBesch reibung
Ġruh ig
ĠW affen
Ġerh ielt
ĠS end
sch auen
ĠerklÃ¤r te
Ġz og
E M
ĠH oll
ĠC an
z we
Ġide en
ĠL eitung
p rÃ¼fung
for dern
Ġletz ter
Ġd Ã¼n
ĠO ne
ĠSchw ier
Ġho her
Ġge zogen
f unk
ĠM as
ĠVer Ã¶ffentlich
st ruktur
Ġhol en
ĠKom fort
Ġsollte st
ĠGener ation
ul iert
ĠB anken
ĠR ollen
d am
S erv
ĠGe fÃ¼
ĠBl u
ge d
ĠB it
ĠLauf e
5 1
ot ten
Ġte uer
ĠS Ã¤
ĠP R
indust rie
ĠÃ¼bern ommen
5 00
ĠÃľber sicht
Ġwunder bar
ĠDan iel
ĠS um
ĠÃ¼berr aschen
ĠZwe cke
bar ung
olog ien
R W
Ġpl atz
b il
y e
wir t
Ġf air
5 2
b rechen
ĠMedik amen
ĠN erv
T S
, -
al it
ĠWeihn achten
Ġhei ÃŁen
Ġan ti
ĠL im
Ġs k
ĠFl or
Ġaus sehen
S hop
ĠB re
ĠSchwer punkt
agen tur
Ġbehand eln
Ġer leich
Ġsozial e
ĠHoff nung
geb nisse
Ġmon at
ic al
ĠSo cial
ĠStr eit
h eil
ĠC al
ĠAbl auf
lich em
ĠÃ¤uÃŁer st
gr Ã¶ÃŁe
ĠMon ats
ĠFr ont
prÃ¤ gt
ach ter
Â» ,
Ġv ideo
201 3
lo ser
ĠRo h
F Ã¼r
ĠF u
Ã¼ te
Ġf u
rain er
st ation
Ġhistor ischen
si denten
5 3
Ġeinfach en
ĠG rau
in u
ĠSch Ã¤den
k k
Ġ2 50
ĠEro tische
mod ell
Ġer Ã¶ffnet
t l
mal e
ĠVerÃ¤nder ungen
Ã¼r k
lo ÃŁ
Ġm ar
sf Ã¤h
ser t
be f
ĠDe kor
Ġsch rieb
) )
5 4
r is
ĠK ab
ĠJes us
sie ht
fÃ¤l lig
ĠVort rag
ĠVer stÃ¤ndnis
ĠStimm ung
ĠAus gang
ĠC ol
r ang
lei sten
Ġth is
ĠCas inos
ĠP en
Ġunbe k
ra ges
Ġh eil
Ġeinfach er
ĠauÃŁer gewÃ¶hn
ĠAl kohol
ĠV ielen
ĠQu ad
r ing
ausen d
Ġall gemein
ar tikel
sp recher
ĠHa fen
sp or
ĠNach richt
ĠTats ache
Ġdah in
ĠK Ã¤
Ġb eit
t Ã¤
Ġersch ienen
o us
ĠUnter kunft
Ġh Ã¤uf
ĠMetho de
ĠGemein schaft
hal tet
druck t
Ġer hoben
Ġqu alif
wor ben
sp art
Ġoffen en
ĠHa ft
Ġintern ational
Ġzu g
Ġrei fe
ĠWolf gang
kir chen
ĠN orden
ĠSchul d
Ġgeh abt
Ġsex y
licher weise
Ð¾ Ð
Ġgew Ã¶hn
st ern
stechn ik
au ben
ĠZug riff
ĠD ial
ĠH ab
et h
Ġech te
g st
Ġk rÃ¤f
hol ung
ĠB ein
Ġal tern
Ġbek am
Ġte sten
Ġy ou
Ġge pf
ĠVarian te
wir kung
pp er
ĠK Ã¼r
Ġgel ang
ĠFÃ¤h igkeiten
Ġt ritt
ĠerhÃ¶ hen
Ġmo tiv
inder ung
wer ks
ĠP ubl
z ten
Ġt rau
Ġf Ã¶rdern
Ġ3 9
az ier
ĠfÃ¼ hlt
ĠAut om
Ġkennen lernen
ymn as
Ġan sehen
zÃ¼ g
ĠGrund lagen
d is
ĠV ari
pl atten
ĠT eilen
Ġver bringen
ĠAus nahme
ĠUn ternehmer
ĠschÃ¶n er
ĠK os
ĠY ou
ĠI N
ĠBet reuung
ĠArbeit nehmer
essour cen
Ġgesch afft
ĠDi pl
Ã Ń
Ġwei b
Ġk ap
Ġbild et
Ġkl icken
Ã¶ff nung
g f
Ġh ielt
Ġdes wegen
Ġintens iv
den k
hl ung
ov e
Ã¼hr t
ĠK ino
Ġw usste
ĠLud wig
i i
be st
Ġre den
Ġwill kommen
y a
Ã¤us ern
ĠÃ¼ber sch
5 7
ĠF okus
eld et
ĠBr un
Ġge legt
le bt
ĠIntegr ation
Ġbeg onnen
sie he
ĠSemin ar
ĠPo wer
Ãľ ber
ĠL eg
pr et
ĠsÃ¤mt liche
ig i
trag ung
ĠAus wirkungen
ĠN Ã¤ch
Ġp oten
ĠDar stellung
Ġnorm al
ĠfÃ¼r s
ĠB und
ĠSch we
Ġt ra
ĠFÃ¼hr ungs
Ġauf merksam
Ġvor gesehen
ĠAut ob
ĠHer stellung
Ġan hand
ĠWeb seiten
Ġsicht bar
ho tel
ĠO bst
ath em
av e
! "
f rauen
ĠViel falt
Ġbes itzen
Ġst anden
fÃ¤l lt
ĠC ap
Ġf iel
W est
ann ter
rÃ¤ ch
z iel
ĠC ity
ĠPrÃ¤ sent
ĠVerl auf
spro zess
ĠFahr zeuge
ul in
ĠR ing
her r
ĠEin blick
Ġb rit
ĠY og
Ġg ingen
ĠArch itektur
ĠBr enn
a ktionen
Ġak zepti
ĠHaar e
ĠWachst um
Ġre chten
ĠGr Ã¶ÃŁen
Ġh ell
Ġh a
Ġdest o
ĠH obby
Ġleich te
ĠBeh and
Un ser
ool s
bo ok
S U
ĠGe org
ĠSp anien
Ġre zept
Ġd ro
Ġl i
ĠSch lieÃŁlich
Ġst er
ĠB eine
Ġge Ã¶ffnet
Ġjen e
9 7
Ġben utzen
ĠKa iser
b art
ĠB em
ĠF an
Ġver br
Ġkom fort
ĠEin kommen
s Ã¤chlich
Ġbes ucht
ĠSt iefel
ĠSym pt
ĠS ens
ĠL ast
fÃ¤l len
ur laub
b a
Ġerst es
o pf
ĠP unkten
med izin
on y
em m
ĠH en
ĠN ote
ĠPart eien
r ollen
Ġhervor ragen
ĠStel lung
ĠH istor
# #
ĠDat ei
Ġsch me
p osition
sel ben
gesch lagen
er ischen
ĠAll gemein
ĠBehÃ¶r den
ger t
ĠDar m
L and
Ġausge zeichnet
âĢĿ ,
Ġver lei
ff el
ĠSchm uck
ĠEben e
ar tet
ĠerwÃ¤hn t
st anden
tag s
adem ie
ar tig
ĠA B
ĠZu hause
gen er
ĠEdel stahl
t Ã¤u
Ġgen auer
do or
Ġn a
an ter
abil itÃ¤t
ĠBunde stag
ĠHeraus forderungen
ant ast
Ã¤ sser
ĠAn n
rau ben
ĠT ief
Ġst immt
u cken
Ġre al
Ġge lie
Ġle cker
Ġbet rieb
Ġ reichen
b ald
z wei
des ign
ĠQu alif
w Ã¤hlen
R eg
ĠP ok
ĠF icken
ĠBaum w
ment s
m as
Ġ 000
eg a
Ġv ollen
leg te
r Ã¼ck
sch merzen
ĠgrÃ¶ÃŁer en
Ġho ffen
ĠKap itel
Ġr unter
Ġnie mals
Ġteil nehmen
ĠjÃ¤hr lich
co de
ĠRo bert
Ġdies mal
Ġerg ibt
A ut
Ġb undes
Ġmit ten
ubil Ã¤um
n ei
ĠKlin ik
ĠLie bes
ick er
g ra
ĠD S
Ġh olz
be cken
ĠS ub
fÃ¼hr ten
B ild
Ġ200 1
ar ben
an er
ĠVor bereitung
lei ben
ze ption
ĠK Ã¤ufer
ĠM ak
sor ge
ĠSch atten
Ġspez iellen
ĠG eile
wei st
ĠA R
ĠWider ruf
en zt
Ġ4 2
ĠschÃ¶n sten
ĠWir klich
Ġeinge laden
" -
Ġmel den
Ġhier bei
ĠSzen e
Ġver Ã¤ndern
Ġgeb raucht
ĠHÃ¶ hen
ĠEr weiter
Ġger echt
. ).
ĠTerr asse
id s
Ġf arb
Ġsp iele
ĠGraf ik
Ã¶l f
D S
ĠAn aly
C he
Ġst ren
etz ungen
ĠFer tig
ĠAn leitung
Ġj eg
Ġf aszin
Ġstatt finden
Ġspez ial
ĠN Ã¼rn
r ats
k i
ĠAus stattung
Ġ0 6
ĠAm b
Ġlie fert
ĠInd ividu
Un ter
Ã¤tig ung
ĠVerbesser ung
ĠR em
kl ass
ĠSoll ten
Ġerl Ã¤u
k eln
ĠFrÃ¼ hl
ĠHeraus forderung
ĠB atter
ĠCo ach
stÃ¼ck e
Ġn ett
s ung
ĠK eller
Ġ rad
Ġs ystem
ĠDa vid
Ġhervor ragend
f alen
ĠO hr
E ine
Ġer r
ĠW M
ĠN iveau
ge fÃ¼
ahr ungs
ĠAn zeigen
ĠOber flÃ¤che
mel den
Ġfrei e
schie de
Ġk auf
ĠMit arbeitern
pro blem
az it
ĠF ischer
ĠZ war
ĠÃ¼bern immt
ĠC am
ĠAn gel
Ã¤tz ung
Ġpro duziert
o sen
Ġmein t
ĠW all
ul ieren
st il
Ġc on
l an
ĠBet reiber
Ġen orm
Ġsol cher
ĠH als
t on
ĠRo hr
Ġoptimal e
ĠR um
ĠD ollar
ĠM ilf
ĠM assen
D u
Ġr elev
Ġ ..
ĠSt att
m ag
ĠTrotz dem
ĠLie b
ĠMus e
g a
Ġdur fte
ĠDurch fÃ¼hrung
ie ur
JÃ¤hr ige
az z
r as
Ã¼t te
on str
ĠmÃ¶glich erweise
Ġverz ichten
Ġverd ient
Ġbeg leiten
ĠEntwick lungs
201 2
co unt
ĠMicro soft
wend ungs
er al
ĠD R
ĠAn lass
ĠGemein sam
Ġsich ern
ĠW in
ĠOption en
ĠIs rael
on ym
Ã¶rder ung
t au
ĠBek annt
Ġbe stellt
s c
g as
ĠHoch schule
h am
Ġch rist
frei heit
rei ft
rei be
ĠSchw ester
ĠFrem d
ĠReg istr
ĠNach w
ĠPar lament
rein igung
l ings
rin zip
Ġfre ut
F or
ĠKlei dung
rÃ¤ glich
ĠT om
ĠAgen tur
ĠKarr iere
Ġ[ ...]
Ġf anden
fol ger
y d
ĠG erne
he bung
ĠPr ess
Ġab wechs
gerech net
Ġt op
ĠJe de
Ã¤u b
Ġmax imal
ichte ten
ĠStrate gie
ĠAnder e
achelor arbeit
Ġverg leichen
Ã¤r ten
ĠR uf
Ġl og
Ġm ach
Ġvoll kommen
ĠBe wertungen
b iert
umin ium
hÃ¤ng ig
ĠUntersuch ung
r unde
Ġw id
Ġweiter lesen
ĠschÃ¶n es
Ġv ia
Ġge Ã¤ndert
ĠN av
ĠÃĦn derung
ĠEr gÃ¤n
I F
Ġein schlieÃŁlich
ĠM r
st ren
tern e
l Ã¶sen
pr ession
ĠR ennen
ĠEr klÃ¤rung
Ġverl etzt
Ġd ran
ĠFrÃ¼h jahr
ĠW esen
ic o
Ġgesp annt
e c
ĠfrÃ¼ hen
D es
ĠBran chen
Ã¤r t
ĠBer eiche
Ġsing le
Ġan zeigen
ĠRei fen
Ġber lin
fe ktion
Ġdigit alen
hÃ¶ rigen
ĠAng riff
Ġstar tet
ĠSeni oren
ĠAl te
Ġum gesetzt
ĠF und
lich ten
deck ung
sto ffen
Ġs enden
ĠOb jekt
G H
âĢľ -
minister ium
N r
Ġviel er
ber ater
ĠB onn
Ġnorm alen
ĠVier tel
Ã¤ fte
osoph ie
Ġkom me
Ġeigen er
lapp t
ĠMittel punkt
ĠBes itz
ie den
e e
Ġver arbeitet
ĠEint ritt
ĠEntschei dungen
ĠErw art
euch tigkeit
Ã¶ hnen
Ġmehr fach
Ġkont akt
Ġf eiern
Ġt hem
Ġch ar
ĠWir k
Ġabsol v
re gel
ĠF ehl
gl as
Ġg arten
s icherheit
ĠUm feld
af Ã©
ĠLux us
ĠGel Ã¤nde
h or
Ġs w
ĠO ft
ĠF ast
ĠK uchen
ĠGro ÃŁen
Ġwohn zimmer
Ã¼nst ige
c am
ex t
ĠKl im
ĠK Ã¼ndig
Â §
Ġverst anden
r ol
a j
Ġw eite
ĠVer sch
in ken
Ġhand eln
9 4
ehr en
iz ierte
unter richt
ann er
Ġsp Ã¤t
ĠEl emente
ut sch
Ġauf treten
ĠG alerie
S S
kehr t
ig te
Ġst eigt
ĠT rum
ĠMÃ¼n ster
wer ken
Ġpass ieren
ĠSystem e
ĠTe e
Ġbeh alten
ĠEben so
Ġs itzt
Ġaus geschlossen
Ã¼l l
Ġdeut scher
bÃ¼ cher
ell a
w est
ĠF lex
ĠW ik
ĠW en
ĠmÃ¶ gliche
ĠV al
besch ichtung
ĠRein igung
ĠEr f
imm ern
ĠRe paratur
w ein
ĠVerk Ã¤ufer
ĠE ck
ĠSch ritte
Ġsch au
eb el
ĠL ein
Ġst euer
9 2
Ġ3 7
ĠnatÃ¼r liche
ĠSchm id
system e
Ġeinger ichtet
sto ÃŁ
ĠAll ein
A d
Ġfrei will
Ġge p
rÃ¼st ung
ĠGr enze
othe ke
wer den
Ġschwar ze
Ġte st
ur st
Ġ0 5
n itz
ĠÃľber rasch
F il
ĠF ass
ut h
ĠK riterien
ĠStim men
I R
stÃ¤t te
ak en
Ã¶r sen
Ġm oment
D eut
ĠSch ok
Ã¤ ser
Ġd ritte
ĠAn ruf
ĠAus sicht
Ġv irt
ĠVor stellung
D E
Ġbel iebt
hand lungen
Ġsamm eln
M ar
Ġverst eht
ĠQu ellen
ĠTurn ier
sch lagen
ĠhÃ¶her e
war d
Ġge prÃ¼
ĠAuss age
Ġ6 5
p ekt
Ġ ter
Ġbest immen
hei mer
d ach
Ġst ammt
jahr es
Ġkein es
ol ine
ĠKl ang
ĠAlex ander
N eu
ĠKre ativ
P f
ver kauf
Ġ orien
ĠEnt fern
Ġd unkel
ĠT asche
ĠJohann es
tem peratur
ĠEing ang
abr ik
gÃ¤n glich
8 6
eren z
Ã ³
ĠK enntnis
Ġj apan
um p
ĠEr l
Ġkl ingt
ĠV ir
Ġschl imm
h orn
Ġkompl ette
Ġkeiner lei
Ġsch laf
ĠKl eine
Ġst ammen
ĠR ang
ĠGesch lecht
de cke
ĠW LAN
Ġum ge
Ġirgend wo
ĠG riff
Ġab gesch
ĠStud io
ĠA tem
ro st
ĠO ster
ĠArch iv
l ub
ĠAuf wand
Ġber ichten
Ġbetr achtet
Ġdar gestellt
Ġerz Ã¤hlen
d ige
Ã¼r gen
leist ungs
Ġwir k
Ġbeob achten
gem Ã¤ÃŁ
C om
Ġh Ã¶rt
Ġf Ã¤hrt
Ġneue sten
em pl
br an
ĠGr enz
ĠD ist
s ites
hÃ¤lt nisse
ĠRe chn
Ġgel angen
kir che
ĠTw itter
schei dung
ĠP ause
ĠDi abet
ĠSch lei
produ kte
ĠD igital
ĠNeu es
Ã¶pf e
ron en
Ġvers ehen
ĠG umm
pro jekt
Ġbesch lossen
ĠGemein den
ĠBeschwer de
stehen den
Ġmax im
ĠDV D
ĠUn i
ĠX xx
ĠR et
r amm
is ierte
Ġ- -
ĠK rie
Ġbe geg
Ġdurch schnitt
? âĢľ
ĠPriv ate
ĠSÃ¼ den
Ġverb inden
ĠSchÃ¼ler innen
Ġver mitteln
ĠZ auber
ĠW urz
n Ã¼
gend es
ĠG itar
Ġh Ã¼b
Ġdeut schland
los igkeit
ĠH Ã¤nden
ĠN ik
ĠC O
ĠTemperatur en
ĠApp s
v ider
ri p
in er
Ġb raun
ĠP ack
ĠB raun
A U
ĠD ritte
Ġf uer
k op
fÃ¼hr ungen
h es
ĠP aket
ier er
ĠSch merz
ĠD ate
ĠGer ichts
form ance
ien s
Ġauf gebaut
ell schaften
ĠWe sten
Ã¤ch s
ĠM uschi
ĠMont age
ĠMÃ¤n nern
em it
ĠWien er
sta at
Ġs l
ha f
ĠAn w
ĠPfer de
T M
ver gleich
ĠZentr al
Ġposit ive
ĠS Ã¤nger
r ation
frei en
ĠP a
---- ----
Ġhier zu
au ff
ĠBer eit
Ġpl anen
at tet
ĠEr ste
ent al
Ġver Ã¶ffentlich
Ġunmittel bar
zen s
ĠH aust
der s
ck te
eta ill
Ġher z
ĠE ier
ĠR essourcen
h u
ĠA v
ĠDi agno
k ord
Ġa pp
ĠH Ã¶ch
en ken
ĠS uchen
ĠprÃ¼ fen
Ġk enne
ver schluss
p la
k m
ĠAb stand
ĠnatÃ¼r lichen
Ġnoch mals
st em
Ġal ter
ĠL ok
Ġb au
ĠEin er
ĠK le
P rÃ¤
ĠA qu
Ġsch lieÃŁen
p ern
ĠVer br
ĠSu pp
8 2
Ġero tische
Ġt Ã¶
u el
mm ern
Ġb uchen
Ġ( âĢŀ
Ġ0 4
F r
ar y
Ġvert rau
Ġbe stens
Ġbisher igen
il ber
Ġn ennt
o ter
ĠKind es
ĠGesch windigkeit
Ġg ra
ĠIntern ational
ind lich
p ers
ĠE hr
Ġbe zahlt
ĠA fr
ĠMus kel
k Ã¶
gemein de
ĠZ Ã¤
ĠN ackt
ĠWider stand
ĠWell ness
ĠK alender
ul a
wei ten
Ġh om
ĠAn wendungen
ont o
Ġgel ernt
ĠZahl ung
or fer
Ġso bald
ĠðŁ Ļ
ĠLeiden schaft
ĠWil helm
il itÃ¤t
ĠH ell
ĠA L
he ben
Ġm achten
9 3
Ġf a
ĠS em
Ġe v
ĠAn schlieÃŁend
ĠSchu h
sch ech
Ġ6 00
Ġet abl
Ġschwer en
k Ã¶rper
ĠWe gen
Ġdiver se
ĠRei hen
G en
ĠB Ã¤
Ġverd ienen
ã ĥ
o ÃŁ
Ġent spann
ĠGr Ã¼nen
ĠTab ellen
ĠII I
Ġehr lich
Ġd el
an isch
ĠhÃ¶ch ste
ĠK ost
ke a
n eu
ĠBe ob
Ġempf ohlen
ĠTelef onn
ĠL ohn
av a
ĠSie ger
ĠH ot
Ġl Ã¤dt
Ġeinge stellt
Ġg rÃ¼
ĠAd vent
D P
Ġproblem los
k ar
Ġmein te
ĠO tt
a a
Ġsch icken
Ġv ideos
8 7
eut r
ĠOpti m
ĠGl ob
ĠErn st
Ġg gf
ĠBei spiele
Ġfunktion ieren
re cken
b ilden
at ischen
w id
z z
Ġges und
ĠAuf lage
ast rop
ĠFl uss
Ġdrau ÃŁen
n d
st immen
ĠS old
Ġhaupt sÃ¤chlich
ten d
sp unkt
H and
ĠVer n
ĠKlei der
Ġm y
ĠA st
ir r
ĠKir ch
ĠA sy
anz ler
D at
ĠForm at
ĠSt au
will igung
Ġnie d
ĠErinner ung
Ġange kommen
ĠR ich
Ġwir ksam
Ġkosten losen
ĠSt ich
ĠIn spir
ĠInstall ation
ĠP ri
wÃ¤ sche
Ġg hostwriter
Ġhier fÃ¼r
Ġn utzt
Ġj ur
ĠBo ot
amer a
Ġzuk Ã¼nf
kÃ¼n fte
ĠKom petenz
Ġem otion
ĠH Ã¤ndler
rei he
Ġge arbeitet
ĠAus bildungs
u len
Ġdigit ale
chen ke
st unden
ĠEin ladung
akti eren
kom pl
le y
ĠE mail
rÃ¤n ken
wor k
p aar
ĠVerl ust
p os
Ã¼cksichtig t
ĠPrem ium
kl ar
p at
sp er
Ġver anst
Ġges undheit
Ġerwei tert
Ġro man
Ġoffen sichtlich
ĠGegen teil
Te am
ĠGe werbe
bau ten
Ġerfolg reiche
ĠSte u
ĠRe alitÃ¤t
Ġlie f
ĠVer pack
St and
amil ie
ĠIn g
ĠPorn os
Ġver geben
ĠhÃ¶ch sten
Ġ0 2
ĠW art
gl Ã¼ck
Ġr ichtet
Ġbet reffen
ch ester
ĠKl Ã¤ger
ĠWor ld
al a
ĠPartner suche
Ġex klus
bar es
ĠZeu g
H ier
ĠzusÃ¤tz lichen
Ġech ten
Ġer m
ĠI slam
Ġdam al
Ã¼r zt
f ur
ĠVo gel
B N
f lex
ber eiche
an w
Ġhin sichtlich
ĠEigen tlich
lei ster
verb rauch
kun st
ĠZ eich
ent wick
m ass
all el
Ġb un
ĠA dr
Ġbet rieben
Ġf ern
ĠBe ziehungen
ampag ne
tik eln
B et
dig ung
Ġent stand
ĠDort mund
rit zen
ĠA ktionen
Ġn ackt
Ġd is
ĠZ in
ĠhÃ¶her en
ĠIniti ative
Ã¤hr ungs
Ġsel ben
ĠSamm lung
Ġh off
ĠK Ã¶
us h
Ġer setzt
Ã ¨
p olit
Ġan spruchs
Ġg laub
Ġen glisch
Ġge g
ĠMil itÃ¤r
Ġbein haltet
Ġfreund lich
is ion
Ġspann end
z iger
" :
ot te
Ġste ckt
Ġkont akte
Ġsei d
as ste
ĠSch ie
ĠFil ter
ĠIn n
ĠEr z
ĠAus fÃ¼hrung
Ġhochwer tigen
ger echt
ĠKlo ster
ĠBeweg ungs
ĠAl uminium
e y
ĠN ackte
Ġle b
E C
Ã¤ b
ĠMehr heit
Ġspiel te
Ã¼ hen
Ã¼n den
ausen de
c ore
Ġch ines
ĠT rÃ¤ger
Ġent f
ĠZ ivil
ĠMotor rad
Ġb itten
ĠAn sprech
sch ritt
ra y
Ġgew isse
S C
Ġv i
Ġch at
ĠAm ateur
at o
ĠF utter
bo ard
st rom
ĠHaupt stadt
ti ere
ĠK ass
Ġeinz igen
zug s
stÃ¤t ten
a ft
Ġ4 4
O C
ĠgenÃ¼ gend
ĠZut aten
ĠM ischung
il fen
ĠM om
ĠArch ite
ĠF al
ĠV an
st ab
wei chen
ĠLei cht
ĠÃ¼ber t
sk on
ĠE cke
Ġver p
B o
Ġst il
m Ã¤n
ĠMusik er
Ġgeb lieben
ĠOl ymp
Ġs im
ĠM ach
ĠL ange
ĠJ edes
opp elt
ĠD or
hÃ¶ hung
Ġwes halb
z el
an alyse
ĠDen ken
str ich
ĠD DR
pap ier
ĠBe sten
Ġspez if
ĠEin stellung
zen e
Ġk Ã¼nftig
ik at
us en
ĠBerat ungs
t or
ĠmÃ¤n n
ĠAspe kte
Ġange passt
ĠG ibt
ĠP ool
ĠH Ã¤user
ĠF uss
ht t
Ġges prochen
ĠMit tler
ĠFÃ¤l le
geb nis
ĠJ er
Ġvor zu
ĠR ud
eig ern
ĠC a
ĠJ ed
Ġre duziert
Ġeindeu tig
Ġd o
ĠK andid
ĠSer ien
Ġzunehmen d
ei cht
un e
ĠArb eiter
ĠWohn ungs
ĠR Ã¤ume
form ular
Ġorden tlich
f Ã¶r
h Ã¤nge
ĠTod es
ĠN RW
ĠKar ls
ĠO sten
ĠDien ste
ĠBestimm ungen
ĠSp enden
Ã¼hr ung
ĠVor gehen
m mer
stÃ¤ndig keit
ĠL os
ĠUp date
ĠDatenschutz erklÃ¤rung
Ġk alt
f red
ie ht
ĠVerantwort lichen
Ġklass ische
Ġan genommen
wer fen
ĠGe gend
ograph ie
ĠMer kel
Ġunter scheiden
Ġberech tigt
gesch ichten
ĠStel l
ĠVert eidig
Ġlin ken
Ġge fahren
Ġv ari
Ġerfolg reichen
Ġw eich
ol ogen
Ġimmer hin
ĠUr heber
Ġt Ã¼rk
g i
ĠVers orgung
Ġbrau ch
Ġsp Ã¤testens
othe ken
8 3
ĠDu sche
Ġver mittelt
Ġbeteil igt
F orm
ĠCo de
ĠT ank
Ġbet rifft
Ġevent uell
ĠGÃ¤ sten
ĠMark us
ĠM asse
Ġorganis iert
f it
ĠP last
uch er
Ġp ost
ĠLand wirtschaft
l Ã¤
w s
kor b
W Ã¼rt
Ġoft mals
Ġhilf reich
d ar
ĠfÃ¼ hl
K E
men s
ĠDis play
ĠPh ot
ĠFlÃ¤ chen
w Ã¼n
ĠI dent
b ro
Ġgew issen
ĠmÃ¶chte st
ĠInf o
ĠBran che
br ing
Ġs ub
ĠDem okratie
ĠPersÃ¶n lichkeit
ark e
ĠNeu er
S ti
ĠAn sprÃ¼che
lei ÃŁ
ã Ĥ
ne y
yp en
ĠZu ge
l uft
beg inn
hand lung
ĠSl ot
ir ol
le un
we be
k um
ĠAn s
ĠWohn ungen
Ġsol ange
k inder
bild ungen
ĠSp er
ĠBe weis
Ġden k
Ã¤t zt
St ud
and a
n amen
ĠSp ar
Ġhei ÃŁe
ĠFlÃ¼cht linge
Ġde kor
fÃ¤h ig
Ġo hn
Ġvorber eitet
ĠHam burger
ĠD am
ĠSchÃ¶n heit
ĠAn sicht
Ġspann ende
mer k
ĠgÃ¼nst igen
fahr ten
ĠKon d
w inkel
ĠInf rastruktur
I A
ra k
nehm ern
ĠVarian ten
ĠEr schein
Ġ 00
qu enz
M ehr
ĠH ir
umen ten
l Ã¶
ĠS ob
J ahr
ĠGrie chen
ĠSong s
ĠInst itu
utt on
sen den
o ir
Ġd auern
Ġein setzen
ĠGar antie
WÃ¼rt temberg
z eits
Ġverbesser t
Ġein sch
Ġab hÃ¤ngig
Ġgel ingt
Ġer Ã¶ff
ĠKap it
Ġleist ungs
W elt
Ġst imm
off er
ĠBestand teil
Ġver an
form ation
Ġg o
schl Ã¼sse
ĠT arif
tre ff
Ġst ruktur
ra c
ĠWor ten
s et
spez if
behÃ¶r de
Ġk Ã¤mpfen
Ġend g
Ġfest gestellt
ĠSchw imm
SG VO
9 1
ĠG ames
on us
Ġbeant worten
ĠHa ftung
s berg
Ġges amm
ĠM c
ĠEurop as
in sel
Ġschwar zen
ĠRes erv
af el
ĠL assen
ĠHom osexuell
scha ff
zeich nete
Ġh ef
Ġdefin itiv
ĠGast geber
ĠmÃ¼s se
ĠF ried
Ġm il
ĠAu dio
ĠL ade
E l
H o
fel der
ĠF antas
ĠGleich zeitig
U M
ĠW illen
ĠA ff
o ÃŁen
f euer
mitglie der
ett bewerb
gesch oss
ĠFlÃ¤ che
s wÃ¼rdig
ĠF igur
ĠLi zenz
ĠFe der
Ġw Ã¤r
wissen schaften
ĠErwachsen en
ĠB reite
od es
Ġgleich er
or ge
Ġ eig
ig ungen
ĠW ellen
ĠMan ager
z one
ĠgewÃ¤hr leisten
Ġzw Ã¶lf
B ahn
Ġehemal ige
Ġm obile
no w
Ġwenig stens
or se
Ã¶ m
ĠH alt
Ġst olz
ĠTÃ¼rk ei
ed t
Ġden kt
ĠEin heit
Ġdrin gend
sch iff
Ġbeweg t
ib le
8 4
h aut
Ġdie jenigen
Ġdes ign
ĠB ast
ĠÃ¼berprÃ¼ fen
Ġgel Ã¶
itu ation
IN G
Ġansch auen
iz ierten
ĠKonkur renz
Â ¶
gr enzen
g no
ĠSol ar
Ġrech nen
haus es
Ġbe zÃ¼glich
ho fen
ĠI ll
Ġver teilt
Ġverschieden er
ide en
ĠEd ition
ĠJu den
produ ktion
ul d
Ġverh indert
ĠProfess or
ĠTer mine
ĠGrÃ¼n dung
Ġab sch
ĠFot ograf
spro gramm
ĠStÃ¤d ten
l og
ĠK G
st ufe
rÃ¤n k
at ers
ĠPolit iker
ĠK atze
lÃ¤ss lich
Ġsch ein
Ġp art
iel te
B A
au men
Ġsie he
ĠKontakt anzeigen
Ġf eier
Ġnach fol
Ġk Ã¼nstler
Ġpl us
Ġan f
ĠjÃ¼n ger
k aufen
aus schuss
ĠGeh irn
Ġ199 8
c i
Ġf roh
ĠF inden
ĠWerk zeug
ĠZu stimmung
isch of
ka sten
ĠS n
Ġide ale
Ġn erv
ra ht
Ġst arte
le ute
T ER
ĠS ich
Ġt rinken
ĠGanz e
Ġnotwend igen
l et
r esse
Ġb ar
an bieter
Ġbesonder es
Ġ8 00
ĠDat um
ĠGlÃ¼ck s
f akt
ĠA si
zeich nungen
Ġunglaub lich
Ġ up
Ġber Ã¼cksichtigt
ĠEin stieg
Ã¼ cher
sp olitik
ĠS eb
ĠBl att
bl og
ĠNÃ¼rn berg
Ġauf nehmen
Ġgeb oten
Ġwo hnen
1 12
sp reis
ĠGefÃ¼ hle
P al
Ġt raum
ĠMa ÃŁe
Ġero tik
ĠAu str
Ġle g
F ahr
ist in
Ġm iss
ant eil
ĠSchwar ze
ĠVerÃ¶ffentlich ung
Ġkombin iert
Ġzu ge
D e
ĠBe arbeitung
Ġun ternehmen
ĠBet racht
201 1
ĠSex kontakte
ĠGen uss
p ot
our en
ron ik
Ġse par
b rit
test et
Ġb ay
n acht
ĠI V
ĠH essen
Ġerz ielen
st rÃ¤ger
ver hÃ¤ltnis
Ġ: -)
ĠðŁĻ Ĥ
ab schluss
Ġfor dert
ĠB enz
Ã¤l lig
ĠT un
as cht
ĠReg ionen
ĠUm stÃ¤nden
g yp
ĠN ase
Ġver wir
ĠVer pflicht
ap s
gr Ã¶ÃŁ
ĠEin stellungen
Ġ199 9
Ġg reifen
ĠjÃ¼n g
Ġ Ø
ĠFr ucht
ĠRe aktion
ĠOr te
Ã¤m pfer
Ġo k
ĠQualitÃ¤t s
Ġj Ã¼d
ĠSchul ter
ie der
ĠVer Ã¶ffentlicht
ĠC loud
ĠVoraus setzung
ĠHaus es
ti al
Ġge prÃ¤gt
b rÃ¼
ĠBet rag
ĠSchwanger schaft
Ġso was
ĠkÃ¼ mmern
ĠSpiel automaten
c ort
. ),
m at
urop a
ĠHilf s
inform ationen
ĠErk enntnis
ĠFern sehen
le hen
de x
ĠHer kunft
Ġn ord
Ġdank e
pl ant
vor sitzen
ĠO ma
ĠÃľb rigen
g y
Ġanal ys
ron e
ĠBe wohner
ĠZwei fel
Ġoffen e
ĠEng land
b w
Ġin t
wohn ungen
ĠMer c
Ġsorg fÃ¤l
ĠCamp ing
zen ten
Ġsowie so
du str
eist ern
p reise
Ã¶n e
ĠNach frage
erk ennung
ei s
ĠAn satz
Ġ0 3
Ġwei ÃŁen
Ġinteress ieren
Ġbestehen den
ht ml
ĠAus flug
ar tigen
ĠL en
olog isch
ĠAn gabe
wo od
kon zept
ĠIr gend
s hop
ĠThe orie
ĠEin trag
Ġbesser en
ĠBild schirm
ĠÃ¶ k
ĠOut door
ivers itÃ¤t
l im
ĠLin ien
ĠÂ ©
Ġr as
Ġn ix
w ahr
st Ã¤d
gr enz
a sten
inu ier
Ġsch lagen
ĠPol en
Ġvor genommen
t he
ĠC y
eh in
ĠgÃ¼nst iger
st eil
je ktiv
ĠFest ival
and elt
Ġo per
cri ption
G E
Ġabge st
ĠNieder s
ĠPro stat
ran s
Un d
eh le
ĠDu ft
s zeit
âĢ ¢
ĠSeiten sprung
ĠmÃ¶ gen
ĠAsy l
ĠM eld
ĠS ab
Ġqu alit
rich ter
ĠRab att
L eist
Ġletzt lich
Ġ it
Ġt at
ĠS ar
Ġfest ge
e ten
ĠStart seite
ĠAus bau
ok oll
Ġ $
Ġend et
ĠPl Ã¤tze
ĠEinsch rÃ¤n
ĠM agen
bau er
ĠR ichtig
ĠTour ismus
H aus
ad el
Ġschn ellen
ĠFakt oren
ĠPro zesse
Ġd ok
ĠAuftrag geber
Ġschle chte
ĠGeh alt
il er
ser ie
Ġehr en
s ichtigen
.... ....
ĠTre ff
ĠSchÃ¶n e
8 1
ste te
ĠL ack
Ġvor n
ĠSchau spiel
war en
her e
ver halten
Ġunter en
af r
te am
ĠD E
scha fter
ĠKr atz
ĠS orgen
or a
ĠJ ubilÃ¤um
Ġle gte
Ġerreich bar
ĠAus sch
Ġlau tet
Ġer worben
ĠÃ¤lter e
reg ion
ĠWill kommen
Ġt iefer
od urch
Ġw eist
ĠAc cess
Ġd omin
ĠJust iz
Ġn amen
ĠSitu ationen
ĠKon zentr
ĠVers icherung
ĠFrank en
ĠS ur
ichtig ung
rank en
Ġange kÃ¼ndig
Die se
br ig
Ġab nehmen
ĠGet rÃ¤nke
Ġm Ã¤ch
Ġk rie
ĠBe am
uss y
Ġst rate
ĠAnsprech partner
Ġm Ã¼
Ã¤ch eln
k ern
Ġansch lieÃŁen
ĠursprÃ¼n glich
ĠHein rich
ĠTÃ¼r en
Ġph ys
Ġverl angen
im ent
ĠEin wohner
ĠSe c
o ffen
fÃ¤l l
f leisch
ĠBer ech
ĠJ agd
ac t
k ra
ĠAuf lÃ¶sung
prÃ¤ sident
Ġqu asi
s recht
Ġau st
ĠTerr or
aut omat
Ġab geb
ĠBe vor
ĠAn sonsten
ĠServic es
Ġjem anden
organis ation
Ġ4 3
hal len
Ġan sonsten
ĠC ent
ĠDat eien
ĠSob ald
Ġman chen
Ã¤ chen
Ġdar stellen
ĠMan chmal
Ġar ch
Ġge fÃ¼hl
ĠQu er
Ġsch ien
ĠNach hal
O n
hr t
ĠAn liegen
Ġver stÃ¤nd
ĠKrÃ¤ uter
ein satz
k ette
M o
âĢľ )
ĠBe werb
Ġin halt
ĠO f
Ġhin weg
s icher
Ġintegr iert
Ġkl are
at iver
b ogen
plan ung
ĠM aschine
zeu gung
i am
ĠE ffe
Ġster ben
stell bar
g ibt
ĠMatt h
ĠS C
ĠSp recher
ĠTele kom
ĠF unk
v gl
ĠR enten
is ierten
Ġf rom
ĠJ Ã¼rgen
ĠM obile
ĠK am
ĠHand eln
201 0
ĠPart ie
Serv ice
Ġerw achsen
ing ern
Ġz it
vers icher
D a
ar l
wach ung
ĠbeschÃ¤f tigen
ĠNutz ungs
ar ische
Ġm et
ĠRett ungs
Ġn ehme
arr iere
beh alten
Ġdire kten
be stand
Ġkein em
Ġprakti sche
mÃ¶ bel
ĠFor scher
Ġviel mehr
Ġprofession elle
ĠSo fern
ĠSpann ung
ĠAn hÃ¤nger
m pf
ĠMar c
ĠFrei burg
ib ilitÃ¤t
.: .:
brit ann
geb Ã¤ude
ĠUrs ache
H E
Ġabwechs lungs
Ġentwick elte
Ġk lin
Ġgew ann
grÃ¼n den
ĠVerÃ¤nder ung
eint rÃ¤ch
ĠVorder grund
ĠBundes regierung
Ġn ein
ĠF eier
ĠT enn
Ġgro ss
ĠfrÃ¼her en
Ġd etaill
ĠL euten
wer bung
ĠYog a
ĠSo ft
ru st
t ritt
ens ion
ĠGew Ã¤hr
ĠSch le
Ġ4 9
ĠRechts anwalt
Ġf rage
Ġpartner suche
ĠGr ab
ĠLi ppen
men sion
Ġun gewÃ¶hn
ĠKrieg s
ahr t
ĠZ y
Ġdire kte
Ġ ï
ĠG re
verl auf
Ġverb indet
ĠWelt krieg
ĠT um
ĠKo hlen
Ġinstall iert
ĠGr amm
Ġfot ograf
ĠSchwe den
ot herapie
Ġn ette
ĠS auer
ĠM ix
gew inn
Ġbesch reibt
Ġr ie
bet rag
ĠD ame
ĠAk ku
Ġum s
kont akt
ĠNieder l
Ġgl Ã¤n
st isch
ĠKlei d
t hm
ahn sinn
it ation
ĠMo der
Ġ ap
ĠAus einander
schein lichkeit
ĠD unkel
vers ion
ĠP ir
ehm igung
ick te
ĠIns besondere
ĠgewÃ¼n schten
ĠEn gel
ĠVor stellungen
zw ungen
ĠDurch schnitt
ĠEntfern ung
Ġklein ere
ĠWer den
n ur
Ġbe ding
verl ust
b orn
ĠBr as
reich er
org ungs
iel ler
el be
ĠK ro
fÃ¶r m
Ã¤ gt
kon om
Ġs ign
ĠAl pen
Ġw odurch
k w
Ġt au
ĠSch icks
ĠHier bei
ĠP reisen
ĠRis iken
ĠBeg r
ast ur
o fen
ĠT Ã¤ter
ĠRelig ion
beh andlung
. Â»
ir l
Ġ199 0
g ing
ĠStern e
Ġro ten
ĠSu bst
or et
u gen
ĠAuft ritt
Ġfrag te
Ġaus ser
ar ischen
n es
ĠF rist
Ġzentr ale
ĠL ap
g rad
Ġw Ã¤chst
jÃ¤hr iger
ĠAn walt
ot ter
euch ten
ĠWissenschaft ler
Ġanges ehen
it ur
ĠP od
Ġbe ziehen
D aten
fen ster
ĠPh ase
Ġschn eiden
Ã¤m pft
ĠSp uren
Ġun zÃ¤hl
ĠG ame
z ell
ager ung
Ġun kompl
ĠMedikamen te
Ġverb oten
ĠÃ¼berr ascht
ĠwÃ¼n sche
ĠEr b
ĠM esser
Ġsp ont
ĠSehen swÃ¼rdig
Ġohn ehin
ĠNicht s
ĠKon sequ
b rauch
Ġe B
ĠD IN
rÃ¤ der
Ġger aten
Ġkont inuier
ĠD ampf
Ġge testet
ĠSing leb
ial en
Ġda vor
ĠergÃ¤n zt
ĠF iguren
ĠCh or
. âĢĿ
p um
Ġeffe ktiv
Ġschwer e
ĠstÃ¤r k
Ġmen schen
ie hlt
et tet
id a
ĠPoten z
h Ã¤ndler
anz eige
ĠM aus
ĠHand werk
vis ion
Ġver kauf
ĠâĢ º
schnit tlich
ĠSympt ome
ĠAllgem einen
? "
ĠÃ¼ber legen
ĠU lt
Ã¤ be
de st
ĠTrum p
ĠDaten bank
Ġs a
Ġeinzigar tige
ĠIS BN
Ġerst aun
ĠTrink wasser
wei ler
ĠStÃ¤r ke
ĠK ul
ur er
ien ce
ĠZ en
ĠC r
atur e
le der
voll er
ĠEvent s
Ġm e
b ay
i ÃŁ
F unktion
D A
och e
Ġgez ielt
em a
ĠOrganis ationen
ri a
geb iete
ĠBl Ã¼ten
ein s
ĠÃľb ungen
ĠUnter halt
ĠOber flÃ¤chen
ĠNachw uchs
ĠgeprÃ¼ ft
te x
ĠB arb
st eine
ĠVor schriften
ĠAut omat
ungsver fahren
ĠKompon enten
Ġamer ikanischen
Ġ18 0
ĠPort al
ĠKom mission
ĠL och
ĠDiabet es
Ġle ck
ĠEx istenz
ĠA M
ber ichte
il ian
Ġsch licht
ĠSch alt
ĠEr fÃ¼llung
Ġaus wÃ¤hlen
ver arbeitung
or fen
ĠBezir ks
ho se
ĠH it
ĠH au
sch Ã¶nen
ĠF ra
at in
art s
ĠB raut
reu e
ĠCom munity
Ġrecht zeitig
Ã¼r ger
Ġunter sch
Ġverl angt
1 01
so zial
ĠKinder garten
ĠD J
l Ã¤nge
ĠDial og
Ġbevor zu
ĠQuad rat
h au
Ġ4 6
in ten
ĠgewÃ¤hr leistet
st itu
âĢĿ .
f inanz
Ġi P
zus ehen
l Ã¤uf
ĠIn gen
itÃ¤t s
mitglie d
Ð »
m il
Ġt rat
ĠBetroffen en
ĠB ach
Ã¼ bung
ĠverstÃ¤r kt
ĠgelÃ¶ scht
Ġzuverl Ã¤ss
Ġkat hol
M ed
ĠDes igner
Ã¶ h
ĠGe fahren
is a
ĠtÃ¤ glichen
Ġv olle
ĠN ahrung
ĠÃĦ hn
Ã¤ÃŁ t
Ġf uhr
bed Ã¼rf
w n
ĠBundes liga
Ġbed arf
it sch
z end
ĠBes itzer
Ġh Ã¤ngen
schl Ã¼ssel
Ġkon kre
ĠV W
ĠRie sen
Ġsich ere
Ã¼r zen
up s
T C
br and
ĠSp ekt
g in
Ġeinge tragen
port al
ĠG B
ĠĠ ĠĠ
beweg ung
v i
etz e
klÃ¤r t
ĠC enter
ĠSp ur
Ã¶s ser
gen t
ĠAn na
Ġgesch ieht
k us
Ġsich eren
Ã¼ ge
ĠFl Ã¼ss
ĠBM W
ch ner
ĠEr stellung
ast ian
Ġerk annt
ĠL iga
Ġdiver sen
sch wer
ĠAus kunft
form at
ĠH itze
gesetz es
ĠB utter
n am
as ser
Ġreag ieren
ĠfranzÃ¶s ischen
ĠEntwick ler
ĠAbt eilung
Ġtradition ellen
ĠTh Ã¼r
ĠBes ser
ĠUrs achen
ĠBet reu
Ġbrau che
ĠPer formance
ĠL ook
âĢ¦ .
Ġh ieÃŁ
ĠLie d
ĠEl ement
ĠMon d
ĠMe tern
arch itektur
Ġm u
Ġver arbeiten
ĠgroÃŁ zÃ¼g
Ġmoment an
ad o
prÃ¤ sent
dien ste
ul Ã¤r
ein heit
h agen
ĠE ffekt
ĠR auch
Ġch ron
w es
ĠSti ft
ĠVeranst altungs
ĠRe publik
ĠUnter schiede
m Ã¤r
Ġunter sucht
Ġkosten frei
ob el
ĠApp l
kl ang
ĠEin willigung
Ġst at
Ġerk enn
w ende
ĠE vangel
Ġverurs acht
Ġsp iegel
sen dung
ĠFinanz ierung
n immt
Ġschle chter
Ã¤ cht
R o
te d
Ġsch lafen
hÃ¶r er
ĠAuf stieg
ĠT u
g au
stÃ¤r ke
f ried
ĠSam sung
Ġer werben
gesprÃ¤ ch
ĠS S
Ġwei sen
Ġkont aktieren
Ġbe werten
ĠðŁĺ ī
us ion
ĠCh amp
rie ch
ĠProblem en
ĠKart off
Ġgro sse
k ind
sp eicher
Ġschrift lich
Ġgelie fert
ad ies
S eite
ĠÃ¶ fter
ĠHand lungs
Ġersch ien
ĠPfer d
drÃ¼ck t
ab y
ĠT G
ĠBewer bung
ĠHÃ¶ch st
ag o
ĠPro gramme
k asse
ĠSt ory
ĠKu gel
qu ote
Ġent scheidet
sch i
Ġzwei mal
ip edia
ĠMitglie dern
ĠZur Ã¼ck
m s
Al s
ĠHoch zeits
g riffen
ĠFl ucht
Ġgesch ickt
ad d
out ube
n Ã¶
ĠUnter lagen
Ġfest stellen
ĠBundes land
ĠAuss agen
Ġsch einen
Ġl anger
ĠBeschwer den
Ã¶l l
ag ue
t her
ĠW alter
Ġger inger
ĠD Ã¤m
Ġnach voll
Ġge fertigt
Ġsp eichern
Ġmensch lichen
iz ei
I ON
Ġallgem eine
Ġ Ã¤lte
ĠR au
Ġhal te
Ġin telligen
ĠFe ed
ĠPrÃ¤sent ation
rin ge
u ver
et o
p Ã¤ck
r ik
ĠEntwick lungen
zut age
metho den
ĠAnt on
ĠM uss
Ġd ick
ĠSchwier igkeiten
ĠRe c
fÃ¼hr te
Ġber u
Ġbetr achten
leit ungen
Ġ are
ĠWeiter bildung
Ġp df
k Ã¤
eut zutage
ol i
bl au
Ġzu gÃ¤nglich
pp chen
den s
ĠGegen wart
Ġbe endet
lie ssen
f amilien
v ideos
ah e
c es
Ġb reite
Ġn ackte
Ġherunter laden
ord nen
Pro gramm
A A
ĠEnt spannung
Ġober en
ĠH em
Ġ4 1
ĠKÃ¶n nen
an spruch
Ġmass iv
ĠB R
Ġwer fen
ĠmÃ¤n ner
m es
ĠArbeit splatz
kle ber
ĠR ost
Ġgener ell
Ġs or
ĠB aut
Ġch em
ĠAt om
ĠÃ¤lter en
h i
b aus
om a
ĠKommun ikations
Ġirgendw el
qu elle
ie ben
ĠIde al
Ġbekom me
k as
ĠPro jekten
ĠGew inne
ĠWeb sites
Ġaus sieht
ĠTe ppich
ĠDi ff
Ġab ges
Ġgegeben en
ĠReg ierungs
ĠD SGVO
anz lei
Ġi l
ge laden
ĠTour isten
Ġan melden
lin ik
ĠJ azz
Ġrel igi
ĠMen Ã¼
b aut
ĠExt ra
Ġtats Ã¤ch
Ġzeich net
Ġf ix
ĠTabl et
Ġein stellen
Ġsch aut
ĠB einen
ĠAlt stadt
ĠIn tens
Ġgel assen
ĠGr unde
e get
Ġpassen d
ĠG reen
ĠSchok ol
re publik
ĠJe den
ĠGesprÃ¤ che
britann ien
ĠInvest ition
ĠOr ten
Ġgew innt
c ast
s werte
U p
Ġh undert
ĠDro gen
Ġver folgt
ĠAr z
schei d
Ġ; -)
Ġf ragt
ĠE M
Ġ org
Ġlo cker
Ġzu hause
ir men
ĠGrÃ¼n der
dr Ã¼cken
ĠH altung
auf gaben
m uster
al ition
Ġerk ennt
ĠKonz ern
ĠBesch luss
Ġbeeinfl ussen
ret ung
um fang
Ã¼l ern
Ġnorm alerweise
lÃ¤nd ischen
Ã¤n omen
ĠAu di
ĠStruktur en
] .
Ġnach t
ul ette
M us
H R
nehm ung
ĠFin ale
lo cken
Ġtoll es
ĠSl ots
ĠInnov ation
wei lig
Ġ- >
Ġan ger
Ġzu stÃ¤ndig
C O
An geb
ĠC afÃ©
Ġlie ÃŁen
ĠBew usstsein
Ġs onn
ĠFr anzÃ¶s
tisch er
Ġgesch ehen
ĠSte ck
Ġkurz em
ĠLehr e
Ġth at
w enn
r Ã¼cken
Ġnach zu
ho ff
ĠFa vor
ein richtungen
Ġer zeugt
Ġ6 4
Ġhistor ische
Ġnorm ale
cri pt
Ġunter b
Ġbeh err
bran che
Ġsing les
ĠVor feld
mann schaft
ĠErwart ungen
ĠPhil ipp
ro hr
sen z
ĠEin bau
ĠÃ¼ber wiegend
ĠSp azier
krÃ¤ f
ĠRech ner
ĠO hren
r ische
ĠB d
Ġzu folge
ĠBet on
rei en
ĠInnen stadt
r or
Ġwar tet
aus bildung
Ġfor dern
ĠWerk statt
ĠA kt
ĠM B
ĠVerfÃ¼ g
b ein
Ġle er
ĠEreig nisse
ĠKonfl ikt
Ġauspro bieren
u z
ol en
sta aten
sam keit
Ġer zeugen
ĠSpr achen
nungs zeiten
m ess
ĠPh ys
al tete
Ã¤um t
ĠSold aten
ĠVerb rauch
Ġlieb sten
zahl ungen
ĠB rau
bet reiber
hy thm
w Ã¶rter
ĠBas el
Ġposit iven
Ġgenau e
p ool
ĠB a
T ube
ĠR Ã¤
ĠUrlaub s
er ische
Ġpro du
ĠDrit tel
ã Ģ
ĠRe volution
ord net
bÃ¼r o
ĠT ax
ĠSchmid t
ĠPl ug
mus eum
Ġum welt
Ġwissenschaft lichen
Ġn Ã¶r
ter e
Ġteil s
ct or
zu stand
ĠE N
ĠR eh
ĠHo hen
ĠZun Ã¤chst
ĠG Ã¼n
ĠSchl es
pfl anzen
ĠJose f
k olle
ĠZ wie
Ġd ynam
ĠF Ã¼nf
f utter
ĠB am
en e
Ġf liegen
Ġber uh
ĠKl ick
sch icht
Ġde aktiv
Ġst et
Ġr ichten
ild et
ĠBuch st
ĠV in
reich es
ĠSitz ung
Ġgesch m
ĠN ic
ĠEinkauf s
ist ent
Ġgetr ennt
ĠM ech
Ġkon sequ
uch st
ĠKe y
Ġstrate g
ĠHer stell
ur o
ĠKon zer
Ġoffiz iellen
Ġeig nen
g u
ot oren
Ġabend s
gem Ã¤
Ġbe ziehungs
ĠStre cken
Ã¼n de
ĠhÃ¶ch st
land schaft
" )
ĠSehenswÃ¼rdig keiten
ĠTex til
Ġverwende ten
ĠBran denburg
Ġbeit ragen
ĠRegion al
sp aren
Ġangeb lich
Ġerf asst
ĠDach beschichtung
kÃ¶ mm
Ġoffiz iell
st i
ĠFrei en
Ġempf iehlt
ro man
Ġre duzieren
Ã¤tig keiten
Ġk Ã¼nst
S chn
Ġ( "
i or
w elle
ir ts
ĠGeb Ã¼hren
ĠGesetz es
ĠPhil osophie
Ã¶ gel
Ġf Ã¼n
et tel
ĠSeb astian
ĠNeu en
Ġweit gehend
io de
ĠMo unt
Ġv is
Ġschlaf zimmer
Ġam b
p le
b ungs
fÃ¼l len
sph ase
ĠLein wand
ĠEigent Ã¼mer
Ġeiner seits
usch el
Ġdisku tiert
ĠD einen
Ġmit ge
all o
Ġent tÃ¤u
Ġperfe kten
ĠFrÃ¼hl ing
Ġh armon
ĠSp ir
C o
Ġh um
f els
kti ver
ĠVor lage
ran ten
Ġy our
Ġbeliebte sten
ĠChrist oph
lie ss
pp ing
gar n
Ã¤ nen
j et
ob b
ĠKn ie
ank ing
er ung
em ann
ĠA ro
ĠOn lines
Ġgest artet
al i
s u
ĠSystem s
ĠDie sen
Ġlok alen
ĠAnf Ã¤nger
re ktur
Ã¶ ger
Ġw h
Ġbef est
gen au
ĠGr an
ĠÃ¤hn liche
Ġn en
z ert
Ã¼n der
gesch nitten
ĠTab elle
ĠergÃ¤n zen
ron omie
ĠKrank heiten
ĠAngeb oten
ĠWirklich keit
k Ã¼r
ĠM ieter
ĠHel fer
Ġf ehl
ĠEr werb
F A
U T
W E
Ġp fl
Ġglau bt
Ġ; )
ar be
Ġdok umen
Ġdauer haft
Ġwei ÃŁe
ĠC lau
Ã¼t ze
fÃ¼l l
rieden heit
ur a
rit ts
ĠP um
ĠMan che
ĠPat ient
stehen de
ĠBe zeichnung
ĠKre bs
ĠAb schnitt
ĠE R
tif iziert
S A
ĠS Ã¼ÃŁ
es h
ĠmÃ¼s sten
ĠzurÃ¼ck ge
h Ã¤ngen
M A
ĠS yr
Ġn ahmen
ack er
ktiv itÃ¤t
ĠHei del
om et
Ġ5 2
Ġerheb lich
ĠVer wand
Ġan fangen
ĠSon st
ĠW ag
ĠFar bt
ĠÃ¼b lichen
Ġ ass
ĠGew inner
zuf Ã¼gen
ĠSt ation
Ġs ach
Ġ8 5
ak a
urt eilen
ĠM ama
ier s
ĠOr ien
ohn e
ĠLie der
v ort
Ġempf angen
ĠStu hl
b reite
ss el
Ġwirtschaft lichen
Ġgaran tieren
ĠF liesen
Ġdurch fÃ¼hren
ĠhÃ¤uf iger
druck s
ĠstÃ¤r ken
ĠErkrank ungen
st ande
ur teilt
ord s
ĠKn ochen
Ġg olden
ĠTro cken
Ġgew ohnt
Ġk enn
besch reibung
Ġex pl
!! !!
r Ã¤t
d ates
ĠÂ Ħ
ber eiten
geb lich
ĠPro p
ĠAus gleich
Ġgro ssen
Ã¼nst ig
Ġbeein drucken
ĠbestÃ¤ tigen
ĠSt abilitÃ¤t
Ġvorhanden en
recht lichen
ĠNord rhein
ĠStat us
st ant
deut schen
ber uf
ĠDigit alisierung
ĠSch ild
ĠTre ppen
ĠSchau spieler
gesch windigkeit
Ġfol gte
le ch
ĠÃ¶ff net
Ġmorgen s
Ã¼t ten
g Ã¤ng
ĠStÃ¼ck e
z o
ĠFl ach
ĠGriechen land
ĠD ingen
ĠGro up
Ġprakti schen
ĠEn gl
sch eine
Ġst elle
Ġvor an
Ġbel egt
st ock
zu cker
Ġbesch reiben
ĠKrÃ¤ fte
ĠW erner
ĠI l
Ġvers uchte
k ammer
zen sion
teil te
ĠAutob ahn
ĠHei ÃŁe
Ġ9 5
wor fen
ĠT iefe
Ġ9 9
cen ter
pro zess
Ġstatt f
gn Ã¼gen
al b
Ġall zu
Ġfe sten
F re
ĠG R
ĠPl atten
ĠVit amin
ĠF euchtigkeit
ĠLab or
ĠlÃ¶ schen
ir d
Ġausges prochen
z Ã¼ndung
eh end
ĠUntersuch ungen
ĠHand t
Ġbe zieht
ĠFÃ¼hr er
ĠEt was
Ġan meldung
Ġb reiten
ĠSchu ppen
ĠDurch messer
ĠÃĸ k
ĠRhein land
Z u
ĠV orm
Ġeinge hen
ĠM ei
Ġvor sichtig
ĠK iel
ĠDie sel
ĠKr imin
ativ es
ĠJed och
Ġf und
w al
u ÃŁer
ĠVeranst alter
Ġniedr iger
ĠF azit
Ġp op
Ġwichtig ste
Ġt raf
Ã¶s ungs
ĠSt reifen
for um
G eb
ĠF Ã¼ÃŁe
Ġf antast
ĠSupp ort
sei tige
ĠDe fin
Ġb il
voll es
ĠAnder s
ĠA kte
ĠSt ufe
Ã¼cksichtig ung
pro f
Ã¤nd ige
Ð º
ĠPro be
ĠR Ã¼
Ġauf gel
ĠN oten
h od
or al
r el
Ġ che
reib ungen
Ġo ut
ĠUn abhÃ¤ng
Ġdre hen
ĠS us
schn eiden
Ġsw inger
. /
ĠB GB
ĠJ ava
me ch
ĠL aser
Ġver lin
Ġd iff
re ckt
stre cke
fol io
ĠAl p
ĠLes b
ĠL aufen
Ġb ad
ĠEx empl
Ġbet reiben
ĠTenn is
il a
Ġlie bt
Ġverb reitet
fer ien
on te
ĠAb sol
Ġas iat
Ġun mÃ¶glich
ĠS aar
ĠSch Ã¼tzen
ĠG Ã¶tt
ien e
ĠBÃ¼ ch
ĠIm pul
al itÃ¤ten
Mit glie
as mus
v ern
w el
ĠJahrzehn ten
ĠKÃ¼hl schrank
ĠNieders achsen
ief ert
ĠM Ã¶ch
ĠRegistr ierung
ĠA N
il s
Ġ4 7
Ġbeziehungs weise
ĠTechn ologien
ĠRe cher
ĠWÃ¼r de
Ġzuverl Ã¤ssig
200 8
ĠBaumw olle
e ber
flÃ¼ ge
P o
ĠProduktion s
w unsch
Ġte en
ĠBi bel
Ġm ieten
ti tel
om b
St art
Ġ q
ĠB art
ĠSteu ern
Ġschein bar
ĠLog o
I K
ĠNa gel
Ġausge st
R ei
ĠWo hnen
m acher
Ġver folgen
Ġfr ischen
? !
ath ie
ĠPaar e
wei ch
ĠWahr scheinlichkeit
arr y
h ten
ĠSta ffel
men ge
Ġbeg eistern
Pro jekt
ĠS eg
ĠTri cks
ĠD einer
ĠB rit
Ã¶ff entlichen
Ġum so
/ -
wer ber
per ten
ĠlÃ¤nger e
ĠLiebl ing
ĠBr Ã¼cke
ĠKlass iker
ĠP iz
un dern
P ort
in fo
stag ram
ĠChrist us
Ġleich ten
ĠAn wendungs
arbeit ungs
woch e
Ġan sprechen
Ã¼ ht
ĠCl ass
Ã¼nd igen
ah ne
Ġbas iert
ĠV Ã¶lker
ĠZeit schrift
ing u
ĠBer ater
Ġk W
Ġnachhal tig
Ġer setzen
schl uÃŁ
U r
ur teilung
ĠN ahrungs
Ġeh e
ar ma
Ġr etten
Ã¶ ss
Ġein richten
Ar t
ĠT eig
end orf
Ġun verb
ĠKno w
Ġsol ch
ĠT eu
ĠAn erkennung
l ein
Ġfest e
Ġ199 7
be auftrag
ĠBer Ã¼cksichtigung
ĀĀĀĀĀĀĀĀ ĀĀĀĀĀĀĀĀ
ikan er
Ġgef Ã¶rdert
gem acht
Ã¤u le
Ġd an
Ġa c
ol fen
ĠL aun
Ġverl iert
ĠEner gien
gesetz ten
Ã¼ ste
ĠModern e
ĠN az
ĠÃ¼ brig
ant rag
h st
be stimm
ĠErweiter ung
Vers ion
ie ber
Ã¶ch er
ĠprÃ¤ z
and t
ge len
ĠLu c
ĠH ung
ĠT rage
kra ine
mÃ¶glich keit
am burg
Ber eich
ĠFÃ¤h igkeit
ĠW Ã¶rter
o e
y si
ist et
Ġschl Ã¤gt
ĠB Ã¼nd
peten zen
ĠwunderschÃ¶n e
aus stattung
ĠH i
V ert
Ġ199 6
Ġger ech
ĠReg isse
ĠWorkshop s
ĠMerc edes
ĠVor gaben
Ġange legt
ĠAn wesen
ĠDok umente
Ġinnov ative
Ġlaufen den
Ġehren amt
ĠÃľber setzung
hn acht
ĠR E
iz ont
Ġwunder schÃ¶nen
ein richtung
ingt on
ind ungs
m ern
Ġ ende
ĠDar auf
Ġsonst ige
mit tler
mach ung
ist an
ĠMen gen
Ser ie
ag ern
ĠVer st
schlag wortet
ph ase
ĠgÃ¼nst ige
ĠVerl etzung
ĠMatth ias
ĠB an
Ġanges ichts
Ġjen er
ĠRegel ung
ĠBot schaft
kl assen
inst rum
auf bau
ĠLog istik
Ġste cken
ĠMotiv ation
ĠF akten
ver ordnung
Ġges unde
h Ã¤usern
ĠT ore
atur es
Ġbegr Ã¼ÃŁ
P C
ĠW Ã¤
ĠMod ul
bach er
Ġrei sen
Ġausge fÃ¼hrt
ro s
Ġbet ont
ix el
ĠVer eine
Ġvers orgt
ĠChe ck
Ġf ehler
auf e
ĠKon struktion
g Ã¤
ĠA pfel
Ġan geschlossen
A V
ĠEnt steh
ĠM ul
ier bar
re st
T ra
Ġinvest ieren
ĠLes ben
ĠS G
ĠHin sicht
Ġre chte
ĠKo ordin
ĠKÃ¶nig s
ierte m
ĠNot wend
est ern
Ã¼n det
In st
Ġattra ktiv
ĠV illa
ind liche
Ġj ugend
ĠAf D
ĠHeil igen
ar z
ĠSchei ben
200 9
ĠK as
ĠBe kl
b anken
m g
ĠProf ession
ĠE leg
fl Ã¼ss
d ir
ĠAb wehr
i ze
ĠD Ã¶r
Ġr u
ĠRe zepte
ĠInstrum ent
wei len
ger s
ĠP fe
ard inen
ux e
ĠForm ul
Ġverein bar
ĠMeer es
ĠB och
Ã¤ng nis
Ġsch lieÃŁt
ĠBezir k
West falen
ĠUnter haltung
w in
Ġtechn isch
Ã¤nd igen
att formen
Ġber Ã¼ck
r sg
Ġh aut
ĠGer Ã¤ten
Ġerwei tern
Ġlie fer
ĠErfahr ungs
fur ter
ĠfÃ¼hr enden
Ġor igin
Ġange fangen
Ġst ill
Ġro te
b it
ĠS in
ĠB ul
gr enze
Ġsch Ã¤tzen
sp rÃ¤
ĠSalz burg
Ġn am
Ġtelefon isch
Ġverein bart
w achsen
Ġbesonder er
ĠGroÃŁ britannien
m Ã¤ch
ĠP au
ĠL ind
enn er
ĠSp eisen
ĠOtt o
G ro
ist ischer
Z eit
ĠStud ierenden
geb Ã¼hr
Ã¼t tel
K reis
ĠK enntnisse
ĠA D
ĠZ weit
ler s
ĠM auer
ĠFor derungen
ĠSt urm
Ġjeweil ige
ĠD os
hÃ¶ rige
ĠSpiel s
legen heit
ĠBet r
ti en
ĠD ing
anz ig
ĠG Ã¶t
ĠAut omaten
T L
ĠKarls ruhe
ĠIdent itÃ¤t
ĠDom ain
ut ung
ĠP ick
teil s
Ġz iel
ĠL G
ĠAutom obil
ymnas ium
Ġentsp annt
Ġanges prochen
ĠM Ã¤d
ay s
Ġein heit
+ +
oll t
ĠRei ÃŁ
liefer ung
ĠZÃ¤ hne
j o
Ġerfolg te
Ġser i
ĠOper ation
ĠM achen
is ser
Ġzu stÃ¤ndigen
fahr ungen
ĠOpti k
Ġc an
ĠK ok
ra tet
ge kommen
ĠA hnung
fin ale
ver d
Ġhinter lassen
Ġberuf lichen
ĠSign al
bl ock
ĠAd min
ir ten
ĠLap top
d lichen
ĠC olle
her steller
ĠGro ÃŁer
b ungen
ĠF onds
ĠDipl om
m ungs
ĠF lo
ĠA achen
Ġg riech
ĠB Ã¤ume
Ġtran spor
Ġsp Ã¼r
T A
t al
bie tern
ĠWider spruch
H L
Ġver schl
Ġsch merz
ĠNachhal tigkeit
ĠHam mer
ĠAnt rieb
u ste
ĠAuf nahmen
ĠEben falls
ĠM athem
ĠNe ur
ĠNachbar n
ĠBud get
Ġauf re
ĠHard ware
ĠSend ung
et tern
Ã¶ sterreich
Ġverschieden sten
H ol
te sten
Ġ1 10
b al
ĠAus gaben
Ġer weiter
ĠBehand lungs
if est
âĢ¦ )
Ġflex ibel
Ã¤mpf e
Ã¤ len
Ġgesamm elt
ĠK ath
Ġlang fristig
ĠBer ichte
ĠU V
la de
M ark
.. ...
pp el
Ġer mittelt
ph an
k Ã¶n
oir es
ĠM S
ĠM un
Ġgef eiert
S e
Ġeurop Ã¤ische
ĠEin mal
ĠMin eral
ĠTelefonn ummer
ĠâĢ ĺ
l Ã¤ndern
Ġbe arbeiten
ĠArbeit spl
euch te
Ġerz ielt
ĠgefÃ¤hr lich
wir kt
ĠQu art
zeich neten
ĠDesign s
ĠAug sburg
meld ungen
ĠgrÃ¼ nen
ĠMittler weile
ĠL iv
ĠRat haus
ĠEmpfeh lungen
Ġbe zogen
ĠTo il
ĠAnw ender
d icht
p rechen
Ġso g
gn or
ab len
ĠPro vin
Ġander erseits
n utzung
ĠGe werk
Ġr ufen
Ġinner en
lo gen
ĠBo gen
grÃ¼n de
geord neten
Ġwahr en
ĠPerspe ktive
ĠR al
ĠKla vier
ĠangekÃ¼ndig t
ĠArz nei
met ik
ĠPsych ologie
Ġaufge fÃ¼hrt
ĠM ord
ĠSie d
ĠSter nen
Ġl ern
Ġsp Ã¼ren
ĠKr ise
Ġspezial isiert
Ber lin
ĠJ ak
N etz
Ġf in
ĠAc tion
ĠEr Ã¶ffnung
t a
stand s
fre unde
ab teilung
Ġ5 6
ĠVoll zeit
ind lichen
Ġst eigern
anz t
ĠBel euchtung
p lex
Ġfr ische
P U
bet reuung
ĠD ynam
zie her
teil ungen
ĠTour en
ĠYou Tube
Ġo ption
vier tel
st art
bring ung
W eb
Ġbe ge
Gr und
Ġgeb unden
T R
Ġs m
ĠDokument ation
Ã¼ hlen
ĠMan gel
Ġin fo
ĠM Ã¶n
ĠBl Ã¤tter
ein heiten
Ġberech net
Ġev tl
S E
d om
Ġn ationalen
ĠT ieren
g leichen
w eb
g s
ĠHoch schul
Ġerforder t
L i
ĠL eucht
ĠEr halt
Ġabge geben
et ik
ĠPlast ik
us sten
ĠM ex
Ġausgew Ã¤hlt
ĠW ach
ĠUhr en
an leitung
Ã¶n t
Ġzu gelassen
Ġs ech
ĠKl einen
un s
ĠKon text
beu tel
ĠOb jekte
b Ã¶
Ġkon stru
Ġhal be
Ġsch mal
Ġbei ge
Ġgeh Ã¶r
ĠBer ge
Ġkonkre te
ĠT rag
ste ck
Ġeinge fÃ¼hrt
Ġr asch
Ġdurch ge
ĠSor ge
k reten
ĠF ak
Ġi kea
ĠT ube
ĠAn nahme
ut her
Ġho hem
t ra
em enten
St raÃŁe
gef unden
ĠIn halten
Ġ14 0
Ġbestehen de
ĠR as
ĠKreativ itÃ¤t
ĠSo weit
p ost
ord nungs
zeit ung
deut schland
lie be
per rt
reg ungen
ĠNamen s
ĠWol ken
ĠBr on
dat um
ĠKÃ¤ se
b io
ĠM ahl
ĠD ritten
ter min
Ġgepl anten
ĠkÃ¼r zlich
ĠNav ig
v ideo
ĠF ell
ĠKon ferenz
ĠChr isten
in kt
p Ã¤dagog
ĠH eiÃŁ
schie ben
ĠMain z
ĠBetrieb ssystem
il i
G o
ĠD ol
Ġd icke
ĠSa al
co in
ake te
Ġgemein t
stra te
low job
ĠNach folger
Ġbe wertet
le hnt
Ġzentr alen
p ut
ĠL etz
Ġdeutsch sprach
ĠEnt wurf
N ew
s al
ĠH ub
In ter
ĠWÃ¼n schen
Ã¼n kt
ĠRu hr
m ein
w itz
Ġdre ht
Ġrein igen
Ġfest gelegt
so fern
Ġkorre kt
Ġs age
l isten
ĠW ord
ĠSch Ã¼lern
ĠNeu bau
Ġinstall ieren
Ġo ff
Ã¤dig ung
ĠPoten zial
ĠEr zÃ¤hl
ĠberÃ¼ck sichtigen
Ġ5 4
ĠHer mann
Ġerr ichtet
Ã¤ le
p uter
Sp ort
ĠGeheim nis
g riff
Ã¶r g
me er
lehr er
Ġp ort
Ġst Ã¤d
Ġst ehe
Ġlie st
Ġs au
ĠFreund schaft
Ġeinzigar tigen
ĠAfr ika
Ġz auber
kret Ã¤r
her m
ĠW Ã¤hlen
ĠM inder
z Ã¼nd
Ġbe z
ĠEmpf ang
Ġaus s
Ġgek enn
;;;;;;;; ;;;;;;;;
leb nisse
ĠGal ax
Ġfinanz ielle
ĠDe cken
om an
eil er
ĠAb sch
ĠBis her
a is
Ġf oto
l ist
Ġg Ã¤ng
ĠZ e
Ġauf einander
um e
ĠInd ien
geg nung
lie gende
Ġprofession ellen
ĠVorstand s
ĠC ur
Ġw echsel
ed ig
Ġher kÃ¶mm
schu h
ĠBeteil igung
ĠHin blick
ĠHo se
ik i
eig ung
ĠKo alition
amer ika
wer ker
ĠMehr wert
ĠG ab
gÃ¤n gen
ĠPay Pal
ĠRu cks
Ġm g
Ġauf ger
ĠT it
Ġdah inter
un sten
Ġreag iert
Ġaktiv e
und et
ĠSmartph ones
Â ĵ
Ġk op
ah me
san ierung
Ġ Ã¤ndert
Ġaus gesch
fahr zeug
ĠGeh Ã¤use
ĠIn telligen
ri x
ĠBeg leitung
ĠS CH
Ġdr Ã¼cken
Un iversitÃ¤t
ic en
Ġwahr e
lin der
B r
Ġs c
Ġumfassen de
ĠPen is
ĠH allen
ĠMÃ¼ he
pf ung
ĠK und
ĠSch i
Ġm ore
S a
Ġlang frist
kehr en
ĠSt d
ĠWand el
ĠKant on
Ġun angen
ite d
Ġan passen
k rit
Al le
ter nen
ĠIm press
Ġf ile
ĠMann schaften
ir ma
Ġver sp
ĠHier zu
ĠMax im
ĠGesch Ã¤fte
ĠÃľ bung
ĠKur se
ail s
ge halt
ĠVen en
ĠAugen blick
ett o
ĠA S
ĠK offer
ĠErd be
b Ã¶rse
201 9
az itÃ¤t
Ġgen annte
ĠS ne
Ġb loÃŁ
O b
ĠProf i
ap ter
och t
ĠâĨ ĳ
ĠS y
ĠAk ademie
m utter
klei der
ĠErinner ungen
^ ^
Ġg Ã¼l
ĠBrÃ¼ ste
v enz
ĠSk y
ol and
en kt
Ġv an
Ġâ ľ
ĠHÃ¶he punkt
Ġl Ã¤ÃŁt
schei ben
ĠL eich
Ġerreich te
Ġseiten s
ĠBo ots
ĠRes pekt
Ġbe fÃ¼r
ĠEin es
ĠSum me
Ġnamen s
T ag
er o
Ġaus sch
ĠGir ls
Ġren omm
ĠSchles wig
Ġkon kreten
Ġil leg
ĠBÃ¼ hnen
Ġl asse
ĠDeut scher
ĠgewÃ¼n schte
ĠVer ordnung
Ġdar stellt
ent licher
ĠAtt ra
Ġaktiv en
Ġfal sche
schaff ung
ĠNatur schutz
b len
S u
Ġdem okrat
1 10
' ,
ĠVor schlag
bahn hof
ĠgemÃ¼t lich
Ġdur ften
Ġorganis ieren
ĠOnlines hop
ĠRe form
ĠVor haben
ail le
ĠAustr alien
Ġst immen
im me
Ġf Ã¼llen
a ffe
ĠSk la
ĠJahres zeit
ĠCH F
ĠRed aktion
Ġdurchschnitt liche
Ġd ownload
Ġw ild
ICH T
Ġhal ben
ĠVerkauf s
ĠTran spar
Ġver Ã¶ffentlichen
ĠBundes republik
ymp ath
ĠBi bliothek
li ver
Ġk ar
zus agen
ĠExt rem
ĠSch atz
ĠPr im
ein igt
um b
gefÃ¼ gt
ĠDes wegen
ĠHand lung
, ...
Ġf it
schnit te
ĠSp ark
ĠVor jahr
ĠAn leger
ĠHo st
ĠV f
Ġgesch nitten
Ġsol ches
ĠRechn ungs
w etter
ĠPl Ã¤ne
p rakti
ĠE th
la ppen
ĠgroÃŁ em
B est
ĠFrei e
ĠspÃ¤ter en
Ġbed ienen
ĠkÃ¼r z
Ġletzt es
verstÃ¤nd nis
wander ung
ĠAbend essen
3 00
spf licht
ĠDrit ter
f ehler
k au
ĠK aufen
un i
Ġverl Ã¤nger
Ġ arbeits
ĠK ammer
ĠK assen
ĠzurÃ¼ck zu
ĠBeteil igten
Ġzerst Ã¶rt
st eht
Ã¤ ud
ri sten
ĠT herap
ĠIn zwischen
Ġum gehen
ĠSch ub
Ã¤r zt
ĠPartner schaft
Ġ Ã¶rt
ver standen
ir ur
Ġf Ã¶rdert
d pa
ber eichen
ĠJe ans
P reis
ĠErkrank ung
st edt
id ar
ĠKon s
Ġk ir
ar io
Ġwissenschaft liche
ĠAmer ika
g ig
ĠH Ã¶l
ent sprechend
in gend
Ġangeb racht
ĠN ation
Ġzusammen gestellt
str asse
ĠÃ¼ber geben
Ã¼ ben
Ġan gesch
v it
Ġtran s
ĠN at
ĠF ax
ĠRegel ungen
ĠK oll
Ġp ubl
Ġvor ab
ste ten
Ġgr Ã¼nd
ĠK rist
M en
Ġge werb
ha ar
person en
ĠKÃ¼ndig ung
eigen t
ĠSo wohl
ĠVerd acht
ĠO m
am ik
Ġv ierten
sb aden
ĠAktu ell
IN E
Ġzur echt
ĠL oc
Ġbesch rÃ¤nkt
ĠSchn eider
ĠÃľberrasch ung
Ġeinz eln
ĠTest s
ag ert
tember auben
ĠT rÃ¤
L in
wei g
land es
ĠX X
Ġpf legen
Des ign
Ġb ett
B undes
ĠEurop Ã¤ische
ĠF ritz
Ġausge hen
Ġ5 1
weis ungen
ĠBeg leiter
ĠTeil nehmern
ĠR asen
f reude
ĠRich ard
ĠF eiert
ĠÃľber nahme
ĠInstitu tionen
ic es
ĠAutor in
m ont
Ġaut hen
Ġan fang
ĠJournal isten
auf wand
ha fter
ĠKÃ¶r pers
ĠSt aub
ĠSol che
ĠPrÃ¤ sidenten
ĠRÃ¼ck kehr
ĠSch ein
zei tige
Ġkonzentr ieren
ĠEr mitt
ĠTrend s
ĠN Ã¤hr
Ġumfang reiche
ĠChem ie
ĠK ennen
pl emen
ĠPan or
n ische
Ġbemer ken
au ten
ver antwort
ĠLe on
ĠJob s
m esse
Ġkl asse
ĠStre et
e der
atur en
Ġgute m
ĠBatter ie
ĠVorsitzen de
kon ferenz
b und
ĠVersand kosten
Ġun nÃ¶
ĠSelbst verstÃ¤ndlich
ĠSteuer ung
b ahnen
Ġst re
schei be
Ġum zu
mun ikation
Ġ1 30
ges ellschaften
ĠBeg eister
ĠTick ets
ĠN u
kur se
Ġwes entlichen
k abel
Ġd icht
Ã¼r tel
ĠKont roll
Ġbelieb ten
Ġries ige
Ġ199 5
Ġ199 4
war tet
legen heiten
ĠErk enntnisse
ĠJ ens
ver treter
f ass
Ġ tier
ĠA C
g ess
Ã¤n glich
D I
Pro f
ĠZ o
rin t
ĠPfe ffer
ĠGr Ã¼ÃŁe
Ġunver zÃ¼glich
ĠAuf sichts
aff ung
t liche
ĠAus blick
Ġger e
ĠSa una
Ġsonst igen
akter ien
ĠMiss ion
ĠSchicks al
ĠAbm agerung
ri pt
sk osten
Ġsch Ã¼tzt
ĠD A
Ġger ingen
Ġmobil en
ĠIn stagram
n ame
T est
le f
ĠSo fort
ĠEr folge
Ġwar men
ĠÃĸff nungszeiten
Ġdamal igen
ĠTo pf
B B
Ġs elt
ehr te
ĠÃ¶sterreich ischen
S te
z ungen
Ġdefin iert
G em
Ġab gel
Ġwirtschaft liche
z iele
ĠR eit
C hr
r ischen
ĠVer w
Ġjung er
os m
Ġabgest immt
M et
Ġpersonenbezogen er
ĠAllgem eine
Ġinner e
âĢ ĭ
ent in
ĠPosition en
ĠEr sch
im i
ĠIn t
Ġheu tige
Ġ euer
ĠBelast ung
ĠO P
Ġr eine
bl Ã¤tter
Ġpro duzieren
Ġb achelorarbeit
ĠDiagno se
n i
ĠSch al
ĠEurop e
ĠDom in
Ġl it
Ġf ac
Ġgrund legen
ĠLad y
Ġle gend
ĠPrÃ¼f ungs
ĠS ant
ash ion
Ġniedr ig
ĠW ehr
Ġm ech
ĠA P
re den
Ġbegr enzt
ĠMÃ¼l l
ĠNerv en
Ġex per
Ġfinanz iellen
ĠerlÃ¤u tert
ĠH ex
ĠMann heim
ĠD M
ĠGegen stand
Ġange ht
ĠLe vel
st ufen
ĠSt or
ig h
l assung
Ġb ot
ger Ã¤ten
iel d
ate d
ĠStadt teil
Ġkon kret
ĠAn regungen
Ġschme ckt
Ġgegen seitig
ĠFor st
Ġp ur
ĠWei s
es p
ĠB om
ĠHal te
r asse
Ġg alt
re al
sprÃ¼ chen
ĠAus sehen
ĠCon tent
ĠAmb iente
ĠGer Ã¤u
ĠR Ã¤um
ĠTr ennung
Ġan statt
f as
an y
Ġopti sch
Ġber ichtete
ĠIs land
ĠSpiel zeug
schein end
ĠSchul den
ĠÃ¼b lich
tic s
ĠW ann
r imin
rei bst
ĠV eg
Ġklein eren
Ġsch aff
ĠBesuch ern
Ġs amt
Ġt reiben
spro chen
upp ert
euer ung
ĠkÃ¼ mmer
Ġvert raut
ĠB ass
ĠWar te
ĠÃĦ gyp
Ġdisku tieren
ĠM u
ĠT ot
Ġsch arf
fot os
O G
ĠberÃ¼hm ten
Ġ5 3
ĠIm mun
ĠMount ain
ach im
Ã¤mpf ung
Ġjahr el
b em
ĠsorgfÃ¤l tig
ol oge
alte ten
Ġbeob achtet
Ġ7 00
ĠEmpf Ã¤nger
Ġbet reut
ĠGroÃŁ teil
Che f
Ġries igen
Ġwor auf
ĠU kraine
ĠZuf all
Ġqualit ativ
ĠMÃ¤n gel
Ġsch ar
ĠCo uch
ĠFrei will
Unser e
Ġro b
Ġschle chten
l Ã¶sungen
H e
M in
Ġh y
rie ster
ffiz ient
inder ten
P art
sk om
ĠGer ichte
St adt
ĠR unden
Ġabsol ute
K inder
ul Ã¤ren
Ġbes ei
ann y
ĠM em
mo de
ĠGener ationen
V P
ĠAn kunft
ĠMÃ¼n chner
amm ern
ĠFerien wohnung
Ġh eutzutage
ĠT oten
Ġinteress anten
Ġzeig ten
Ġlust ig
A c
bet eil
Ġaufge stellt
ĠTre ffer
verband es
p unkten
rag ten
F F
all y
ĠVor gÃ¤nger
Ġerforder lichen
ĠEreig nis
z ungs
p assung
Ġes s
k rie
Ã¤cht nis
ĠGi pfel
Ġum geben
Ġschw anger
ĠSch rank
ĠGr and
du le
alt h
c ol
Ġeleg ant
ĠHand buch
ĠÃ¼berprÃ¼ ft
Ġerk unden
... )
ĠMag azin
beit rag
br em
ĠFr isch
laub nis
ĠRein igungs
ĠFeed back
Ã¤nger ung
ĠM au
ĠGer Ã¼
htt p
o be
ti ven
it as
ĠK alk
ust r
ĠGro ss
S eit
Ġgesetz liche
ĠBeschÃ¤f tigung
g g
steuer ung
ĠKind heit
n ummern
Ġl ux
Ġg old
ĠZ ell
Ġgepf legt
geb Ã¼hren
Ġpro gramm
ĠForm el
emin ar
ĠTerr assen
ĠHon ig
f arb
ĠArme e
ĠGes ichts
.) :
ĠMittel alter
ĠNov oline
J a
em ark
ĠMittel n
G ruppe
M on
ĠBe ach
ĠDi am
st ritten
Ġbeant wortet
Ġgeh ei
ĠDe ko
ĠVis ion
ĠDein em
Ġdies jÃ¤hrigen
ktion s
qu ellen
l ar
ĠEx pl
re chn
Ġvers uche
ĠW inkel
ĠT au
ber gen
Ġzeich nen
ĠtÃ¤ gliche
sert ation
Ġd at
Ġbe zeichnen
Ã¶ ck
Ġs Ã¼ÃŁ
ĠC all
âĢ¢ âĢ¢
son st
Ġpolit isch
ĠWor k
s ache
ĠK f
Ã¼t ung
wÃ¼r fe
Ġgew al
Ã¤dig t
bild et
b an
h ers
Ġh ilfe
Ġsp ekt
ĠFlug zeug
Ġb aut
ĠVorsitzen der
ĠZ elt
ge stellten
ĠSt offe
ĠGen ehmigung
à ¸
ĠH as
her z
Ġkon zip
ĠDe cke
ĠUm zug
ĠAn im
D i
u i
ĠB ischof
g ast
ĠRo y
Ġbekom mst
Ġwert volle
H S
ĠArchite kten
Ġ16 0
ĠC op
Ġd oppelt
ĠBern d
zens ionen
Ġ ....
aus gabe
ĠBegr Ã¼ndung
ĠVers ionen
Ġhervorragen de
ĠAr n
ĠErfolg s
Ñ ĥ
el a
Ġver spricht
ĠnÃ¤ch stes
ĠC at
Ġentscheiden d
n ischen
aus wahl
B S
st reifen
Ġab s
ein igung
ĠSchl acht
ĠRes ult
Ġt rag
ĠP in
Ġl ernt
ĠCh a
ĠTechn iken
ĠStu dent
ne ter
Ġl iter
ĠAn fragen
Ġmoder ner
iet ung
wohn ern
Ġangegeben en
ĠH orn
it ch
el emente
P ar
be kommen
Ġm l
ĠL ou
sol venz
f onds
z elt
ĠmÃ¼s st
Ġbegr Ã¼ÃŁen
ĠB rie
Ġaktiv iert
ĠBeweg ungen
Ġs yn
ĠP ast
Ġpr im
Ġbehaup ten
gen ossen
ĠBe cken
ĠH Ã¤
ĠEr hÃ¶hung
ĠBil anz
ĠM ol
ĠO pp
Ã¤t te
ĠWei b
ĠGrund sÃ¤tzlich
Ġmil itÃ¤r
gie b
Ġper man
ĠTem po
Ġ. :
ĠVerl etzungen
ĠL as
Ġe uren
ĠSpiel othek
Ġgesch Ã¤ft
ĠVerm ieter
lau ch
Ġreich lich
ĠK Ã¤lte
Ġk Ã¼nf
Ġeinz us
ĠSt rei
Ġtradition elle
Ġst ieg
ĠJ on
Ġge fÃ¼llt
ĠEur e
Ġschwer er
ĠStandard s
ĠE v
Ġbest and
s eln
ĠS eil
** **
ĠF un
ĠF DP
ĠSp err
ĠWissen s
ĠBe gegnung
k g
ĠNacht eile
Ġruss ischen
w anne
ver treten
ĠKl etter
k redit
ĠRe port
tag es
ĠAr men
ĠW Ã¤l
ieÃŁ t
S c
ĠF assung
Ġspann enden
ĠStaats anwalt
in iti
Ġbe ster
ĠL ine
ĠB lei
sp itze
z essen
meister schaft
ber ge
ĠL ob
c ause
u he
Ġin cl
ut ten
ĠD ritt
ĠP ots
Ġtra fen
ch ron
ĠT omaten
Ġver hei
D V
unn el
ĠBras ilien
ĠIns eln
er gebnisse
ĠD Ã¤n
k al
Ġsch ade
ĠZ igar
ĠMom ente
ĠZ ie
sch Ã¤den
br Ã¼cke
ĠEigent um
Ã¼t t
N E
Ġf ried
ur i
wor te
n te
Ġk rei
ĠFrÃ¼ chte
verein s
Ġk unst
Ġunter halten
ĠSchreib tisch
Ġarbeite te
Ġumfassen den
k et
ĠBen utz
ĠF raktion
gl anz
ĠK lage
ĠB ist
ĠfÃ¼hl te
ĠWeiter entwicklung
Ġe ffizien
ĠKan al
ĠTher m
ĠÃĦ uÃŁer
ĠWeiter hin
Ġneg ativ
lÃ¤nd ische
Ġw Ã¶ch
Ġoptim ieren
p il
f rÃ¼
Ġseit dem
ĠFlex ibilitÃ¤t
Ġ19 80
kom fort
ĠT ob
Ġbe arbeitet
ĠAbend s
Ġleben s
sen der
d ner
ĠT SV
der te
ĠÂ ĸ
ĠHaushalt s
ĠSp ass
le hnen
ĠH ass
ĠRe kord
ĠPlan eten
Ġg eilen
ĠDis ziplin
O ber
ik te
h Ã¶rt
Ã¼ hl
p u
Ġum gehend
Ġelektron ischen
ĠausfÃ¼hr lich
re gung
ĠO h
Ã¤t tern
ĠB ond
meld et
lo hn
ĠVerein barung
Ġf eiert
ĠT schech
ĠM ent
ĠGe pÃ¤ck
Ġgegen wÃ¤r
uff et
ĠEntsteh ung
ĠSpiel ern
ĠHalb zeit
ie tet
ĠMÃ¤r chen
f ein
fol ie
ĠAus fÃ¼hrungen
lie ger
ge gangen
ĠWie sbaden
ĠInvest itionen
gerech te
Ġv eg
hard t
Ġunter scheidet
st he
Ġl eiten
Ġdem nach
ĠFerien haus
ĠEmpfeh lung
Ġqu er
ĠAltern ativ
Ġtyp ischen
ĠOff ice
Ġgeh eim
zent ren
ĠHel den
ĠH ast
ĠC ast
ĠO ste
ĠFot ografie
ĠGesetz e
ĠLauf zeit
ĠGes chenke
Ġ6 6
bed ien
Ġs ilber
klei d
Ġoffiz ielle
ĠKass el
ĠK ob
ĠO fen
Ġdunk len
Ġen er
ĠVerb indungen
Ġunver gess
ĠG E
Ġerleich tern
Ġgegebenen falls
m Ã¤
ĠTag s
fle chte
Ġauf t
ĠSp ons
ĠForm ular
ĠPro je
I ER
Ġk ochen
ĠWeiter en
ĠKÃ¶l ner
ĠZeu gen
Ġgeh olfen
bew usstsein
ĠFl asche
Ġfal schen
Ġr at
si ver
F B
ĠBoch um
ĠOl iven
ĠNieder lage
Ġgesellschaft lichen
ĠAcht ung
ĠN ight
ĠJ og
Ġmedizin ische
ĠEm o
ĠRegisse ur
Ġbein ahe
h art
ĠBe ge
ĠGes ang
mit ten
Ġ7 2
T eil
herap eu
uss ion
med ia
Ġprofession ell
N A
ĠUm frage
ĠT Ã¤tigkeiten
ĠFernseh er
on de
ĠB achelor
ĠvielfÃ¤l tigen
ent s
Ġhaus arbeit
ind el
att ung
Ġab ger
k enntnisse
ir ge
st unde
ĠSte phan
verb indung
Ġintens ive
as y
Ġvert eilen
Ġsen si
liess lich
al so
Ġdank bar
ĠArg ument
H z
t age
Ġan stren
aut y
ĠLiefer anten
rum pf
ĠPort ug
ĠNorm al
ogra fen
Ġherr scht
scha den
ĠLie ben
H rsg
y wood
ĠIS O
och ten
ĠB V
c ar
ĠG n
gr ammen
Ã¶ ÃŁer
Ġmehr mals
Ġ5 8
Ġmin im
Ġsh ort
ĠKl icken
recht lich
behÃ¶r den
ĠSch all
Ġbed anken
un en
anz er
sam t
aust ausch
ĠWei le
tifiz ierung
mer kt
war ten
system s
Ġ08 00
ĠM P
arbeite ten
schnit ts
ĠMag net
Ġliebe voll
ĠverstÃ¤nd lich
ĠRe chen
Ġerst klass
ĠSpr ung
g igen
j acke
ĠM all
eh er
ĠJ ac
tel le
ĠgewÃ¼n scht
Ġ3 60
ĠF A
Ã¼st et
B es
Ġkontroll iert
W o
Ġst ation
Ġerle digt
ĠK ing
iz z
ĠGraf iken
g or
rie s
k in
ĠC reme
Ġvor Ã¼ber
p oten
t lichen
Ġwunder bare
dis ziplin
ĠBestimm ung
? )
ĠWÃ¼r mer
ĠLÃ¶ schung
Ġor iginal
ĠRicht linien
Ġger inge
iz ierung
gehen de
ath on
ĠOptim ierung
: :
Ã¤r chen
ĠF la
sei tigen
Ġbe cause
Ġgeh Ã¶rte
ĠHin zu
zieh bar
wie s
Ã¶pf ung
Ġx xx
Ġgeb ucht
ĠTrau er
ĠW oll
deut sche
Ã¶ d
Ġbes etzt
Ġmit hilfe
Ġwas ch
ĠTrans fer
Ġel f
ĠB eu
ĠL okal
Ġsan ft
Ġmedizin ischen
ĠFrank furter
ĠP ig
geb ieten
Ġk lappt
rat zen
aus stellung
Ġgesetz lich
Ġstra hlen
Ġein ander
ĠFl aschen
ĠKÃ¼ ste
id o
Ġfl Ã¼ss
g asse
ĠD icke
M ag
abet h
D urch
ĠKompl ett
ol in
ĠR eiter
ĠIn se
ĠGegen stÃ¤nde
ĠTem pel
Ġexist ieren
M ein
d y
A ber
Ġg reift
folg ung
B ook
ĠS U
Ġhinter her
ĠAltern ativen
Ġsch reibe
Ġanerk annt
ei de
ĠB y
Ġj etz
gel Ã¤nde
Ġwoll t
ĠSzen en
ĠFor derung
Ġsing leb
Ġerkenn bar
stud ium
ĠStrate gien
Ġeigent lichen
auf nahmen
Ġab geben
Ġdurch schnittlich
gesch ritten
krÃ¤ ften
Ġeinzigar tig
ĠTick et
ĠInspir ation
ĠFak ult
m u
s Ã¤tzen
ĠK ommen
ĠPh Ã¤nomen
ĠT hre
Ġbe weisen
geord nete
Ġoptimal en
stud ien
mann s
ĠMensch heit
al em
gen Ã¶ss
ĠKat astrop
rau chen
v arian
Ġd aten
Ã¤t sel
ĠRe b
c or
au lt
Ġspekt ak
ĠDar lehen
kt op
Ġgel d
Ġh amburg
ĠC ons
ĠAr tikeln
bes itzer
B ER
J ugend
ĠWahr nehmung
ach r
ĠPass wort
k uchen
P O
Ġneu gier
ĠDir e
ĠLei b
ÃŁ t
Ġbeeinfl usst
end el
iv es
n orm
Ġi gnor
ĠT en
ĠP ussy
ĠBet ten
inde x
ĠSch icht
ĠVer stÃ¤r
ĠDi Ã¤t
mÃ¤ÃŁ ige
ĠKolle ktion
Ġregion alen
ĠPerspe ktiven
len burg
ad resse
ĠvielfÃ¤l tige
ĠBewer ber
f u
stra hlung
ĠBab ys
ber eitet
ers atz
Ġerlau ben
is burg
ak u
ĠM ur
Ġzu zu
ĠT onnen
Ġfr Ã¶h
ĠCar l
Ġge fordert
Ġhei sst
Ġm erk
Ġk an
Ġ6 9
k am
Ġf arben
ĠPok er
ab or
ĠK ult
wir ksam
ĠSchw ein
So ftware
Ġspont an
ĠL Ã¤cheln
g ungen
ĠJ ames
ĠAuseinander setzung
is ation
Ġgibt s
Ġkor rig
Ġ art
Ġw in
ĠEr sten
K T
Ġs olle
ĠB ienen
ĠSan ierung
ĠEs cort
Ġech ter
Ġhoff entlich
Ġf eine
ĠM ale
Ġt iefen
ĠI M
ĠGesch w
Ġver halten
Ġr unden
Ġ19 45
f ord
ĠG uten
ĠNe um
Ġgew achsen
ĠSil v
Ġt re
ĠSch uss
iele feld
ES T
ĠInvest oren
ĠDiskuss ionen
ĠDir ektor
Ġgelten d
Ġexist iert
ĠiP ad
verb ot
ĠPrin t
Ġumfang reichen
ĠSch ach
Ġan dern
Ġ arbeit
Ġdarauf hin
er er
âĢ Ķ
ĠSen der
ĠKandid aten
Ġ5 9
ĠGebur ts
int age
che f
Ġen ger
P lay
sp rÃ¼fung
Ġgel Ã¶st
ĠNational park
ĠW C
ĠP L
ĠRo ute
Ġnachhal tige
bes uch
ĠP V
Ġbill ig
Ã¤l tigen
ĠSchuppen flechte
ell os
bl r
ĠSchrift steller
Ġunkompl iziert
sch rau
ĠI ran
ĠZ iff
m i
sch ritte
Ġzum al
am eter
Ġkon f
ĠZu erst
re geln
Ġf erner
ĠT uch
Ġmaxim ale
ĠSyr ien
on ne
W eiter
Ġein verstanden
ĠW att
re gen
dig er
Ã¤h le
ĠVerf assungs
fer tig
ĠHum or
Ġ Î
mod elle
r atze
Ġgesch lagen
Ġ199 2
ĠÃ¼berraschen d
ĠM isch
Ġr ief
Ġm essen
ĠH ut
Ġwas chen
Ã¤u schen
Ġengl ischen
ĠL angen
ĠVor schlÃ¤ge
Ġmer kt
Ġh Ã¶rte
ĠBuch ung
ĠSpekt rum
ĠGl anz
hei zung
im eter
ĠAb stimmung
f uÃŁ
Ġerleich tert
z burg
at hl
Ġab gesehen
ĠDe v
Ġzw ang
Ġd etail
Ġklar en
Ġletzten dlich
tisch es
Ġmensch liche
Ġver Ã¤nder
Ġlei se
jen ige
ĠD I
ĠB B
mb h
ĠSpe ed
ĠKa is
ok er
Ġf Ãĥ
ĠEisen bahn
ne e
ĠeB ay
O K
Ġkurz fristig
ĠOl d
Ġph il
u a
Ġun end
Ã¤ che
ĠKo hle
ĠHei zung
ich ern
Ġdr am
Ġein setz
ĠGeb Ã¼hr
ĠE ffizienz
Ġsch Ã¤d
f amilie
Ġb ade
ĠZin sen
sche f
sa ison
Ġs ympath
Ġk raft
Ġ6 8
ĠLe ague
kont o
ial is
s ive
ast et
Ġverlei hen
t yp
ĠC le
Ġaus gesetzt
ĠImmer hin
Ã¼ bt
ĠG olden
ĠWie sen
ĠL ay
ĠEin fl
ĠSuch maschinen
Ġitalien ischen
Ġben utz
ĠR h
ste ckt
ir che
ĠSper ma
ĠBegeister ung
ang aben
Ġlang jÃ¤hrige
a e
Ġgel angt
Ġunterschied licher
ĠAntrag s
ĠAl bert
Ġgem essen
ĠVert rau
Ħ ¢
Ġger ufen
ĠE L
men gen
ĠwÃ¼n scht
F est
ĠO liver
Ġ199 3
Ġdes cription
p end
r ent
ĠK ub
ĠJak ob
ĠNach weis
olog y
ĠO s
ĠZer tif
Ġbrauch st
ĠD Ã¼n
ĠA kten
ĠM ang
ĠH P
g eist
ĠB ody
ĠAktu elle
ĠGast ronomie
Ġw ien
ĠAuf ruf
ĠInternet seiten
ah nung
Ġvor liegenden
r end
Ġb lieben
Ġ {
Ġges ichert
ĠErgÃ¤n zung
Ġ5 7
sp uren
ic an
ĠOrd ner
wechs lung
Ġattra ktive
ĠS AP
ĠR am
ĠWander ung
Ġgen ial
fÃ¼hr ungs
at sch
ĠI C
ĠR Ã¤umen
ĠZ ellen
Ġzahl t
ĠAuftrag s
ĠMe ck
f eln
ä ¸
ĠM w
le chter
gesp ielt
ĠC up
ĠPfarr er
ĠMuse ums
Ġendg Ã¼ltig
ĠIn solvenz
lin k
Ġn eutr
veranst altung
Ġges orgt
Ġteil te
Ġges unden
ĠKonzentr ation
Ġb unt
Ġkre ative
pl Ã¤tzen
ĠRo ulette
spro du
chen kt
In tern
spro zesse
Ġw olle
Ġa temberauben
Ã¤ hnen
Ġrecht lichen
Ġnotwend ige
ĠVers orgungs
ĠSim on
Ġstet ig
ĠK etten
kl ein
ĠUm bau
ĠS eh
Ġein drucks
ĠR od
ĠAp art
ĠKinder zimmer
Ġlang weilig
D ollar
Ġun ber
R echt
Ġent deck
Ġgest iegen
Ġs ymbol
op tim
ĠMathem atik
ĠU fer
Ġt our
Ð ĵ
Ġgeeig nete
## ##
A uch
w ider
ĠPart nern
ĠZ ehn
ĠKon sum
ĠGew issen
schlÃ¤ gen
M arkt
Ġd igital
verl etzung
lie der
ĠTur m
Un ternehmen
R L
200 7
Ġw itz
c al
ĠL Ã¶sungs
ĠRÃ¼ck seite
Ġst o
spr achen
ĠR ap
Ġge laden
Ġzu fÃ¤llig
lei den
ĠGesch irr
Ã¶ tet
ĠVor bild
mel de
Ġen ge
Ġverst ehe
Ġkompl etten
Ġg u
Ã¶ff el
ĠSport ler
D is
ĠR ies
gew al
ĠMill ion
Ġres ul
Ġschwei z
ĠS un
ĠKlein anzeigen
ĠDie ter
ĠSp Ã¤ter
ĠR itter
b or
ut schen
ĠVer mittlung
Ġgekenn zeichnet
A F
Ġaufge hoben
Ġpro bieren
ĠNot fall
ĠUl rich
4 00
and al
Ġirgendwel che
Ġs onder
ĠA spekt
Ġber Ã¼hrt
T our
ĠV el
Ġstell ten
Sh irt
Ġex akt
inst itut
ĠM Ã¼tter
ĠBuch es
orien tierte
ĠHein z
O B
k reuz
tel s
il en
ĠDie t
veranst altungen
Ġbew Ã¤hr
el and
ĠSt ore
Ġchar akter
ĠS amen
T h
ĠCo ver
ĠSt ufen
ak s
ĠB utton
ĠE hem
ir gend
ut in
ĠInter pret
Ġeigent liche
Ã¤ss igkeit
eid igen
Ġpar allel
n Ã¤chst
ĠAuft akt
ĠÃ¶ st
Ġunter liegen
= =
B ox
ĠChar me
ĠS MS
ĠSp eise
ĠKal i
ĠZ ir
echs elt
Ġverschw unden
b rief
Ġan halten
B esch
ĠPro test
afr ika
Ġk ulin
Ġum setzen
ĠGer hard
ĠTra ck
Ġbehaup tet
Ġzu kunft
ĠPro mo
ĠWurz eln
j i
ĠS tem
Ġsah en
ĠDeck el
sent wicklung
ĠLaun e
inter est
spro blem
Ã¤u den
P er
âĢ¦ âĢ¦
ĠE ber
ĠKor rektur
R ad
ĠJ Ã¼n
Ġ9 6
ĠJ Ã¶rg
m Ã¼hle
Ġle uchten
yl on
f eier
k ter
as on
Ġunterschiedlich sten
ĠOrg an
Ġverk nÃ¼
Ġpoten z
ĠBedien ung
n chen
p ir
ies sen
ĠW Ã¤nde
G l
ĠW ur
de burg
Ġ9 00
ĠZiel gruppe
ĠGut es
ĠSach ver
em an
ĠF etisch
produ kt
ĠS ir
ĠSymbol e
ĠÃľber gang
ver se
ĠVerein igten
Ġgl as
ro w
ĠDer zeit
ĠBenz in
ĠL ib
g ru
r iss
Ġin dustr
ehr ung
ĠÃ¼ber lassen
ĠK ie
Ġst arb
ĠLe ber
alis ierte
ĠÃľb ungs
Ġst euern
bo y
Ġer mitteln
ĠBet riebe
ĠVol umen
ĠSo fa
Ġausgew Ã¤hlten
Ġamer ikanische
ĠF R
, .
k amp
tag on
Ġsex kontakte
Ġlok ale
we en
ĠGemein der
Ġh arten
Ġf amil
Ġverz ichtet
ĠBeruf ung
ĠL ande
Ġauf w
zei tigen
ĠMon ster
Ġelektron ische
ĠSti ck
ĠBl itz
ĠMon itor
ĠElekt ronik
Ġbrit ischen
ĠRe ferenz
Ġvor kommen
ĠAuf bew
Ġecht es
h end
ĠkrÃ¤f tig
ĠAs ien
ĠVerfÃ¼g barkeit
ar ien
ĠUn garn
ĠPfl anze
ĠBra unsch
Ġver sen
ĠT OP
Ġ( Â§
Ġ9 78
ĠWik ipedia
funktion en
H och
ĠK ampagne
ĠG T
ĠEin haltung
Ġ6 3
ĠKat alog
Ġakzepti eren
stud io
w etten
sch ild
sen s
Ġp osition
verkehr s
b ten
b raun
Ġb rÃ¼
Ġ/ /
ĠBen utzung
p aket
ĠF ab
Ġbei der
ver mÃ¶gen
ĠPap st
flÃ¼ gel
ĠV ic
Ġ6 2
ĠG rÃ¤
b te
Ġerfahren en
Ġauf weisen
sk y
Ġt itten
ĠÃ¼ ben
Ġk Ã¼ndig
Ġentspann en
ĠJ Ã¤ger
ĠBi bli
ph one
Ġsorg te
d ro
sch lei
ĠLaut sprecher
empf eh
ĠHighlight s
o on
ĠT ool
an kt
Ġar g
her ren
ĠdÃ¼r ften
Ġg aben
Ġauf geb
id es
Ġbesch leun
p raxis
Ġuns icher
ĠUr lau
Ġruss ische
ĠAn bau
ĠLes e
ĠBÃ¼ch ern
Ġein t
la ster
ĠWett kampf
ĠR i
geb urt
schl oss
ĠC E
ĠMus ic
Ã¤n ner
Ġren ov
Ġst Ã¼r
ĠN ehmen
bo ot
ĠGer ech
Hol stein
Ã¤ ge
p ause
sch es
ĠMobil itÃ¤t
ĠStad ion
rei de
og ramm
ĠGef Ã¤hr
Ġiden tifiz
ĠAmts gericht
M ann
l Ã¤sst
Ñ Į
ĠHe ck
ĠGerman y
F C
Ġwieder holt
ian a
ĠErn Ã¤hrungs
gr aben
ein gang
Ã¤l le
ĠHel mut
an i
Ġporn os
B M
ĠT oll
ĠfÃ¼ hle
ï ¼
ĠÃ¶ konom
ĠAlltag s
ĠS urf
ĠBe ck
ĠTats Ã¤chlich
ĠregelmÃ¤ÃŁ igen
ĠMa y
ĠBo hr
Ġstehen den
ĠDel uxe
ĠBewerb ungs
ĠK ochen
yl l
ĠH eu
Ġver eint
ĠQu e
Ġzu greifen
Ġc l
Ã¤ng ern
ick el
Â» .
ĠMÃ¤d els
Ġverschw inden
r und
b leiben
ĠÃľber leben
ĠL ow
ĠO k
Ġent nehmen
ias is
ĠIm age
Ġbe eintrÃ¤ch
ĠVerpack ung
ĠSchokol ade
d ia
ĠD IE
ĠAb schied
ĠDrei er
ĠBeg riffe
v as
Ã¼ pfen
Ġz we
Ġl at
Ġgew Ã¤hrt
ĠursprÃ¼n glichen
ĠF air
L og
Ġein gel
ĠKomp lex
Ġkombin ieren
ĠP ant
Ġauf wend
ĠJahr gang
Ġge zwungen
ĠKommun en
L eben
ier st
S cript
Ġeinge gangen
ĠGr as
ĠTyp en
ĠB akterien
Ġb it
Ġausge fallen
Ġbemer kt
Ġnach ts
Ġf einen
Ã¤rt ner
Ġge bildet
ĠSp a
Ġfrem den
ĠDefin ition
Ġv ol
Ġtran spar
ĠvielfÃ¤l tig
ĠTeen ager
ĠDon au
Ã¤ud es
Ġl auf
ĠfranzÃ¶s ische
Ã¶ pfen
ĠOr igin
ĠhÃ¤ufig sten
ĠStat istik
Ġb lock
hand els
ĠDekor ation
å ¤
Ġun besch
ĠC li
zuf inden
Ġrest lichen
Ġzuk Ã¼nftig
Ġex ternen
ĠL Ã¤rm
ĠW eine
Inst itut
ĠHe ft
eto oth
leg ungen
Techn ologie
F rei
aun en
am i
sprech ung
ĠRat geber
Ġjem als
ĠP rei
o zi
sch on
ĠK issen
Ġsp er
Ġunter halb
ĠAr ab
ĠAnge hÃ¶rigen
ĠT ar
ĠL E
iz it
Ġstarte te
ĠTranspar enz
hoch schule
ĠMit teilung
Ġange wiesen
if ik
c er
h ilfen
ĠK ra
ĠMal er
Ġgeeig neten
ĠBeam ten
Ġkl Ã¤ren
ĠRechts anw
Ġr Ã¶m
ĠAuf klÃ¤rung
ĠDar um
Ġbegeg nen
metho de
â Ħ¢
ĠCh in
klÃ¤r ungen
Ġer leb
ĠBe fest
Ġdeaktiv iert
ĠHeidel berg
ĠT ast
ĠImmobil ie
ĠK amin
ĠWir bel
s ack
Ġe vangel
ĠregelmÃ¤ÃŁ ige
irur gie
n iveau
w Ã¤nde
Ġn Ã¼tz
ĠAus wertung
ĠG Ã¼ter
ĠAc count
] ,
ĠAn ges
Ġtrain ieren
sch wei
Ġb elegen
ĠL ight
Ġganz heit
hem en
ĠEnd lich
fle kti
eiger t
Ġ> >
ĠF oren
fest e
Ġber eitet
Ã¼ ster
ĠJur y
Ġstatt dessen
ĠGef Ã¤ngnis
el f
ĠRucks ack
ĠKno pf
sa al
och te
fahr zeuge
Ġ199 1
Ġsch reck
ĠDruck er
ĠS ig
ĠFrÃ¼ her
Ġ198 9
ĠSe en
ĠP rÃ¼
Ġgesch ichten
Ġwichtig es
roh ung
Ġberech nen
p ed
Ġi OS
vol umen
Ġso viel
ĠZ erst
unter such
zwe ck
ĠNÃ¤ch te
ĠBlut druck
a ik
te ste
ĠP assen
ĠAus zahlung
ei z
ĠBrÃ¼ der
st age
Ġges perrt
Ġf ick
pol ster
Ġinvest iert
ti st
ĠKom petenzen
ĠInteressen ten
ĠenttÃ¤u scht
ĠDenk mal
ĠMeld ung
ĠÃľbrigen s
Ġverl or
z gl
Ġ19 70
n Ã¼tz
ĠVer handlungen
Ġc ont
ĠStÃ¤r ken
Ġangeboten en
it ute
1 30
Ã¶ ten
Ġl Ã¶st
ĠFle cken
ĠE C
ĠH under
Ġunter halt
ĠSe gel
rot t
mb and
Ġmer ken
ĠT Ã¤
freund lich
ĠDeb atte
sk ont
Ã¼nkt lich
= "
Ã¤tz chen
Ġun tern
ĠSal at
a w
Ġ eb
ho fer
fr ischen
ober flÃ¤che
P R
ĠJ ud
Ġab schlieÃŁen
ĠKon figur
Mail s
Ġf ind
ĠRei s
ĠSwinger club
d orfer
sp unkte
Ġaufge fallen
Ġausger ichtet
ĠGes ell
ĠgrÃ¼n e
an schluss
ĠP as
vert eidig
agno st
ĠS af
Ġgleicher maÃŁen
Ġver wei
ĠBuchst aben
r Ã¼cke
kom petenz
Ġstud ierte
ĠDist anz
ĠW i
Å ¸
ĠEin nahme
ĠNeben wirkungen
k y
Ġauf bauen
Ã¼l lt
ĠCy ber
s eller
g Ã¤rten
Ġb ast
ĠlÃ¤nger en
ĠOrien tierung
ĠZwei ten
inder te
ĠVerbr eitung
ĠSt eiger
Gesch Ã¤ft
ĠS W
Ġmass age
gÃ¤ ste
ĠMich el
ĠJul ia
last ung
Ġganz es
ĠBest Ã¤tigung
ĠT auch
Ġregion ale
Ġt rug
ĠF as
ĠT eller
Ġgelten den
on line
l Ã¤ufer
ĠS low
on om
Ġzu stande
Ġ( âĢ¦)
ĠProvin z
ĠLi fe
ĠN ad
ĠAus rÃ¼stung
Ġfil m
ĠM essen
Ġlei tet
Ġvor der
B uch
F oto
ĠVert rÃ¤ge
ĠS M
ĠM A
ĠRicht linie
be zir
ri an
Ã¤l l
Ġs aÃŁ
Ġein wand
ur ce
ĠG eht
ĠNotwend igkeit
ĠVer h
ĠRu br
ĠFlÃ¼ss igkeit
w jet
ĠE st
ĠSch rauben
ĠEing abe
Ġgebe ten
d liche
ĠAdr essen
ĠUn s
n Ã¤
ĠK Ã¼nst
ĠAn dr
ge zogen
ĠWag ner
ĠM eg
ant es
Ġbun ten
Ġr uft
ĠFl irt
Ġm a
pro be
s icherung
ĠEin zahlung
ĠGalax y
Ġet liche
ĠMod el
le hre
ĠArbeits markt
p x
ĠGl Ã¤ub
ĠJe an
ĠDem onstr
o cken
ĠDR B
ĠV ar
uver Ã¤n
G ut
Ġein laden
lei hen
Ġar ab
Ġer ober
ĠGew Ã¤sser
f al
ĠIntern ationalen
Ġverlei ht
Ġbe enden
Ã¤n ze
Ġvor behalten
sor iasis
geh Ã¶r
ĠGeb raucht
Ġm ulti
Ġvoll stÃ¤ndige
ĠNutz ern
ĠZ eilen
Ġkeines wegs
ĠHe ad
ĠÃ¤hn lichen
ĠInse kten
ĠDo ktor
Ã¼h mt
Dat ei
ĠDa von
ĠBerech nung
Ã¤u len
ĠGottes dienst
unter lagen
ĠNa ja
ĠFlÃ¼ gel
Ġwider rufen
ich en
on i
amt es
ph p
af tet
ĠMein ungen
k ore
ĠT ut
id as
Ġho hes
Ġsp rich
fach en
ĠKonsequ enzen
Ġschw ach
Ġun gew
ĠA x
Ġk unden
PrÃ¤ sident
Ġver raten
Ġl ass
qu id
Ġbeh Ã¤lt
arch iv
m otor
Ġe w
ĠStil l
ĠBest ehen
ĠSex treffen
ĠKontakt daten
o y
ĠS auber
ĠN ationen
ek ul
Ġein gebaut
ist anz
Ġl ack
t asche
ĠPl atte
Ġm arkt
Ġgen ossen
ĠEt wa
ĠFlor ian
an al
hn er
Ġange meldet
Ġkosten g
ĠHard core
ĠHung er
ĠF inn
ĠGew ichts
ĠerÃ¶ff nen
u c
Ġher an
Ġmittler en
B E
Ġi slam
ĠGrund schule
Ġheraus ragen
ĠT H
F ach
Ġbem Ã¼ht
ĠS og
ĠIn haber
ĠDr achen
ĠÃ¤r zt
P A
Ġsicher zustellen
m ord
Ġhin auf
ĠÃľber tragung
ĠR auchen
Ġ9 8
Ġtyp ische
Ġwest lichen
ĠG Ã¼nstige
Ġbe grÃ¼ndet
Ġw ind
Ġgl att
Ġt a
Ġnun mehr
W or
Ġk alten
Ġ tem
ĠV irt
Ġan lÃ¤sslich
im it
ri o
Ġkonzentr iert
Ġan nehmen
w ochen
Ġi d
Ġstell vertreten
ĠMerk ur
ĠjÃ¼ng sten
ĠRo se
W ei
p hen
ĠVerpflicht ung
Ġd or
ĠBe zahlung
co ver
abl etten
Ġvi agra
S CH
T EN
f aser
ĠB eute
Ġan onym
ĠO ffiz
Pf alz
Ġun ent
ĠMitglied schaft
ĠB A
bl auch
ah ler
ĠHe y
ĠSchm utz
g old
bel ast
ĠN ull
ĠZen ti
ĠMet rop
roll er
ĠKredit karte
ĠMw St
ĠIn c
Ġauf gew
Ġvor geschrieben
Ġbest ehend
Ġschl immer
kont rolle
ĠFe atures
sk raft
kÃ¼ che
ĠVerhalten s
H K
Ġd ez
ĠG ur
Ġbe zahl
ĠBar cel
Ġstand ard
ĠQuart al
bestimm ungen
ĠArznei mittel
ver zeichnis
itu ationen
Ġerf Ã¤hrt
m orgen
Ġd icken
Ġr Ã¤um
fer tigung
ĠStud ierende
ĠKat hol
Ġverbunden en
ĠM astur
ĠKon zepte
Ġeinz ig
sie d
ĠAus Ã¼bung
Ġ3 50
ĠJo achim
ĠGra z
k amera
ell o
ot a
Ġgem eldet
ĠBÃ¤ cker
Ġ( *
ĠEr ziehung
Ġabge legt
Ġmod ische
iv als
Ġzusammen gef
Ã¼ch tern
ĠFranzÃ¶s isch
ĠTeu fel
h ier
ĠMann es
U L
se y
ĠGut achten
ĠPri or
ĠRe zensionen
ĠFuss ball
Ġan scheinend
ĠO S
recht liche
kom bin
ĠM i
ĠThÃ¼r ingen
sÃ¤ ure
ard in
Ġanfang s
Ġver urteilt
r ung
be arbeitung
F i
ĠRu h
br ett
Ġt ausend
ĠN Ã¤h
br aten
Ġbet reibt
Ġ12 5
ĠTex ten
ĠNÃ¤ gel
ĠÃ¼ber nahm
lo ver
re de
ĠZit at
ĠB ag
ĠL KW
Ġbet onte
ĠWe ber
ĠTran sa
it tag
Mod ell
Ġnachfol genden
ĠHor st
Ġgepl ante
ĠGed uld
Ġstren g
ĠK aum
ĠPrÃ¤ vention
antas ie
ĠEben en
ir ls
ĠMus keln
richt ungs
ĠSh em
iel les
ĠM ov
ĠGesch ehen
ĠB Ã¶rsen
re ht
den z
ĠSon y
Ġdro ht
p rÃ¼f
be ziehung
ĠLÃ¶ wen
ĠPro gno
Ġzu t
re e
Ġange t
ĠBeh inderung
as sten
kre bs
ĠP ier
Ġwahr genommen
ĠTo uch
ich e
Ġun ivers
w ellen
Ġvert rauen
fÃ¼ hlen
Ã¤ss igen
a ktive
ĠVor her
ol o
ĠSie ben
lei ste
ĠMittag essen
g reif
ĠDarm stadt
Ġwer det
ĠEp is
ĠP riester
br onn
Ġgel aufen
Â« .
Ġbed ient
V on
ĠauÃŁer orden
ĠKÃ¼ sten
Ã¼ gel
ĠHo he
ĠSt eine
ĠGest alten
ĠIntern ationale
ut s
ĠSch aum
fakt or
Ġw eh
ĠC el
ĠWar m
ĠProf is
ar ren
ĠF ull
om o
no ten
D ienst
ing st
ĠAndre a
O W
ter ung
Ġh Ã¶r
Ġre alisiert
ĠBau en
Ġintern et
ĠJack e
Ġ20 20
mar ken
P D
un fall
Ġde cken
ĠN eg
Ġso zusagen
ĠKon sol
schlieÃŁ t
Ġverz wei
Ġerle digen
ĠLeit ungs
Ġber eiten
ik es
ĠEin nahmen
ĠDa y
Ver lag
D ER
ĠVor bereit
Ġrezept frei
ĠAn stieg
Ġkom merz
v ater
Ġgel b
ĠGe ben
fl Ã¤ch
ĠUm stÃ¤nde
< /
ĠB auer
ĠH il
ĠGegen Ã¼ber
Ġglob alen
Ġbe auft
Ġwei chen
L G
Ġ( =
ĠSch e
Ġfu hren
ĠB bw
Ã¶ bern
ho sen
ĠBlog s
ĠDam als
Ã¤ ppchen
Ġk ost
lie d
gien e
ĠgenÃ¼ gt
ĠKan ada
ser ver
ĠShop s
Ġs ag
Ġb Ã¶se
ĠBer gen
ĠErschein ungs
H D
Ġaktu alisiert
pp t
ĠK urt
men schen
f uhr
Ġwir ft
zus ammen
Ġin ten
spro jekt
ĠEigent ums
Ġdurch zufÃ¼hren
ĠV ul
Ġtoll er
pro fil
sie ger
ĠSor ten
ĠC oll
Ġher stellen
ĠH irn
Ġfer tigen
Ġpersonenbezogen e
ĠgemÃ¼t lichen
Ð ²
for n
ĠM ehl
bl ing
Ġl ese
Ġall tÃ¤
ĠHoch schulen
ĠBr eit
B au
ĠL etzt
ĠReg ie
ott es
Ġhin zufÃ¼gen
Ġâ ĸ
Ġkonsequ ent
Ġstattf indet
Ġl agen
ĠS i
gr Ã¶ÃŁen
our s
be wertung
ar isch
ĠW Ã¤hler
Ġre alisieren
________ ________
em p
tur m
Ġengag iert
ĠA T
Ġen gen
ain ment
Ġentscheiden de
ĠkÃ¶rper liche
Ġkontroll ieren
ro ss
Ġpl an
Ġin f
Ġverst orben
ĠCro ss
sst elle
ĠGemein schafts
ru h
ĠAb wechslung
ĠKon gress
ĠSe elen
ĠKos metik
Ġnied rigen
Ġdi pl
et was
Ġte urer
Ġfreiwill ig
K K
ĠLand tag
Ġgerech net
c ont
Ġthe oret
Ġkultur ellen
Ġkap utt
rei z
geb oren
ĠAll i
ĠTax i
ĠMit be
Ġausge legt
Ar b
ĠT rom
Ã¤nder ungen
ĠH d
Ġp raxis
Ġl ande
ĠN ebel
ĠÃľber wachung
oler anz
ĠBit coin
k ab
ĠC SU
ĠPartner vermittlung
ĠDienst leister
ĠSÃ¼d t
ĠSt ate
Ġst unden
sb ruck
Ã¤ ften
ĠverfÃ¼g baren
ĠMotiv e
ĠÃľber prÃ¼fung
s au
ĠInner en
ĠFlÃ¼cht lings
Ġverurs achen
Ġf amilien
F e
Ġh aar
eil t
Ġempfehlen swert
ĠL or
ĠQualif ikation
Ġexper imen
ĠK ids
ĠVer schieden
Ġab weichen
ĠAb st
Ġent schlossen
ild o
od ie
olog ischer
h Ã¼tte
ĠDu b
ĠInstrum ente
Ġkontinuier lich
Ġg ast
Ġd oppel
ĠÃ¤u ÃŁ
Ġwo hin
Ġgef ickt
eite te
r yl
ĠVer hÃ¤ltnisse
ĠW eit
ĠInform atik
Mus ik
ap el
ĠKer l
Ġre d
arm onie
omm ern
Ġv o
ĠIn dex
arb on
ĠBl ue
Ġzusammen ge
ĠReiÃŁ verschluss
ĠH alter
ĠAb hÃ¤ng
ĠFern er
ĠAus stellungs
Ġzw ingend
Ġp lay
ĠEr holung
et he
c reme
ĠF abrik
Ġl Ã¤nd
Ġkann te
Ġbreit es
h istor
Ġteil t
Ġh el
o ire
m ie
Ġintegr ieren
s ab
Ġf f
Ġwar me
ĠT ools
ĠSchw ule
Die ser
Ġschl ug
ausch al
Ġverste ckt
Pl atz
anis mus
Ġvon einander
Ġder art
Ġum zusetzen
Ġent schied
ĠWohn raum
ĠEntschei dungs
Ġveranst altet
Ġs ingen
ĠF Ã¤hr
200 6
ov a
ĠWei ss
be finden
ĠBr Ã¼cken
ĠZ ucht
ĠAb sicht
rag ung
ĠPoly ester
grund lage
Ġakzepti ert
ul Ã¤re
Ġjeg liche
ĠEmo tionen
ĠAn passung
Ġkre ativ
f Ã¶rderung
o den
ĠF ashion
Ã¤r zte
unkt ur
ĠBern hard
st Ã¶rungen
Ġm eldet
ĠP ic
Ġp re
akte ur
ĠWerk zeuge
Ð ´
Ġer t
ĠKom mand
ul pt
Ã¼n chen
ian o
Sti ftung
Ġinnov ativen
ĠVor sicht
ĠMod ellen
ĠAbt eil
geord net
Ã¶ÃŁ t
ĠCoach ing
Ġge folgt
ĠL ampen
Ġt rennen
Ġrelev anten
sch Ã¼ler
ĠWert sch
ĠUN D
ĠEn sem
w ettbewerb
ĠHeil ung
Ñ ı
Ġm ilf
ak es
ĠKer zen
ĠV aters
len z
tig ungs
Ġdurch s
ĠKu pfer
ĠAccess oires
er z
ĠSchwar zen
ĠInner halb
ĠS icherung
ĠGeschÃ¤fts bedingungen
Kl asse
ĠSch riften
ĠGest ern
ĠM oll
man gel
Ġkrit isch
ĠRecher che
ĠBr uch
V G
rÃ¼ hren
Ġerhe ben
Ã ¢
ĠFerien wohnungen
Ġn ational
ĠBesch eid
ĠBel eg
ĠKom mt
Ġverlie bt
st ars
ĠFr is
man ager
Ã¤ss ige
Ġlie genden
W ar
Ġzentr al
ĠE hre
ad bach
Ġen ergie
Ġver schaffen
er te
Ġt ag
ĠSt ationen
ĠEl is
d acht
St ar
Ġ7 8
ĠKo hl
ĠfÃ¼hr ten
Ġfrei er
Ar ch
ĠDan eben
Ġbedeuten d
Ġgest orben
ĠÃ¼ber aus
ĠJose ph
in f
S et
ste cken
ĠRe aktionen
ĠBarb ara
Ġinter pret
Ġaus gebaut
ĠIngen ieur
Ġum sonst
Ġzu ges
ĠReich weite
Ġm uschi
ĠgefÃ¼hl t
Ġumfassen d
P artner
ĠP ension
ĠDat a
ĠKlima anlage
Z um
Ġhier mit
ĠErsatz teile
b rid
ĠSpiel tag
ĠD ER
ok ument
ĠHy per
ĠFavor iten
Ġre par
Ġvers orgen
ĠGen ieÃŁen
ĠKultur en
reff end
Ø §
ĠBlu etooth
Ġm aster
Ġb innen
ĠT R
F S
n y
Ġbef and
hythm us
Ġder selben
ĠKno blauch
land s
ĠVi ze
% .
ĠSt rau
ĠD et
ĠB ull
se kretÃ¤r
beh alt
ĠBereit stellung
ĠFel ix
ĠPots dam
r ise
Ġunter suchen
Ã¶ te
Ġt iefe
ĠAb wicklung
Ġex zellen
ĠnÃ¶ tigen
sfÃ¤h igkeit
ĠMan fred
ĠSpeicher ung
ĠStatt dessen
Ã¤uf en
ĠStaatsanwalt schaft
Ġzwei ter
ĠB os
Ġauf gerufen
ĠAp otheke
le uchten
ĠCor por
ĠAnder en
ĠverÃ¶ffentlich te
sch reibung
ĠKonzer te
ĠK reu
ĠGerech tigkeit
Ġw andern
mass age
Ġerstaun lich
ĠQu ar
ĠY o
ah m
Ġberu ht
ĠTrÃ¤ nen
Ġtrau rig
ch at
Ġw ach
ĠEinschrÃ¤n kung
u it
Ġan zusehen
ĠHo sen
ĠB ielefeld
ĠSp rÃ¼
ĠLat ein
it im
ĠH ack
ĠAus zeichnung
arb urg
Ġgen ehm
ĠMein ungs
Ġfl ach
Ġf assen
Ġgelegen tlich
ĠProstat a
C on
so ftware
Ġg Ã¼ltig
Ġan fallen
ĠGeist es
Ġe wig
Ã¶t chen
ĠBay er
om er
att oo
Ġanzu bieten
bÃ¼rger meister
ĠFil men
Ġregistr ieren
d in
ĠB ol
fÃ¤h ige
ĠK i
ĠN E
Ġmonat lich
so hle
ĠT ru
Ġunter st
Ġb Ã¼rger
ĠT ape
ĠE cken
Ġ198 8
ĠN S
Û Į
ĠL ex
wand el
beg riff
lin ks
Ġpl ant
ĠZum indest
Ġwes entliche
ĠSt Ã¶rungen
lei der
k Ã¶r
Ñ ĭ
Ġdem nÃ¤chst
Ã¤r te
ĠNacht eil
Ġkontakt anzeigen
rÃ¼ ger
ĠE S
Ġheim ischen
Ġregistr iert
fÃ¼ gen
ĠK au
ĠMill imeter
ĠLe cker
uppert al
Ġhin gewiesen
W ohn
ben e
Ġgew alt
ĠGlÃ¼cks spiel
Ġaktiv ieren
Ġ ï¿½
ot ing
or es
ĠH arry
ĠPass ag
ĠAnaly tics
af il
Ġern euer
ĠSpazier gang
Ġschw anz
rech ung
ĠKr isen
arbeite te
ĠBedÃ¼rf nissen
b etten
ĠU we
Ġsch enken
ĠSp Ã¤t
ĠMar s
cke y
ĠS Ã¶
8 00
Ġz Ã¼
ĠerhÃ¶ hte
c is
n s
ĠD raht
TM L
Ġs etzten
ĠArbeits zeit
ĠBro sch
T H
ĠAl arm
Ġgro b
ĠT iefen
men sch
Ġf leiÃŁ
ĠRe ad
Ġstark er
ĠUnivers ity
B ran
Ã¤ fer
ĠN ud
ĠO R
Ġti pps
ĠAuff assung
Ġl Ã¤ng
zÃ¼ gen
Ġorganis ator
ĠF Ã¼ÃŁen
Ġst raf
ĠBrÃ¼ ssel
s id
ĠZahl reiche
ĠverÃ¶ffentlich ten
ĠWes entlichen
a ste
ĠA U
ĠBrem er
f tet
lei d
ĠCook ie
Ġ6 7
ĠI sol
ĠMitglieder versammlung
zentr ale
ĠAb itur
ĠTre ppe
Ġbeteil igten
com munity
k assen
rei fe
ĠWas h
ĠBe auty
ĠKer amik
c ard
ĠInvest ment
Ġdunk le
ur ity
se ud
ĠB lowjob
Ġbei des
or ca
ist rat
ĠTro pfen
k alender
ĠPoliz isten
enn ungs
ĠB ald
ĠGru ÃŁ
ĠTro ck
Ġbundes weit
Ġh eilen
ĠG elt
ĠEinsch Ã¤tzung
Ġbeding t
ar ia
Ġbel euch
ĠRal f
Ġsp Ã¤ten
pro jekte
rech ten
Ã¶ ser
Ġe ffizient
Ġentwick elten
k och
Ġf Ã¤ngt
W ert
g han
h h
Ġ tisch
Ġb uch
ĠK anzler
ĠSch ad
ĠChr on
ĠH unden
Ã¤h ern
ĠHin dern
ĠRud olf
D ruck
Ġs eite
sh ip
ĠMerk male
ar ium
ĠV Ã¶gel
ig an
ĠSch a
Ġ8 9
ĠKont rast
ĠPlan ungs
ĠAufenthalt s
ĠS org
Ġpoten t
k art
ĠRe flex
k issen
Ġg ames
ĠSt ars
Ġdem onstr
ĠMar io
ĠRahmen bedingungen
P ol
sch ungen
Ã¶ cke
sp olit
fr ont
ĠAnfang s
ĠAusgang spunkt
Ġgere gelt
Ġ ordnungs
Ġan bie
stitu tion
ĠBehÃ¶r de
ĠÃ¼ber mittelt
ĠSt irn
ĠH ahn
ĠPo ppen
Ġhol te
ĠM E
ĠW end
Ġherr lich
ĠTechn ische
Ġerh ielten
Ġver trag
ĠSt reich
eigen en
ĠF ische
Ġg riff
Ġbe werben
ĠC R
ĠBraunsch weig
r unden
ome tern
ĠSw iss
ik as
ĠDes ktop
aÃŁ t
ĠH orm
Ã¤ch ter
ĠWh ite
Ġent s
Ġpartner vermittlung
Ġblau en
Ġfrem d
ĠÃĦgyp ten
K ont
ĠW Ã¤re
Ġkir ch
ĠBarcel ona
ĠV R
ĠGes p
ide e
Ã¤nder ung
ĠGed anke
ĠMeck lenburg
Ã¼ck te
AN D
, "
ĠR end
Ġon e
ĠBlog ger
ie ts
fer tigen
ĠGer uch
Ġausgest atte
ge fahr
Ġwie so
ĠSpezial isten
ĠNote book
te ch
B en
Ã¼ch ern
Ġvor liegen
ĠEn tert
ĠDÃ¤n emark
p sych
ĠW id
ĠMeister schaft
ĠImpress um
ĠR ainer
Ġhom osexuell
ĠB E
sch reiten
ĠLe er
Ġgesch mack
ĠW E
ĠEr leben
qu is
ow ski
ĠbegrÃ¼ÃŁ t
Ġbeein druck
Ġmusikal ische
Ġf lieÃŁen
ĠL ungen
wer fer
reut h
ed el
Ġeur er
pum pe
an ie
he ft
Ġchines ischen
Ġmit nehmen
ĠFel der
B eh
Ġneu em
rat es
ĠSe kunde
ĠPorno filme
Ġles b
ein kommen
ĠAn mer
p g
ĠL it
F ans
O D
Ġk Ã¶st
ĠBesonder heiten
ĠunzÃ¤hl ige
ĠG aming
ĠGlauben s
s ieg
so fa
ĠHoll ywood
ĠLin ux
el tern
ĠF ord
Ġruh iger
Ġaufzu bauen
Ġl achen
ĠÃ¤hn liches
Ġbevorzu gt
Ġsp ir
ĠT afel
bet riebe
ĠFakt or
ĠMig ration
ĠGe orge
ĠDu isburg
per te
ha in
Ġ7 7
ac y
ĠL ong
ĠmuÃŁ te
ĠS oph
ĠC ann
stra hl
h Ã¤
be wertungen
gr ill
ĠT ragen
Ġpf lege
Ġbie te
Ġgest attet
ĠD ick
ĠWohl befinden
Ġp Ã¤dagog
ĠCo unt
achte te
Ã¤chs ischen
C lub
ĠB achelorarbeit
W e
ei f
ĠW andern
ĠTh ail
ĠEinzel fall
Ġvor gegeben
kon struktion
aller y
ĠV ie
yp e
Ġget Ã¶tet
ĠJahrzehn te
Ġf rank
Al l
ĠW itz
bl ut
Ġdan eben
ĠE qu
ĠStra ft
ĠFakult Ã¤t
Ġent h
Ġ: :
c amp
grÃ¼n dete
ĠCharakter e
ĠPress emit
Ġaus gieb
ma x
ĠBetroffen e
gent in
Ġres erv
ĠSt rÃ¤n
ĠPhys ik
bedien ung
Ġ ort
bereit schaft
ĠzukÃ¼nf tige
Ġvor nehmen
ĠHand hab
ĠAus ser
ĠFol genden
Ġinten siver
g ste
Ġw omit
ĠRegen sburg
k anzler
or men
Ã¼l ler
Ġbeteil igen
Ġfol gten
ĠOpp osition
ent scheidung
ĠÃ¼ber zeu
ran sport
dr ing
mark e
ĠBeschÃ¤f tigten
Ġb al
ver m
riv e
ĠVer zeichnis
ĠAl len
ĠMat ch
Ã §
ĠSamm el
Ġl ock
ĠRei z
ĠVerb rechen
ĠPat rick
ĠDienst leistung
med ien
m Ã¤h
ĠI den
Ġdort hin
stre cken
p orno
ĠL ove
ster min
ĠGumm i
ĠSuper markt
Ġbel eg
?? ?
ĠZuf riedenheit
ĠGew Ã¼r
ĠGest alt
Ġtro ck
Ġeingesch rÃ¤nkt
ĠF els
le hnung
Ġtyp isch
Ġer teilt
mÃ¤ÃŁ igen
ĠS L
Deut schland
b inden
gen tur
tern ehm
ĠDiff erenz
ĠP ie
JÃ¤hr igen
ĠBill ig
b ang
Ġg Ã¤be
Ġges onder
dre hen
u eller
ĠB uchen
ĠPro tagon
Ġw ahl
Ġwirtschaft lich
Ġunter einander
ĠPreis vergleich
ĠBege gn
st est
ĠWel ten
ĠTabl etten
ĠBel iebt
ĠEr lebnisse
ampag nen
Ġge leistet
Ġleben sl
ha ven
Ġ7 4
ĠFried hof
ĠCha os
r al
ĠG PS
Ġbe urteilen
Ġeinge st
Ã¤ ht
ĠAktiv itÃ¤t
ĠEin heiten
B us
H H
Ġauf zunehmen
ĠLand schafts
ĠFo od
Ġex terne
all tag
I hr
ĠÃ¼ber legt
bes itz
ĠBef ehl
ris iko
E ner
ĠBe at
ĠMag deburg
ĠCo ckt
ck el
stÃ¼ck en
ĠTa sten
Ġge gessen
ĠR ande
Ġver bracht
ĠÃľber setz
Ġbed ro
minister in
ĠJes u
Ġgr and
Ġstaat lichen
ĠÃ¼ber setzt
K arte
y t
Ġs ur
eh o
b ot
sch alten
u den
Ġm at
ĠVerteidig ung
pl us
Ġh arte
! Â«
ĠR ass
Ġfinanz iell
Ġauf bew
gr unde
mÃ¶ gliche
ĠMe yer
c le
tur e
ĠKontakt formular
wa ffen
ĠVers uche
ĠWel pen
Ġverw Ã¶hnen
ĠK ette
Ġle ute
f assen
Ġattra ktiven
Ġverein baren
ĠverlÃ¤nger t
W erk
ĠN ieren
form ationen
Ġq m
ĠR oland
Ġgerade zu
us el
ĠVer gnÃ¼gen
wie gen
Ġ19 60
Ġgeh olt
h s
Ġausgew ogen
Ġtradition ell
Ġtr end
ar akter
ĠH eb
ĠO p
werk statt
le uchte
ĠGe webe
Ġerz ielte
Ġkonzip iert
c ia
Ġspiel ten
ĠMr d
gel te
g ige
ic ation
Ġvorhanden e
ĠkÃ¼ che
ĠAnge la
V ideo
zahl ungs
orien tiert
Ã¤l de
p ubl
em men
red ite
Ġauspro biert
Ġg rad
ĠMass iv
ĠVerfahren s
an sprÃ¼che
br un
ĠBes ondere
ĠHaus frauen
Ġco uch
ĠChem nitz
ĠZ wer
Ġb reiter
ĠSp itz
kl am
Ġkommen de
Ġn et
ĠGed Ã¤chtnis
ĠUnivers itÃ¤ten
ĠMuse en
Ð ¼
Die ses
ĠEben holz
ĠW obei
br ingt
ĠEcht geld
ĠAn ordnung
Ġ7 6
ĠSchul jahr
ĠPrem iere
Sch ule
Ã¼ch tig
Ġstud ieren
Ġda te
Ġdies be
ĠPf lichten
ra glich
ĠEnt decken
ĠPf ad
ĠM eist
Ġf ing
ĠP soriasis
ĠGeb ieten
Ġberuf liche
os kop
ĠB lo
erk rank
s burger
ĠB L
Ġt reu
ĠÃ¼ber s
ran ge
b rot
r ichtet
ĠFl ag
Ġw em
ĠEin em
Ġb ook
wer tige
ok uss
ĠBel gien
ar ina
ir bt
ay a
ĠZusammen fassung
ĠSch auen
ĠV eget
Ã¤ch ern
Ġex klusive
iter atur
ĠRÃ¤um lichkeiten
en ster
ĠFer tigung
ĠEnt s
Ġdein es
produ kten
vor gang
ĠVi br
ĠBe urteilung
ĠAG B
ĠB ang
ĠKal orien
ĠOut fit
Ġar sch
ĠR ichtige
ĠEin zug
unter gang
Ser ver
d isk
ĠZu verl
kl icken
ĠMar ien
ĠGel b
ĠIntelligen z
ĠL abel
ell ung
h Ã¤ngt
ĠP ed
Ġ6 1
teil ten
v es
Ã¤ ure
ĠFl u
ĠWh ats
ĠWir ksam
ĠmÃ¼ de
ĠfrÃ¼her e
ĠLux em
e ffizienz
ien ste
ist iken
ĠMar ie
P ress
ĠBal ance
Ġlau ter
Ġkultur elle
ti z
Ġge lo
ĠOr chester
ĠTal ent
a aten
l ampe
ver g
Ġhol t
zep ten
Ġak adem
ĠSt ro
ĠE va
ĠVer schlagwortet
ĠC ab
ĠSchn Ã¼r
Ġag gress
Ġb rennen
Ġgr at
Ġein her
Ġ3 000
Ġzwei er
Ġneben bei
tig ungen
Ġneg ative
G ew
ah a
ad et
Ġeigen em
ĠLei d
zess in
h ilf
ĠEl f
Ġschw ed
ĠE tik
ill on
ĠAb fall
ĠFahr zeugen
ul dig
Ġvers and
ĠLiefer umfang
Ġzul Ã¤ssig
Ġnach gewiesen
Ġgenau en
Ġverlie hen
Ġleiden schaft
On line
ĠJava Script
Ù Ħ
Ġgef angen
l och
Ġo p
ĠAn bietern
Qu alitÃ¤t
Ġrei bungs
Ġschwier iger
Ġ09 00
ĠGir l
Ġbrit ische
ĠM ake
Ġflex ib
c ts
ĠG ehen
Ġvoll stÃ¤ndigen
2 000
Ġm achst
ĠT enden
ekt ar
ĠB Ã¤r
ĠT rÃ¤ume
ĠEr hebung
ĠAb bildung
Ġ Å
Ġvor liegt
Ġlange m
ĠRis ik
n ten
Ġausge glichen
ĠR ub
ĠDu sch
Ġvorber eiten
wor tete
organis ationen
Ġschwier igen
u alitÃ¤t
er isch
anst alt
Ġdro hen
Ġb inden
itz ung
re form
ĠMos kau
Ġentscheiden den
mil ch
ul ierung
gesetz te
w Ã¤l
ĠS now
ĠM einer
Ġger Ã¤t
ĠFein d
Start seite
ĠPig ment
ĠH ill
ĠBrun nen
ch ancen
Ġl as
Ġsie hst
vor schriften
eln d
r w
ĠL y
sen de
ĠVi agra
ĠA V
ĠH R
ĠAus richtung
Ġbest Ã¤tig
EL L
val u
ĠSch ade
ĠInn sbruck
s heim
fÃ¼ t
ĠFinanz en
M I
ĠL isten
s arbeit
se hr
ĠMiss brauch
ĠM eilen
ĠV Ã¶l
Ġre flekti
pro bieren
Ġfinanz iert
Ġg raf
Ġkrit isiert
Ġumge kehrt
ĠT irol
ĠLang zeit
ĠVit am
S k
Ġviel fach
Ġgesch w
y pt
Ġb acken
ĠW ahlen
ĠK Ã¼n
ĠAb stieg
ĠWeb cam
ĠIntens iv
Ã¶ die
ĠPlay er
II I
kap ital
ĠExper imen
ĠEinblick e
el ing
ach s
Ġbew ahren
ĠWart ung
6 00
K at
Ġh aftet
Ġange wendet
abl auf
Ġzu geschnitten
Ã³ n
ĠW it
aus weis
bl icken
ĠHerz og
ĠVorsitzen den
ĠH agen
ĠBundes wehr
Ġdeutschsprach igen
wie der
ĠKennen lernen
ĠB ug
ĠG au
âĢ ī
ob s
Ġges chenkt
ĠRubr ik
ir gt
lei det
wert ungs
Ġinter nen
r er
Ġk a
part y
ĠVerl Ã¤ngerung
Ġneg ativen
Ġn ationale
ĠP i
Ġkomfort abel
ĠBr ett
H ome
Ã¼ sten
Sp ez
ĠR oten
ĠAus stellungen
be zug
ĠProt okoll
ĠDar in
initi ative
ĠK ell
ĠhÃ¶ch stens
ĠjÃ¼d ischen
ĠR Ã¤tsel
ĠProf it
Ġschrift liche
Ġc lub
ĠFel sen
Ġangen ehme
ĠAn lauf
ĠSat tel
ĠE w
Ġweiter entwick
ĠT ech
Ġzum eist
ĠK anzlei
ĠNie mand
rate gie
el bst
pro gramme
ĠLie gen
ĠKontakt aufnahme
ĠC ra
ĠFl ur
ĠWer ken
Ġjen en
Leist ungs
Ġl anden
ĠVor gang
Ġbef reit
B as
ack s
Ġmusikal ischen
Ġle cken
ĠGl Ã¤ser
Ġabge lehnt
ĠK en
z ucht
il y
ĠS R
ĠPrÃ¤ senz
di mension
Ġh or
ĠBe denken
ĠÃľber n
Ġan geben
ic tion
Ġzweit es
h elfen
rÃ¤ u
Ġm ater
Ġberuh igen
ĠkÃ¼mmer t
j ugend
ĠS ven
Ġselbst stÃ¤ndig
Ġsl ots
Ġge bur
la sten
Ġbef reien
H A
ĠH amm
ĠHo use
ĠweiÃŁ t
ĠGef angen
Ġausgel Ã¶st
ĠMobil funk
ĠEffe kte
ĠMaÃŁ nahme
ĠSens or
ĠBe frei
ateg orien
ĠRen ov
og an
ĠprÃ¤z ise
ge webe
ĠAus lÃ¤nder
ĠRos a
Ġg rib
Ġan n
B ez
ar ing
ĠW ende
ĠK ron
ĠP osit
Ġk auft
rie digung
ĠNr w
ĠS D
ĠClau dia
r elev
Ġange p
problem e
em and
Ġbek amen
ĠSchwei ÃŁ
ĠAdr ess
Ġp at
Ġant worten
Ġneugier ig
ilder t
Ġeinzel ner
ss icherheit
ĠSol idar
ĠBrem s
B and
ĠClub s
ĠF aust
ĠGebrauch s
Ġbo den
an ik
ĠW ut
sp ur
iv a
bar ungen
Ġfamil i
ach ing
m or
ck ten
ĠHei de
Ġweib liche
ĠDaten verarbeitung
Ġ Ã¤
ĠD L
ant ra
ĠzukÃ¼nf tigen
Ġruh igen
et it
ein halb
str and
Ġbegr enz
Ġmit unter
ĠnÃ¶ tige
Ġange f
Ġsch lie
ist a
ĠSa ft
ichter stattung
ĠSne aker
N icht
r ab
ĠSem ester
end em
d h
ĠDe al
ĠFlÃ¼ ge
st anz
ĠI hm
Ġer for
ĠH Ã¤ufig
ĠKlin iken
Ġle hr
ĠEhe frau
f aden
er ing
R ed
ĠR ente
Ġver passt
ser fahrung
b ation
was ch
Ġ8 8
f elt
st eig
eben e
ug h
ĠLie ge
kÃ¼ ste
Ġsen ken
om s
gem achte
Ġbisher ige
u ckt
Ġis rael
ei det
ĠEr ster
zen te
haupt stadt
ir oler
ĠSch am
ĠLand haus
ĠFot ografen
ĠGitar re
W G
ĠLebens jahr
wach s
ĠpersÃ¶n licher
Ġerf reu
Ġbl og
Ġkonf ron
P G
l Ã¤ufig
st u
ĠErmitt lungen
Ġleb te
Ġbest anden
Ġaut o
ĠHel m
m eier
ĠPo ster
ĠZahn arzt
ĠGlob al
ĠFach bereich
ĠEng ine
Ġvoraus sichtlich
Man agement
el ekt
ĠN acken
be eren
Ġkomp at
ap ier
ĠHyp ert
ĠL inden
Ġangemessen e
Ġge leitet
ho use
Ġkon serv
Ġausgew Ã¤hlte
f abrik
ĠR y
Ġn etten
and in
ĠHerr schaft
Ġst ol
gehen den
grenz ung
p df
ĠSauer stoff
tre tern
O F
S m
haus halt
ĠKar ne
w ann
ch tet
Ġzusammengef asst
Ġd anken
zon en
asch utz
ĠA gr
ĠH atte
Ġk ind
ĠSchie ds
h inter
ĠA ward
ĠI G
esch Ã¶n
pon enten
v ille
ĠV ER
Gem ein
Ġverl Ã¤uft
ĠFunktion alitÃ¤t
ĠM iete
cht ung
Ã¼t zlich
ĠKn ei
un ion
ĠU RL
Ġa fr
Ġhef tig
ĠSab ine
v ed
zentrum s
sch alter
Ġre cher
ĠMar co
Ġfolgen der
Ġrob ust
Ġver legt
ĠSt yle
Ġbes uchte
Ver hÃ¤ltnis
S icherheit
k ost
qu alif
Ġmin imal
Ġschw immen
ĠZ ins
ĠFort schritt
ĠS ehn
ĠZahl ungen
ĠBand s
p osit
ĠUhr zeit
Sch w
Ġgesellschaft liche
mpf e
in stall
Ġw a
ĠI D
Ġger Ã¤um
Ã¶t z
ĠReihen folge
I B
st ad
rei ÃŁen
Ġleben dig
Ġerfahren e
Ã¼t tern
Ġerf assen
ĠD orn
Ã¶ re
ir ekt
Ġr isk
ĠPort folio
Ġzu grunde
bi bliothek
ĠgÃ¤ng igen
ĠL Ã¶cher
Ġf ett
ord nungen
ĠF Ã¼lle
et ische
den kt
Ġp reise
Ġ1 01
ver teilung
ungs zeit
Ġdeut liche
spez ial
ĠT U
z em
ĠOrg asmus
ungsver hÃ¤ltnis
Ġlin ke
Ãĥ Å¸
ĠÃ¶rt lichen
ĠR ent
ungs los
Ġbekannte sten
m ak
ĠpersÃ¶n liches
Ġs ens
ĠPro ben
ĠmaÃŁ geblich
Was ser
-------- --------
ĠClass ic
Ġanbie tet
ĠVort rÃ¤ge
ĠKomp osition
ĠEing riff
Ġzwischen durch
inform ation
i j
ĠGut scheine
ĠEin klang
ĠHon or
ĠElis abeth
ĠM id
ĠH Ã¼tte
Ġsch loss
Ġab gew
ĠNe ck
ĠBestell ungen
ĠNik ol
ĠPal ette
ĠD aumen
gerichts hof
sp ark
ĠFort setzung
ĠWaren korb
» ¿
ĠIn fektion
T o
ĠSch Ã¤d
Ġent worfen
ĠÃĦ l
ĠO x
zu behÃ¶r
ĠY outube
Ġbun te
her stellung
Ġbet ragen
ĠKond itionen
Ġerz Ã¤hlte
ĠSol o
ĠInhalt sst
L ie
u hren
ab elle
ĠC C
Sp iele
I t
Ġw eiten
Ġge klÃ¤rt
ĠN ike
ser klÃ¤rung
achst um
g rau
Ġfil me
ĠNetz werke
Ġm un
Ġm oral
ar me
Ġrecht liche
AR T
Ġgener ika
Ġintens iven
E d
Ġ[ *
Ġau gen
y k
ĠEx port
Ġbeein druckt
Ġ- --
he b
ĠVor les
od a
cy cl
ket ball
spiel t
ĠH S
bezogen e
ĠfrÃ¼h zeitig
ĠFl ash
Ġpro m
ĠChamp ions
p orn
de d
ĠMa j
Ã¼b ungen
st ark
Ġgeh andelt
d rom
f ters
ĠHandhab ung
ĠD B
ĠKon zeption
ir a
Ġr einen
ele ase
ĠMet al
Ġ8 2
n och
ul ator
ĠgroÃŁ artige
Ġchrist lichen
âĢ İ
ĠdÃ¼n n
ĠS Ã¤tze
ĠKolle g
u v
Ġkomplex e
ĠRet ro
leiter in
umm el
ĠberÃ¼hm te
Ġin mitten
ĠT ruppen
Ġvor erst
Ġmon tiert
ĠEind rÃ¼cke
abr Ã¼ck
lie s
An halt
auber n
akti k
Ġeingeb unden
u en
Ġverl aufen
ĠSteiger ung
er es
ĠG Ã¤rten
ĠPap a
or ial
ĠErn te
Ġsp art
ĠÃĸff nung
Ġvirt uellen
Ġm ut
ĠUm kehr
ĠEing angs
Ġro sa
ĠSpe cial
ĠEle ct
ĠK orn
Ġk redit
Ġbr achten
Ġschl ank
all t
ĠAus sen
Ġerw Ã¤hnen
Ġbrau chte
Ġexklus iv
d l
Produ kte
so weit
ĠUr sprung
ĠSa tell
Ġbew Ã¤ltigen
verb Ã¤nde
Ġvers etzt
Ġmittel alter
ĠKf z
m Ã¤dchen
ĠTex tur
ĠEt a
ĠRost ock
Ġw ich
Ã¼h ungen
Ġum stritten
ĠEx press
ĠHaus arbeit
ĠEinschrÃ¤n kungen
beteil igung
ĠK it
Ġneu este
ĠMed ium
ĠSc ience
gelen k
Ġelektr ische
ĠF ro
wei ger
ĠDir k
ĠTo de
ĠD rag
ĠF asch
ĠWill i
m asse
ĠSog ar
an ch
Ã¶ pft
om Ã¶glich
ĠHaus halte
ĠR on
Ġtrain iert
Ġun Ã¼ber
Ġb itter
we sten
Ġu eber
ĠNor wegen
ĠÃ¼ber leben
geb unden
schied et
ĠKauf preis
Ġver nach
ust ik
m Ã¼
bas is
ges chenk
spekt rum
h Ã¤n
zu bilden
St G
Ġschme cken
pro ben
best Ã¤tigung
ĠKok os
wa ff
icen ummern
ĠFest platte
Ġitalien ische
ĠP H
Ã¼tz ten
K V
p rinzip
Ġ licht
Ġlang leb
Ġd ritt
Ã¤n zer
Ġsport lichen
t our
ĠVermÃ¶gen s
Ġbefest igt
ĠArbeitspl Ã¤tze
ĠAn kÃ¼ndig
ĠEr furt
ĠEr ziehungs
op s
ĠL ass
freund liche
ei fen
Ġz eige
ĠK Ã¤r
ner s
pr es
Ġer arbeitet
ĠC ru
ĠBes atz
bel euchtung
ĠLebens qualitÃ¤t
Ġzw anzig
bl es
Ġne w
ub le
ĠWar n
ĠSemin are
mit te
ĠMarkt platz
Ġverwand elt
ĠWurz el
T B
ĠBo ck
ĠBar s
ĠGitar ren
d ichte
Ġwunder baren
Ã¶hn t
Ġb rechen
ĠM otoren
schm uck
ĠUp dates
ech te
Ġ1 15
be stimmung
ĠSen at
l ust
Ġwieder hol
Ġzw ingen
Ġent gehen
ĠPh arma
k raut
ĠD og
ĠE k
akt or
P M
ag a
rit ing
ĠVer fassung
ĠÃ ł
zul ernen
Ġein ges
âĢľ :
ĠStr assen
Ġalt es
Ġsport lich
mittel ten
ĠSho pping
ĠH TML
ĠL am
re ens
Ġsl ot
at i
Ġan legen
eiter t
vor sorge
ĠGen ossen
Rei he
ei dung
ĠGeb Ã¤uden
pr esse
Ġaltern ative
, ,
aktiv itÃ¤ten
ĠKlass ik
S Ã¼d
Ġan gel
lei h
op e
Ġres pe
bas ierte
ĠViel mehr
sem it
En d
ĠPir aten
I O
ĠW ahnsinn
Ġgen utz
sn abrÃ¼ck
u tern
Ġw ohnt
i ation
be am
ĠPro vider
Pl attform
fÃ¼hr ende
ĠInnov ationen
Ġdokumen tiert
L ink
ss atz
ĠÃ¼berw inden
Ġg Ã¶n
ĠÃ¼ber ein
Ġver sprochen
Ġ8 6
ĠW im
ti se
ĠH ang
Ġfol gendes
UN D
Ġkathol ischen
ĠUnter kÃ¼nfte
ĠBo ard
Ġ Ã¤st
12 5
ĠAd d
ĠGem Ã¼t
ĠSie gen
hab e
ĠReg al
Ġged reht
ĠÃ¤lte sten
a al
ĠW ww
ĠEnt spann
wÃ¼r dige
Ġfoto community
Ġst Ã¶rt
Ġsex uelle
D o
ĠG ift
Ġver sprechen
ser satz
eigen schaften
ĠWash ington
ĠPh ysi
urn ier
ĠG ig
ĠH Ã¤nd
Ġein geben
Ġm inder
ĠProjekt s
ĠK im
ĠBl asen
ren ten
AN N
Ġ07 00
Ġinnen architektur
ur y
ĠBest seller
ur es
ĠIn fl
Ġbe denken
Ġd ruck
ĠKamer as
Ġsicher er
Ġd amen
Ġanalys iert
Ġher bei
ĠFahr en
Ġbede ckt
Ġerheb liche
Ġweib lichen
Ġi sol
ĠZ DF
Ġaus k
ĠSp rech
pl Ã¤ne
ĠW eich
ĠRecht sprechung
ĠEm p
Ġsport liche
Ġed el
ĠVer schw
ĠAn stren
ĠOst see
ĠRund funk
rau chte
prÃ¤ sen
ĠWal zen
ot herap
os h
reg ister
or ger
zw ald
ĠSch alter
ĠPl attformen
r us
ĠB ell
Ġautomat ische
Ġw inter
ĠEin leitung
Ġserv ice
ĠH av
alen te
ĠFilm s
ĠK ick
Ã¶ gern
no te
ĠSeit dem
ĠWettbewerb s
system en
ĠSatz ung
p ommern
ĠT eich
Ġgef reut
Ġ9 4
Ġverab schiedet
ari fe
Ġkre ativen
Ġserv iert
Ġan kommt
vor stand
ĠV intage
re che
aut or
Ġerf reut
t z
ĠV amp
ver hÃ¤ltnisse
Ġkl im
mungs aktiv
Ġe ck
c ing
ass age
ĠDat es
f ast
kt oren
ĠLebens lauf
ĠLebens dauer
Ġro bu
Ġh ave
ĠF ingern
ĠL ar
ĠRei cht
ĠAt lan
t temberg
Ġunter gebracht
ĠDies mal
Ġvertrau ens
Ġh under
Ġbek annter
Ã¤r kt
Ġintegr ierten
st au
ĠZ unge
ĠPh asen
ĠInteress ierte
Ġw Ã¤hlt
ĠA ar
ĠDe f
ĠMig r
reich ung
ĠTreff punkt
ĠZenti meter
vis or
Form at
d ating
d ies
Ġd rÃ¤n
ĠH aken
Ġver passen
Ġweiter gegeben
ĠL uther
ĠKunden service
K o
l itz
ĠSie he
ĠEigen schaft
ox id
ĠKlass ische
F ot
ĠP ixel
Ġm Ã¼nd
ĠF inde
ĠG lei
Mod us
ĠP aten
ĠGar age
Ġbetrieb s
d ose
Ġlang jÃ¤hrigen
leben s
ĠA K
ĠA z
ĠgrÃ¼nd lich
el den
Ġc ir
ĠMex iko
B i
Ġent z
Ġbr ut
ĠA cker
Ġlei det
Ġhochwer tig
ute te
hle ten
ĠRum Ã¤n
Ġst reichen
qu ar
fach e
ĠEnt sch
ite kt
ĠFrieden s
hor st
ĠD ur
Ġn Ã¼tzlich
o is
ĠOr gel
Ġvereinbar ten
ĠStra hlen
Ã¼ me
ĠAn hang
Ġvor geschlagen
N ord
ĠBeg leit
ĠStand orten
Ġidentifiz ieren
au x
on st
Ġ7 9
ov olt
ĠCo up
stra fe
schul d
gra de
b Ã¤ume
ĠSt rick
Ġ2 20
Ġver grÃ¶ÃŁ
Ġstaat liche
ĠF ix
Ġg Ã¤n
ĠEr fahren
ĠPromo tion
ĠE G
ver f
ĠQu al
Ġlei d
ĠB G
Ġange hen
ĠSport s
ĠEinz igar
or etisch
ĠVer teilung
ĠWachst ums
Z ur
ĠTh or
O ut
ĠK rei
ig sten
ĠHand lungen
Ġleck ere
ĠThail and
m ien
200 5
ĠM ega
ĠGrund satz
Ġlo hnen
Ġgeschlossen en
Ġbetreffen den
Ġzur zeit
vent s
m ond
ĠTob ias
Ġre gen
ĠFot ze
Ġbesser es
ĠAd am
ĠNavig ation
ĠK asse
Ġst adt
dig keit
Ġland wirtschaft
Ġrecher ch
ĠJ enn
ĠNachbar schaft
ĠAns ichten
Ġ5 000
Ġjahr e
ĠInstitut s
krank ungen
st ift
Ġin st
ĠKlÃ¤ger in
er l
tig keiten
wer ter
Ġintegr ierte
Ġunbek annt
mod us
on ien
ĠE ch
Ġt reibt
ĠFre undes
ĠGrÃ¼n e
p acken
ĠWer kt
ĠRe chten
as ing
ĠG eister
Ġhervorragen den
H allo
ĠE u
Ġleck eren
X X
s iv
Ġn annte
bs au
ĠFlÃ¼cht ling
Ġre ad
ph y
ĠFol ie
mo tiv
ĠB len
Ġj ens
ast ik
ĠSch ritten
ĠVerein igung
ĠB j
ĠTa geb
itz el
ĠPor sche
Ġverhei ratet
ĠG ardinen
Ġel ast
ĠRe zension
ĠAngebot s
met all
ĠBack ofen
ĠZeit alter
spiel zeug
an aly
ĠShem ale
a unt
splan ung
Ġab gerufen
den klich
Ġaus gerechnet
Ġfor derte
ĠEin st
ĠsÃ¼d lich
minister iums
Ġenthalten en
ĠPiz za
ĠStoff wechsel
wissenschaft ler
Ġvern Ã¼nf
ĠGÃ¶tt ingen
le kt
Ġ19 44
ĠK iefer
af eln
ĠC ost
la w
ĠVor sorge
Ġger ichtet
Ġirgend ein
ĠGest altungs
Ġengl ische
ĠP y
ri ppe
mal en
eim ar
ĠG abr
ap h
Ġkommun izieren
ri um
iden z
Ġnutz e
ĠT ok
op tion
ahn t
k ann
ro cken
Ġhin unter
ĠFrei spiele
ĠFuÃŁ gÃ¤nger
ikan ischer
ĠF liegen
ĠLand gericht
ĠHand werker
Ġhinzu gefÃ¼gt
ĠM ust
ĠStÃ¤r kung
ĠPrin z
wahr scheinlich
ĠT Ã¼b
stand ards
ĠkÃ¼ hl
ĠRob oter
Ġhin weisen
Ġ7 3
Ġbr and
ĠFranz isk
z iert
mon at
Ġanalys ieren
ĠInterview s
K unst
ĠF ut
ĠP utz
Ġk olle
Fil m
ĠWirksam keit
ab schnitt
sk ammer
ĠÃĸff nen
ĠSch ool
EN T
ĠSchi ffe
der e
ĠL achen
Ġbesch Ã¤digt
ffe kte
ĠKartoff eln
ĠFarbt on
pp y
Ġengag ieren
B L
k etten
Ġzu kommen
Ġan wenden
Ġauf geben
ĠBay erischen
Ġinspir ieren
ĠRichtig keit
ĠtatsÃ¤ch lichen
Ġan treten
Ġbein halten
ĠgewÃ¶hn lich
A k
J o
k amer
pl o
Ho tel
Ġun klar
' '
ĠPortug al
ing ert
Ġdem entsprechend
Ġ arm
Ġpr ima
ĠHypert onie
Ġman cher
Ġviel seitig
Ã¤m mer
Ġgeb rochen
Ġi ll
ff in
ĠBek annten
ĠB Ã¶rse
ĠAbhÃ¤ng igkeit
Ã¶ pfer
aut o
ĠEinzel nen
ĠAsi atische
io se
l or
dir ektor
ĠG Ã¼rtel
ak i
Pl an
ĠO ver
ok raten
ĠB ob
Ġher zustellen
ĠPar allel
k enn
gr Ã¶ÃŁer
es er
il deten
bst ahl
Ġverb leiben
ĠZwe cken
Ġoptim iert
ĠKlim aschutz
on ach
ĠW uppertal
Ġvor ange
Ġbr ach
Ġbeant ragen
F L
12 4
Ġb rem
fer enzen
Ġex tern
ĠZul assung
Ġ ten
ĠM ater
ĠUnabhÃ¤ng igkeit
ĠD est
Ġver glichen
lo h
ĠPol ster
t u
Ġpro duz
Ġmitge teilt
Ġkompeten t
Ġder artige
For um
Ġ9 2
ĠL av
wie se
ĠZeit schriften
Ġabsolv iert
ir chen
Ġkon stant
ĠCom ic
Ġw ochen
Ġ19 50
ĠUnterricht s
kul atur
S how
grÃ¼n dung
C ont
ym ph
m Ã¤ssig
Ġrei fen
ĠmÃ¤ch tig
c s
Ġkon vention
Ġinternation aler
sex t
Ġs ommer
ĠPl at
Ġange wand
Ġausge wiesen
Ġzu geordnet
Ġp en
ĠP ausen
ĠSo zi
ĠGeb Ã¤udes
ĠErgebnis sen
ĠGleich gewicht
ĠPoten tial
stell ern
ĠMo z
kr ise
Ġb onus
ĠDaten Ã¼ber
ake ten
ĠherkÃ¶mm lichen
ĠH Ã¼r
ystem e
ĠEhem ann
ĠSta ates
ĠM alt
Ġin folge
ĠL eh
Ġdass elbe
z icht
ĠVerpflicht ungen
Ġfrem de
bl umen
Ġorien tieren
Ġf lie
ĠZw ang
Ġzug unsten
sam er
Ġleist et
ĠZeit ungen
alis ierten
Ġgebur t
Ġs ho
Ã¤hr en
ĠMÃ¤r kte
ĠVertrieb s
be kleidung
Ġgleich nam
Ġzeit genÃ¶ss
H eute
ĠG ust
ĠVersicher ungen
D ach
ĠMal erei
ĠSpann ungs
Ġverwende te
ĠfÃ¼n ften
Ġ enden
mar sch
ĠSh irt
ĠBÃ¼nd nis
Ġge lieb
ĠX L
Ġkomplex en
T P
m ir
ĠRo te
ĠglÃ¤n zen
Ġvor wiegend
zu halten
Ġpo ppen
ĠAR D
W M
ĠW elle
Ġan schau
Ġdauer te
ge legen
Ġein ig
ĠEurop Ã¤
ĠCas h
St re
ĠfrÃ¼ he
ĠPil ot
ĠAb gabe
ĠLin z
Ġs Ã¼ÃŁe
ĠAn ne
Ġpart y
kon stru
ĠPublik ationen
verk usen
ĠStem pel
sch ale
ĠGeb iete
kon zert
sor ten
Ġeinzus etzen
F in
Ġins zen
ĠMedik ament
ĠN ort
Ġb ra
vers and
ĠFin al
Ġerwachsen e
ĠEin steiger
ĠDem o
ĠDon ald
Ġanges agt
empf ehlen
Ġenorm e
S I
Ġvers ichert
sch laf
el ement
Ġwohn ung
V A
n ot
ĠSch wert
ĠWÃ¼r zburg
ĠMig ranten
. ;
ĠKon f
Ġ9 7
Ġzeit lich
ĠAnder erseits
ĠAn reise
ĠEin s
ĠMar i
lad ungen
Ã¤u er
Ġeurop Ã¤
m anden
t rÃ¤ger
ti me
ru p
Ġabsol uten
ĠF aden
Ġernst haft
g itter
Ã¤ tigen
Ġr aten
stra ÃŁen
Ġ ÂŃ
ĠVer stand
s Ã¤ule
ber s
Ġer b
Ġman geln
Ġ4 50
ĠStra fe
ĠBesonder es
h und
ĠhÃ¶ re
ĠÃĦr ger
ĠL ag
ian er
ĠHier fÃ¼r
ĠRÃ¶ mer
hn te
wÃ¼n sche
ĠV I
ĠR ast
ĠSt all
ĠSt ark
stra hlen
ĠStr ich
at ien
Ġer frischen
ser n
Ġmodern es
Ġunmittel barer
Ġgew iss
ĠBl ond
Ãľ R
ĠAmer ican
ĠNeu stadt
Ġirgend was
air e
ĠArm ut
inten do
zei le
ar is
Ġb lo
ĠSt olz
Ġall mÃ¤h
s fÃ¼hrer
Ġso for
verl etzungen
ĠUnivers al
Ġk Ã¤
ĠL enk
Ġ ~
Ġs hop
ĠSch lieÃŁ
ĠÃľber legungen
ĠK alt
ĠT unnel
Ġ15 00
ander s
ĠRoy al
Ġre duz
ĠWÃ¤ sche
Ã¶ op
ES S
sp erson
ĠFÃ¼r sten
aun a
ĠTast atur
K unden
ĠF alten
ĠLieb haber
gew orfen
ĠA y
Ġben ach
fÃ¤h igen
ĠgemÃ¼t liche
o z
ab ile
ĠAm ster
Ġexklus iven
ĠBetracht ung
Ġs eht
Ġunverb indlich
Ġwie s
ri ce
Ġverl Ã¤ss
ĠWeiter gabe
ĠnÃ¤ch st
Ġorien tiert
K ur
ĠSp in
en g
ĠB lech
fe kte
Ġeinz uf
Ġdrei mal
rid ge
ĠFantas y
.:.: .:.:
ĠBeliebt heit
ĠZ oo
chn ik
person al
B ro
l Ã¤uft
Ġausge geben
Ġtechn ischer
ĠDel eg
D r
ĠW ester
ĠAn schrift
Ġbestimm ter
ĠServic en
Ġso oo
Ġmittler e
ĠG ymnasium
Ġgemein nÃ¼tz
ĠR Ã¼st
ed y
Ġeinz iges
kr atz
ĠPubl ikation
ĠVern etzung
ch or
Ġher ab
ĠGel enk
ate x
ĠGlau be
ĠkÃ¶rper lichen
ĠZuverl Ã¤ssigkeit
ĠS we
ĠD ess
ĠQuadrat meter
G eh
Ġab seits
ĠHer bert
ĠHÃ¼ gel
Ġs inken
os se
ĠSor te
amer ikanischen
C ar
Ġk na
ĠPrÃ¤ z
Ġf Ã¤llig
ĠC orn
ĠPod cast
ir st
ĠH ert
ĠO pel
ko pp
ĠMall orca
ĠBes etzung
belast ung
% ,
ĠSar ah
Ġun i
Ġver schen
Ġerw ischt
ĠAl fred
techn ologie
ĠVer wir
ĠGesch ichts
S pe
Ġinteress ierte
sch un
ĠC art
Ġv ierte
de kor
12 3
ĠCont ainer
in chen
Ġzu stÃ¤ndige
wend bar
in ent
ĠÃľber nacht
ĠFre quenz
ĠMittel meer
nach mittag
Ġaust auschen
Ġfor um
F H
M ain
Ġge lebt
aus s
op tik
ĠbenÃ¶ tigten
Ġwelt weiten
Ġreich hal
Ġdiff erenz
D em
Ġwie viel
stell ers
Ġinteress anter
ĠPrÃ¼f ungen
Ġjeg licher
ĠgroÃŁ artig
Ġse el
âĢ ¹
Ġh ome
Ġangen ehmen
ĠAus flÃ¼ge
st het
Ġein f
ĠSel ber
Ġer kl
Ġbe achtet
ĠPer len
Ġ198 7
Ġmit bringen
ĠGewinn spiel
ungs kosten
ĠDienst leistungs
ĠKom pro
Ã¤u ÃŁer
Ġkonfron tiert
Ġbegeg net
Ġende te
I X
ĠS K
ĠLa sten
C l
ĠH ER
op tionen
ĠPf anne
Ġkennen zulernen
part ei
ĠGabr iel
K ultur
Ġn ich
heim ischen
ĠChr is
ĠSk ulpt
C C
one y
ĠB reiten
ĠZ ier
schie ÃŁen
F Z
ha i
P erson
Ġ7 1
ĠNeu gier
ĠLeistungs fÃ¤higkeit
Ġbast eln
Ġg ucken
Ġ8 4
Sch l
ĠLi quid
ĠH Ã¤usern
Ġsch ick
beh and
Ġerhoben en
ĠWahr scheinlich
wirtschaft s
D isk
Ġf ung
ĠP kw
AS S
Ġwid men
it o
onn a
ĠLay out
P ark
eu en
ĠRe zeption
ĠÃĸsterreich s
ĠHand ball
Ġverantwort ungs
ĠEr g
Ġausgeb ildet
Ġv s
kl ima
ĠEl l
ĠF uchs
ĠAus dauer
ĠKÃ¶n igin
Ġz ivil
hol ungs
ĠP Ã¤dagog
Ġgew isser
ĠReich s
c ed
ke pti
ĠE last
se g
ĠSch immel
rit zt
iz er
ĠL Ã¤ufer
Ġp al
ĠSchn Ã¤ppchen
ĠWirk ungs
y ball
Ġge lingen
ĠEr fassung
Ġsch reib
ĠPat ent
Ġerfolgreich er
Bet rieb
Ġs uchte
ĠS GB
us alem
jahr e
Techn ik
ie de
ĠAn sÃ¤tze
sh ausen
Ġfreund lichen
ĠN an
zul ande
ĠVic tor
ĠP el
ĠHor izont
ĠN AT
ĠC ard
ĠauÃŁergewÃ¶hn liche
ĠZ Ã¼ge
ĠSingleb orse
Ġgen ieÃŁt
i pps
Ġsp anischen
Ġteil zunehmen
andin av
pol izei
Ã¼ len
ĠG ay
sch reiber
om bo
ĠIn stand
Ġc le
Ġfreund liche
M e
h ub
Ġm otor
G O
gel ernt
ĠTum blr
ĠN ICHT
ĠEin sÃ¤tze
zwe cken
ĠBedÃ¼rf nis
ĠnÃ¶r dlich
Ġspir itu
Ġh ellen
Ġmit teilen
Ġ( +
ĠschÃ¶n ste
angeb oten
ĠEcht zeit
ĠAro ma
ĠAkte ure
auf lage
Ġerst reckt
Ġamb ul
W L
Ġdurch setzen
ild es
Pro zess
ar o
A K
ĠRe view
ĠWelt meister
ĠMedikamen ten
Ġl ine
Ġgr Ã¶s
Ġer arbeiten
Ġweb site
tau scht
em mt
Ġblau e
ĠF reu
ĠâĤ¬ .
Ã¶ der
Ġk ol
ĠT ausende
ĠSch rÃ¶
if iziert
Ġfol gend
Ar tikel
Mark eting
D on
ĠHerstell ern
ĠB un
ĠAkt ie
Ġzer tifiz
ĠP osten
ĠStil le
ĠLetz ter
! .
Ġaufge geben
b ier
ak el
Ġein kaufen
ĠAuf satz
ĠFrem den
ĠBereit schaft
M eine
Ġst Ã¶ren
Ġ ).
aus fall
Ã© e
gemÃ¤ ÃŁe
uch tet
T er
pul ver
ĠEi weiÃŁ
ĠPanor ama
ĠR av
oll o
ĠSystem en
Ġeurop a
st amm
zen en
ĠGrÃ¼n dungs
Ġendg Ã¼l
ĠSie b
Ġst ress
ĠKonfl ikte
ĠO t
ĠFran cis
Ġgew orfen
ĠEnt weder
ĠBes uchen
Ġgesp eicher
ĠWie se
Ã¼l tigkeit
ĠBÃ¼r gern
S yn
um pf
bio tik
rÃ¤ g
geb irge
hem a
Ġeingesch altet
ĠAb fahrt
sta ats
ĠUn bek
Ġko oper
ĠSorg falt
Ġm athem
ĠStellung nahme
ĠImpul se
ĠB ike
ĠW alk
ĠKr ypt
ĠVertrau ens
ĠTri ck
Ġstud iert
ĠBeschwerde fÃ¼hrer
Ġun ein
ĠAuf kleber
rat h
ĠB GH
ĠK rau
Ġwieder holen
ĠMon te
min uten
ĠG am
ĠAn lÃ¤
ĠOr ch
ĠLandes regierung
ĠPal Ã¤st
Ġober halb
ti mer
ĠC la
Ġwar f
ĠUm stand
ĠUr sprÃ¼n
k lage
r isch
ĠÃ¼ber flÃ¼ss
ĠBeitrag s
Ġz ogen
Ġzu geben
Ġge kl
st Ã¼r
ĠSch af
ĠSchw immen
Ġw ahnsinn
or i
Ġbade zimmer
Ã¤mt liche
bau ung
Ġerl angen
ĠVir en
me tern
ĠTest ament
ĠTrans formation
g it
ĠP rag
ĠSo cken
ĠÐ ¿
cycl ing
Ġgeb acken
ĠPr ime
ari at
ĠFantas ie
Ġnie manden
Ġdre hte
ĠWett be
Ġmotiv iert
Ġjens eits
icht lich
ĠN adel
ĠDe te
ym met
Ġverm ieden
ĠLou is
F arb
Ġn irgend
ĠO mas
ĠÃľber zeugung
ĠBo sch
f irma
ĠM etz
hunder t
ĠModer ator
b ul
p ad
ĠAb weich
ĠMÃ¼ hl
g uss
ĠSch lauch
Ġp ul
ĠMehr ere
Ãľ V
ĠSchei be
ĠKart on
ĠKais ers
Ġ17 0
ĠHan se
el ie
ĠC ott
Ġbenach bar
Ã¶r tlich
Ġdefin ieren
ĠKant ons
Ġge teilt
Ġab zum
ĠSp l
bew usst
d ann
Ġschl ag
ĠAust ria
ĠFÃ¼hrungs krÃ¤fte
ĠAus nahmen
asch a
ĠJ h
Ġst irbt
Ã¶r n
ĠWer de
ĠB w
ĠV il
Ġre alen
ente st
ied elt
ĠVer pf
ĠAuft reten
Ġbeant ragt
ĠKratz baum
ess eln
Ġdr Ã¼ber
Ġ9 3
Ġverl ang
ĠKranken kassen
ĠRelig ions
ĠHir sch
Ġvert eidigen
rein iger
ĠSel ten
ĠKapit Ã¤n
ĠSch Ã¤fer
ĠD unk
Ġh ar
ĠE if
amp ie
ĠDunkel heit
R es
S ol
um er
ĠAus schuss
ĠS ack
ĠW ollen
Ġerreich ten
ĠC um
Ġnachhal tigen
Ġpfl anz
Ġgr Ã¶sser
ĠRecht sst
ĠChar l
Ġfair en
ĠK anten
Ġ8 3
ĠArbeits losen
ĠAuft rÃ¤ge
200 4
wÃ¼r digen
ĠD Ã¼
je ktive
Ġland es
ĠSt Ã¼r
end igung
Ġ198 4
Ġs al
ĠProt ein
A ben
W eiÃŁ
ut scht
Ġbe geben
sto ÃŁen
hy d
ĠLin ke
fahr ts
Ġgesch Ã¤tzt
ĠGo ethe
qu enzen
ĠBr ille
k es
ĠCh ines
ĠZusammen setzung
ĠPar ameter
Ġschwar zer
ĠT reiber
ĠL etzte
un er
Ġschrift lichen
Ġunter m
Ġbeh er
utt o
ĠÃ¼ber sichtlich
Ġwei che
ĠVerbesser ungen
Ġfeier te
ĠVorm ittag
ant rieb
br unn
A t
ĠT asse
ĠBundes kanzler
res erv
P L
Ġauf recht
ĠgÃ¼l tigen
Ġversch oben
ĠUn ternehm
inter ess
ĠZeich nungen
ĠB auf
ĠProdu zenten
Ġabsol uter
ĠKÃ¶nig reich
Ġan im
Ġweiter ge
ĠFahr ten
ĠMitglied staaten
ĠLÃ¶ sch
Ġform uliert
ĠD opp
ĠE IN
auft ritt
ĠCamp us
Ġjapan ische
ĠVert rages
Ġmit zu
oc us
ĠS qu
Ġf ickt
ĠSp rechen
ĠFinanz ierungs
optim ierung
J e
ĠUnter grund
ĠFr ische
ĠStud ios
ateg orie
c ent
Ġrund um
ĠLi ft
ar at
ĠO ze
ĠTot al
ĠGe geben
Ġher ange
ĠSchul tern
ĠSonnen schein
Z immer
Ġgew id
gel ung
dr Ã¤ngt
ĠSp ende
ĠWei ber
ĠStr asse
ĠSch irm
15 0
ĠSE O
W S
he ater
ĠBeg rÃ¼
yr ight
B I
P at
w an
en ke
Ver Ã¶ffentlicht
orien tierten
ĠKap azitÃ¤t
Ġvergleich sweise
ĠS ession
Ġverw alten
ĠVerband s
ĠT C
ĠAn st
it us
Ġgelegen en
mÃ¤r kte
Ġe p
ĠerhÃ¶ hten
ĠHallo ween
Ġjapan ischen
ĠNahrungs mittel
st ationen
Ġsex uellen
Ġver schlossen
ĠBr ig
ĠWeihnacht sf
Ġst Ã¶r
k la
opp t
Ġbekannt lich
ĠFinanz amt
L ehr
Ġver hand
Ġuns icht
ĠMar x
Ġkeines falls
Mitglie d
ĠFl yer
ĠRo uten
Ġfehlen de
ĠKÃ¼nst lern
ĠMan uel
Ġfest er
steiger ung
ĠD own
Ġk alte
Ġherr schen
mag azin
Ġeur em
C enter
ĠStand orte
ĠBatter ien
ian ce
Bl og
ĠM ist
ĠKa sten
rich en
Ġ198 6
ĠL ampe
ĠDok umenten
Ġs uchst
Ġh Ã¤r
Ġben annt
Ġbl u
ĠOrd nungs
strate gie
Ġ ulti
ĠC L
ad or
du ktion
ĠLu kas
ĠG m
Ġintern e
Ġsp e
ĠVerb indungs
ader born
Ġgeist igen
spezif ische
Ġk ass
ag on
st etten
sp itzen
d t
Ġre volution
kan al
ĠVer gessen
Ġeinwand frei
S eiten
Ġs att
ĠAr ena
Ġgest altete
ĠCons ult
ab sichtig
ĠTest bericht
schnit ten
Ġgek lappt
anz ug
ne cht
aler ien
Ġverm ehrt
ĠgÃ¤n zlich
s werten
de fin
ĠSp eich
ĠPar adies
Ġk u
Ġplatz iert
ĠgrÃ¼n dete
ĠT olle
ĠSch los
ĠPfl anz
ĠL ichter
ĠLebens mitteln
ĀĀĀĀĀĀĀĀĀĀĀĀĀĀĀĀ ĀĀĀĀĀĀĀĀĀĀĀĀĀĀĀĀ
Ġaus fallen
ĠKÃ¼r ze
ĠP ink
entr al
ĠBekl agten
ĠSchwar zer
Ġetabl iert
Ġnach weisen
lei hung
Ġbel astet
w ahlen
Ġ2 30
ĠLa w
ĠDynam ik
D ar
Ġ ol
Ġf liesen
Ġflex ible
ĠC it
reu ÃŁ
ek ter
ĠAk adem
ĠSchaden sersatz
ir s
ĠMittel feld
ob i
K A
W h
d own
ĠGet rÃ¤nk
Ġmet all
ach se
Ġweiter empfehlen
berech tigten
Ġsp ringen
Ġhochwer tiger
ĠUl m
Ġschaff te
Ġw ander
ĠH ektar
ĠBet rug
ĠOst ern
Ġer zeug
ĠSchw eine
jÃ¤hr ig
ĠPrÃ¤ par
ĠBade wanne
Ġver ank
ers dorf
br Ã¼ck
ĠDi mension
ĠKopf hÃ¶rer
ĠS echs
ĠMit einander
Ġwenig sten
ĠThre ad
Ġweiter zu
Ġmittel stÃ¤nd
ĠPan ik
Ġw omÃ¶glich
ĠD C
ĠN intendo
ĠLie ber
Ġbedro ht
ĠS ele
Ġf arbe
T F
ĠVerb ot
ĠHum an
Ġber ufen
ant s
Ġlust ige
Ġ8 1
ĠAn zeichen
ĠMin im
ĠjÃ¼nger en
S ymbol
Ġein nehmen
ischer weise
ĠP est
ein stellungen
ĠP for
ĠtÃ¶ ten
ĠH enn
neh mlich
ĠKil ometern
w il
us se
ĠBar geld
ĠRot h
ĠS ul
Ġh ind
ĠUn is
ĠUmwelt schutz
ĠN ick
Ġo st
Ġunter s
Ã¼ber greifen
ifest yle
ĠSilv ester
Ġt ube
ĠgrÃ¶ÃŁ ter
ĠKÃ¼ndig ungs
ĠHell igkeit
G el
al in
ĠZw angs
Ġg n
ĠL edig
y en
rist all
B itte
ĠH Ã¤n
tau cht
ĠSp an
Ġb ig
Ġentsprechen der
ĠInner e
O ff
ĠD ichter
ĠB Ã¤umen
ĠMitarbeiter innen
ĠPubl ic
Ġwir kte
Ġeinfach es
ĠDar aus
fakt oren
op ol
Ġein schlÃ¤
Ġb richt
ĠSchauspiel erin
los es
Ġherr lichen
ĠFrÃ¼hl ings
Ġent schul
ĠAus zubilden
ĠNeu igkeiten
ĠProjekt es
ĠSter e
ĠHalt barkeit
Ġbe wiesen
ĠGe denk
ĠMad rid
ĠO snabrÃ¼ck
ĠGes ellschaften
S pr
Ġw onach
Ġgew Ã¤hlten
Ġgeht s
Ġp Ã¼nktlich
Ġwachsen den
Ġm Ã¼h
ĠRo ad
kom mission
ĠSt oÃŁ
Ġmehr erer
Ġbl icken
ĠH imm
Ġgew ohn
Ġvorher igen
p an
ĠWasch maschine
utt gar
hel fer
dat eien
Ġtranspar ent
kon zern
atis iert
Ġdenk bar
Ġer hol
ĠAc ryl
Ġdr Ã¼ckt
por ter
ĠÃľbern achtung
Ġwo fÃ¼r
material ien
Ġverr Ã¼ckt
Ġverp ackt
Ġkl ang
ĠSchul z
ĠSend ungen
Ġbeherr schen
ĠFreiwill igen
on anz
ĠM es
ĠAnges ichts
Ġl Ã¤st
rei hen
Ġkompeten te
ĠKob lenz
t Ã¼r
ĠAn schaffung
sch Ã¼t
sch ub
ĠD FB
Ġam ateur
ĠBox en
kat alog
ĠVari zen
ĠZu schau
ĠTag ung
Ġeinmal ige
ĠPrakti kum
Arb eits
ar tiger
Ġt ags
Ã¤m me
Ġinspir iert
P N
ĠV olle
ĠAn blick
bet rieben
Ġerf reuen
Ã ¸
Ġun heim
ĠVor sprung
Ġbes prechen
ĠK M
ab wicklung
ĠSil ikon
Ã¤t ten
ip ment
ĠTra iler
ĠK lapp
ĠZu bereitung
vor aus
ĠMag ie
ĠAnaly sen
Ġd rucken
Ġbes orgt
ĠBes ichtigung
ĠReg ister
ĠSpr uch
ĠDeb Ã¼t
Ù ħ
az ieren
ĠBeh aupt
Ġbege hr
ĠKranken versicherung
Ġ ]
Ġr unde
ĠMar cel
ail len
Ġ á
ĠHer unter
wick elt
Ġ8 7
Ã¶s se
ĠToil etten
ĠWar entest
ĠBÃ¼rger innen
ĠK ast
ĠSan kt
ĠAnge legenheiten
in tens
Ġc am
ĠHeraus geber
ĠBehand lungen
a o
Ġchines ische
verb indungen
kÃ¼ hl
ĠPor tion
ag n
ĠB anner
St ation
Angeb ot
Ġnach weis
Ġempf ehle
ĠQu ell
Ġbef asst
wach ungs
ĠSyn th
Z E
vor lagen
Ġex o
ĠunabhÃ¤ng ige
Ġt ur
Ġverb reiten
rÃ¤ te
Ġde v
Ġelektr ischen
ĠB od
ĠR aub
Ġp unkt
ĠÃ¶sterreich ische
ĠI rak
ĠSt Ã¶r
si sten
ymn astik
Ġvergleich bar
ĠSeni or
il ie
Ġsoll tet
bei spiel
Ġeleg ante
k rain
Sch utz
ĠNetz werken
ĠKno ten
ĠÃ¤lte ste
ĠEntert ainment
Ġf all
et sch
il dete
Ġverd ammt
regel ung
s bach
schen kel
ĠFl at
anis men
ĠkÃ¼ hlen
stre ben
viel falt
B el
ĠTr ier
ĠKon serv
ĠPr es
sk alender
ĠLe verkusen
Ġspezif ischen
Ġt anzen
war ds
ĠLo unge
wes end
ĠK y
ĠL isa
ĠDank eschÃ¶n
au gen
ĠÃľber ein
ĠÃ¤uÃŁer en
ĠPet ra
f ans
ĠO K
ĠArtikel s
Ġ198 5
ĠAlli anz
isch te
ĠAb bau
Ġselbst Ã¤ndig
ĠLand rat
ĠTechn ischen
ĠGlÃ¼ck wunsch
p ackt
ĠSch ichten
htt ps
Ġid yll
as k
Ġverl Ã¤sst
ĠLei h
feuer wehr
ĠGesell schafter
k ochen
ĠN ass
Ġwei hnacht
Ġgemeinsam es
ĠKredit karten
ĠK ita
stag s
park s
ĠAb geordneten
Ġges amt
Ġsto ppen
Ġer lernen
l aut
ĠgrÃ¶ÃŁten teils
ĠLedig lich
ri z
Ġbes uchten
j ack
ĠG Ã¼
ausen den
ĠGeschw ister
s ommer
Ġer gab
t chen
Ġeigen s
ĠMinister prÃ¤sident
l ach
w ell
st iefel
ation aler
klÃ¤r en
Ġ ^^
Ġvor gelegt
ĠFir st
rans fer
ĠLesb ische
ĠR ac
auf gabe
ĠBaumw oll
vorsitzen de
Ġp la
Ġp ark
ĠGesprÃ¤ chen
vert rÃ¤ge
ĠgefÃ¤hr det
ĠWa ffe
ĠSus anne
p Ã¤
ĠBro ker
ĠausfÃ¼hr liche
Ar beit
ĠallmÃ¤h lich
Ġ \
Ġbes prochen
ĠMenschen rechte
bay ern
s zene
ĠAnge legenheit
ĠD il
ÃŁ ig
Ġsch ief
ĠBesch l
swert es
z ins
Ġausge stellt
ĠOn lin
ĠMiet wagen
ĠMÃ¶ch ten
Ġs itz
Ġr an
ĠKap u
ĠH obb
Ġda zwischen
ĠSchw Ã¤b
Ġad min
rech ner
Su per
m assen
Ġd umm
ĠB usch
bl ig
ĠKat al
G u
sch altung
Ġt or
Ġab t
lei te
ĠEr stellen
Ġbew undern
ĠB ik
ĠO N
ĠG Ã¶
ul er
ĠEr zieher
ron g
Kom mission
um me
ne ws
ĠPressemit teilung
S til
ol stadt
Ñģ ÑĤ
gesch n
ĠGesetz geber
ĠSch rau
be er
Ġsp ar
fol gend
Ġkon figur
ĠAmster dam
ĠM ah
ĠVor lagen
ĠAmer ikaner
ĠErschein ung
ag ung
w ich
Ġheil igen
ĠZusammen spiel
ĠJeden falls
Spez ial
ĠW ich
bl Ã¼
ĠKrit iker
Ġf angen
ĠDe fen
Ġbel asten
ĠG anzen
gend a
ĠWei ÃŁen
ĠAd apter
un ternehmer
Ġz eu
ĠH ip
ĠPro m
ĠW eimar
Ġp e
ĠFol ien
ĠAuto fahrer
ĠOl denburg
ĠSaar land
ĠZusammen hÃ¤nge
Ġam az
ĠAb sprache
ĠPl Ã¤tzen
Ġger man
In f
er kennen
hol d
ĠtatsÃ¤ch liche
ĠInterpret ation
ĠGemeinder at
Ġst ein
ign al
ĠAng riffe
ĠErd geschoss
ĠD AS
ĠI d
ĠBeu tel
fÃ¼hr enden
av ig
uÃŁ ball
Ġkrie gen
ĠResult at
ti ck
Ġs af
sch Ã¼tzen
ĠG eil
rÃ¤um t
ten nis
ĠNational sozial
Ġb d
ĠIm plemen
Z B
ĠG Ã¤n
ĠBer t
Ġrelev ant
f indung
sch atz
ĠBas ketball
p riv
ag in
rÃ¤n kte
AL L
ĠNet work
) -
ĠB la
ĠÃĦ sthet
deut sch
ĠIn tel
C ode
ĠF rost
beit rÃ¤ge
ĠPhot ovolt
N ein
k ol
ĠR A
ĠPer fekt
Ġries ig
ĠzuverlÃ¤ss ige
w all
m auer
ĠD iv
ĠG ol
ĠP av
Ġwid met
m y
samm lungen
lÃ¶ ser
Ġfehl te
brun nen
T O
Ġpro biert
ĠRei chen
j agd
rÃ¤ gern
ĠMo dule
ĠS Ã¤mtliche
ĠH eld
sp oten
Ġman uell
Ġinform ation
ĠM ie
geben d
ĠfÃ¼hr ende
iter ran
ĠKraft stoff
pfl anz
Ġverr Ã¤t
Ġbill iger
ĠVir us
at zen
ĠKommun al
ĠUntersuch ungs
ĠB inde
Ġbet reten
ĠX box
Ġreich te
con tent
b undes
ĠO pern
Ġmark iert
uttgar ter
t rÃ¤ge
at ischer
ĠVer schluss
ĠAf ghan
ĠSch ilder
ĠEn ter
Ġrei z
ĠHit ler
ge ts
orien tierung
ĠD ark
ber at
Ã¤r er
Ġverste cken
V ol
Ã¼r fen
Ġbereit gestellt
Ġwissenschaft lich
ĠBeob acht
ĠÃĦr zt
Ġfestge halten
ĠHerstell ers
sti ftung
et ch
Ġbel ohnt
ĠMod us
Ġbegann en
Ġveran lassen
Ġm ont
ĠEin richten
Ġbl asen
L a
ĠN asen
K r
ĠCh ic
ĠBand breite
ĠSÃ¼d afrika
aus gleich
Ġh elle
Ġh euer
ĠEl ite
ĠGes ichter
ĠFÃ¼hrer schein
lo ok
ĠIm pf
ĠZwie bel
ĠÃ ĺ
ĠPark plÃ¤tze
ĠLand schaften
ĠFest stellung
ir urg
ĠVerl uste
j Ã¤ger
ist isches
ĠEnt deckung
ĠCamping platz
hal s
Ġhier zulande
ĠEnt scheiden
h uren
ĠVerz Ã¶ger
Ġgriech ischen
p eln
un ft
ĠÃ ĥ
ĠNor men
f oto
ĠArg umente
ĠStiefel etten
ei tigung
Ġgesch ul
Ġant wortete
ĠFund ament
oren z
Ġ !!!
ĠN EU
J etzt
Ġge hoben
Ġausge tauscht
ĠRÃ¤ der
Ġperman ent
h Ã¼lle
ar ot
hr op
Ã¼l lung
ĠPV C
c up
ĠL euchten
Ġwahr nehmen
ĠAnge kl
ĠunabhÃ¤ng igen
ĠKrimin al
F R
l u
an sicht
Ġpolit ischer
ĠT ritt
ĠR olf
Ġt rop
Ġrenomm ierten
Ġulti m
c u
l em
Ġb ack
ion e
ĠSpezial itÃ¤ten
schun gel
st el
ĠE X
arte ment
ie ÃŁe
ĠC N
sel bst
ĠBond age
ĠW urst
Ġpro min
Ġbeleuch tet
Ġgewid met
lei b
man tel
ĠRes ort
bil dern
ĠVol ker
Ġumfang reiches
versicher ungs
Ġj ust
ĠPeter s
ĠZul etzt
Ġabsolv ieren
ĠMÃ¤n n
ĠSec urity
Ġpassen des
ĠB ie
ĠL id
ĠEr zeug
op le
vor schlag
ĠVoll stÃ¤ndigkeit
eidig t
Ġsch ickt
ĠEn kel
de ko
Ġver kehr
tel ier
ĠBe achtung
reu ÃŁen
ĠEss ay
ĠRett ung
Ġm ischen
ĠP rax
ĠSp ritzen
ĠAb kommen
Ġuner wÃ¼n
in tern
Ġan kommen
op ro
Ġzu bereitet
ĠOr ange
N e
P ost
E igen
Ġn omin
ĠK rone
E mpf
L Ã¶sungen
Ġn ass
ik ate
s ituation
Ġz immer
ĠZ immern
Ġkom isch
ĠLe gende
A u
Ġer bringen
gÃ¤ng ig
Ġ ach
ehr ten
ĠHaupt bahnhof
ĠPrin zessin
Ġp ein
ĠWahl kampf
ĠÃ¶ fters
h ungen
ĠG M
Ġer fahrungen
ĠCh ip
brÃ¼ che
ĠgrÃ¼n den
ĠMy th
arn ing
ĠunzÃ¤hl igen
Ġâľ ĵ
Ġz art
ĠErn euer
ĠCa fe
Ġsicher gestellt
ĠBesonder heit
Ġfinanz ieren
ĠZerst Ã¶rung
ft ungs
ĠHeiz ungs
Ġb ro
ges undheit
ĠH E
Ġer fordern
art h
uss ia
prÃ¤ sidenten
ĠLuxem burg
Ġein ladung
aus gaben
pr im
Ġlangfrist ige
ĠG reg
gel b
ĠmÃ¤nn lichen
ĠungewÃ¶hn lich
Ġnachvoll ziehen
h auer
ĠW Ã¤nden
ro pfen
Ġt ru
Ġbest icht
ĠzurÃ¼ck zufÃ¼hren
Sch lag
k ant
Ġeinz ur
Ġverm uten
Ġko ordin
G VO
ĠIn dustr
la v
ĠGr em
ĠÂ§ Â§
ĠB eil
ĠStra ÃŁ
lich ter
ĠZ aun
ĠEr be
ven ten
ĠRÃ¼ck tritt
ĠKrie ges
ĠEnt sprechend
ĠSex filme
iss ion
Ġbeauft ragt
f iguren
Ġeinger eicht
stand ort
Ġbet reffend
Ġfur cht
ĠLand tags
ĠG ei
ĠH ug
sp aÃŁ
Ġt auchen
io us
ĠDar unter
ĠAnge hÃ¶rige
z immern
Ã¤u ber
ĠPrivat sphÃ¤re
Ã ¥
Ġh ielten
ell i
Ġer we
ĠSch ock
ĠIm per
ĠJuni or
bsau ger
ĠSchw Ã¤chen
tur n
sum me
S terne
ĠV iew
ble ch
ĠBegegn ungen
r un
ar in
et ischen
ĠP ho
ĠT ÃľV
Ġge fl
frei er
OR T
ĠJ os
ĠSchw estern
ĠInteress ant
Ġverwand eln
ĠErf indung
Ġb rÃ¤
ĠBes p
ĠExper tise
iat rie
ĠEnsem ble
Ġphil osoph
sp err
ĠÃ¼ber mitteln
ĠBem Ã¼hungen
zei gten
ĠEnergie wende
kir ch
Ġlegend Ã¤ren
C E
Ġ( ...)
ĠFr on
ĠGet reide
vorsitzen der
ĠBron ze
ĠwÃ¶ch entlich
geburt stag
ĠT ime
dienst es
ĠDach reinigung
ter te
ĠT an
ĠN ummern
ĠAn schlag
An bieter
ĠDach sanierung
F raktion
ĠAus maÃŁ
ĠSonnen untergang
ĠSie mens
A ktu
ĠTeil zeit
ĠFass aden
Ġunangen ehm
el y
Ġf euer
s achen
Ġlux uri
ur ger
Ġange griffen
ĠBe cker
ĠHand ys
Ġrecht lich
grÃ¼n deten
lad ungs
f ro
Ġk lingen
ĠSchw ung
ĠBau stelle
Ġeinge halten
ðŁ ĺ
ĠKlei dungs
Ġer lang
grÃ¼n der
C ommer
ĠKont ra
Ġr ass
stat us
ĠIr land
ĠHar ald
F rank
ĠLÃ¼ beck
rasch all
ĠAr mband
Ġdazu ge
D en
ĠBe auftrag
ĠHo sp
jÃ¤hr iges
ĠSpr ing
ĠVer einen
Ġr et
ĠFr ise
viel fÃ¤l
' .
Ġs il
ĠL em
Ġal ters
ru pp
Ġausge zeichnete
ĠOliven Ã¶l
Ġun glÃ¼ck
sp w
be ziehungen
Ġaufge fordert
j pg
os a
Ġanzu passen
ĠRed uz
Ġschul d
org an
zept anz
C ook
v ie
Ġso fa
Ġkennen gelernt
K arten
ĠauÃŁergewÃ¶hn lich
Ġgeheim nis
ĠJahr est
ĠWÃ¼r fel
ĠW etten
ĠCl ips
Ġwert voll
ĠL ot
Ġheraus zufinden
Ġweit aus
il dern
ant wortet
ack ten
Ġte x
f isch
rau l
ĠAus schnitt
ĠMail s
riter ium
ĠKop ie
ĠVerschieden e
Ġvers icher
ĠWill iam
ĠKreuz fahrt
ĠDS L
st ig
ĠSp Ã¼l
auf gang
w i
Ġd istanz
Ġt ab
ett a
gef allen
ĠprÃ¤sen tierte
ĠBur gen
Ġkrit ische
ĠBelast ungen
struktur en
M E
Ġein genommen
Ġb aj
ĠEr haltung
emit tel
ĠTÃ¼b ingen
ĠtÃ¤ tigen
)) ))
h ammer
Ġs et
Ġs ek
r il
ĠP okal
ĠS ekt
Ġfort geschritten
Ġin iti
ĠR itu
Ġmit machen
ĠExper te
f acht
ĠH ess
ĠH Ã¼tten
is ierungs
ann a
Ġsch aden
ĠSpiel zeit
O V
S B
Ġsch aute
Ġsol ide
ĠHilfs mittel
Ġbeeindruck end
men te
ĠMin er
or ch
Ġ1 12
ĠBett wÃ¤sche
ĠVerd au
ĠAnkÃ¼ndig ung
Ġher ein
Ġbet rug
ĠSchwer punkte
n uss
ti pp
ĠN est
ad y
fl asche
Ġ12 00
ĠEhren amt
sp ritzen
gesch Ã¤fte
ĠIns zen
ĠNor bert
ov o
ĠHy giene
ĠSchaden s
instrum ente
Å ¡
Ġt herapeu
ĠNorm alerweise
ĠÃĦr mel
Ġgrundlegen de
c ons
Ġleben den
Ã¤ gen
Ã¼t zte
Ġruh ige
ĠFor ex
st einen
de uten
ĠHer d
str Ã¶
K olle
ĠW Ã¤hrung
Ġt rage
Ġunend lich
ĠAn halt
Ġc re
ĠSe kund
Ġhilf s
ĠBlu es
Ġk Ã¤mpf
ĠWie so
Â ¬
Ġaus lÃ¤ndischen
wer f
vel op
S elbst
ĠC ir
vers uch
bie ters
Ver fahren
CD U
ĠDiagno st
ak ademie
Ã¼ sch
ĠAus schluss
ĠThem atik
Ġver senden
ĠFest ivals
eier mark
Ġre prÃ¤sen
Ġvoll em
ĠNicht raucher
Ġfaszin iert
ĠtÃ¼rk ischen
w elten
ĠSt ab
Ġaus lÃ¶sen
geg ner
Ġfahr e
E urop
ĠR un
og ie
Ġbeschrieben en
ĠMas ke
Ã¤ qu
Ġb aum
ĠT am
S l
Ù Ī
ett s
ĠRÃ¼ck sicht
Ġget rock
Ġregel n
F rauen
Ġeinmal ig
Ġbevor zug
Ġzer tifiziert
ĠKro atien
k orn
ĠBe endigung
g ische
ru it
spf lich
ĠhÃ¼b sche
Ã ł
de utet
ger ichte
bÃ¶ den
ĠAn ten
auf enthalt
ĠBek annte
ĠR hythmus
zei len
Ġheraus gegeben
ĠkW h
t y
Ġ7 50
ĠM aul
Ġl Ã¤ch
ĠCorpor ate
B ar
Ġsozial er
uÃŁ t
Ġsor tiert
ĠToil ette
ĠF ehlen
ĠEr richtung
Ġverb orgen
Ġumfang reich
System e
ĠL einen
on ial
ĠUn glÃ¼ck
ĠAnge stellten
ĠLeip ziger
g alerie
al m
ĠAb gaben
ĠTab ak
Ġland et
ĠverknÃ¼ pft
T rainer
ti pps
and o
empfeh lung
ĠK ore
Ġ+ ++
r ieren
ĠKons umenten
ĠMountain b
Ġcir ca
Ġo ffer
Ġmel de
b Ã¤
h ans
o ster
ĠSchwier igkeit
å¤ ©
ĠT rinken
ĠMann er
Ġnacht rÃ¤glich
ĠS ech
Ġkostenlos es
ĠKartoff el
an fang
ĠBr ut
ĠPul ver
tif unktion
ĠLin ken
pro vis
ĠBeit rÃ¤gen
ĠWest ern
eb urg
ĠChrist i
Ġdetaill ierte
ĠBetreu ungs
schutz es
sl eitung
Ġerf unden
ĠB aus
Ġt anz
ĠKl Ã¤r
Ġdurchschnitt lichen
j amin
n g
hr o
ĠBen ed
ĠHerzen s
ĠkÃ¼rz ester
Ã Ĺ
ĠF L
ĠI b
ĠBl Ã¼te
ĠDem nach
zut reten
ĠGerÃ¤u sch
ĠFla ir
ti le
Ġglob ale
ĠBrie fe
Ġstud ium
L auf
ĠEnergie effizienz
ĠHar z
F ern
S D
ch i
ĠW Ã¶l
rech nen
Ġand auern
Ġd opp
ĠB ucht
ĠspÃ¤ter e
ĠGen re
ĠGeh Ã¶r
ĠSpons oren
Ġmaster arbeit
Ġn rw
ĠR elev
hle b
Ġ- ,
B C
ĠIm plant
ond a
ĠjÃ¤hr lichen
s hafen
ĠH uren
Ġer schaffen
ĠDis sertation
Ã¼ pf
ĠG ern
ĠSÃ¼dt irol
st on
iz ierter
gar antie
Ġfl irten
ĠStellen wert
ĠFass ade
ĠW atch
ro se
Ġgew e
ĠElekt rom
? Â«
l asse
Ġï Ĥ
Ġs am
ĠC hl
ohn heiten
P aket
Ġb aden
ĠB Ã¶se
ĠAn sprÃ¼chen
ĠPrem ier
Ġf Ã¼ndig
ob jekt
Ġbesch eiden
ĠBÃ¼r os
Ġinteress ierten
Vor pommern
sfÃ¤h ig
ĠSehn sucht
Commer ce
ĠVor satz
ĠUm stellung
ĠSa int
Ġwirk ungs
Ġselt sam
for scher
ĠhÃ¶ch ster
ĠÃ¼ pp
Ġiden tisch
Ġrie sen
ĠM ath
ber lin
pr ise
Ġh eben
ĠP end
Ġw ussten
Ġab stra
ĠGu ide
box en
icht ungen
Ġbeg angen
ĠKath arina
Ġabzum agern
y o
ess ung
prakti ker
O st
CH T
reg al
H aupt
Ã¶l n
ĠLoc ation
ĠB ann
beu gen
Q L
k linik
el ine
ĠIn dust
u ti
Ġkom mst
ĠVerg Ã¼tung
z ettel
zu legen
ĠRe vision
ĠSchw ach
fe ktionen
Ġange ordnet
Ġverm utet
7 00
ĠSchm etter
ĠMess ung
ĠK reise
ĠG allen
ru der
Ġ19 20
Ġunbek annten
le uten
Ġver schieben
hÃ¶ fe
A Z
ĠG a
ĠV iet
Ġst ri
ul i
ru ption
sk ultur
Ġwert vollen
ĠEint rÃ¤ge
ĠP ak
gesch mack
ĠB Ã¤ren
Ġn imm
Ġh ard
ingu cker
Ã¤hr ungen
ĠC ust
ss icherung
schein ungen
ĠTages ordnung
Ġverbesser te
Ġeigen stÃ¤ndig
Ã¶s es
ĠDis co
Ġjetz igen
f Ã¤nger
h ut
k os
at iker
Ġhei raten
AR D
Ġgelungen e
ank ungen
ĠDi kt
Gr Ã¼n
w achstum
ĠR inge
ĠAb bildungen
hin ein
Ġ24 0
ried igen
T op
Ġger einigt
ĠAusser dem
ĠS ak
ĠK rem
ĠL aub
Ġaus fÃ¼hren
ĠMak ler
ĠIrgend wann
Ġverb aut
ĠSolidar itÃ¤t
ĠÃľber gabe
ke y
ma ster
ĠInnen raum
ĠVen til
Ġh ob
all i
ĠhÃ¼b sch
ĠGÃ¼n ter
Ġener ge
zum achen
ĠÃĦhn lich
d ringen
Ġdies elbe
ĠSa arb
yr am
un es
Ġwo her
ĠEl ementen
ĠbestÃ¤tig te
scha fft
Ġle be
Ġgeb rauch
Stand ard
ei sten
Ã¼n ster
Ã¤d ie
ĠIrgend wie
k ass
V arian
Ġver deut
ĠOb jektiv
ĠBer ichterstattung
ez eichen
ĠVerb und
rei fer
Ġ19 33
Ġpro fil
Ġun vor
Ġv eget
ĠSch affen
Ġw agen
Ġf eucht
frei es
Ġinhalt lich
ĠK um
il o
Ã¤u ÃŁ
ĠBed rohung
Chr ist
Ġeb ay
ĠgewÃ¤hr en
ĠPil z
ĠGÃ¼n ther
ĠI kea
ĠR ay
ĠÃ¼ber sehen
ĠKl ub
ĠBel ohn
Play er
M aterial
tige m
ĠMor itz
ĠJer usalem
finanz ierung
Ġk lapp
Ġauf kommen
Ġgew echselt
Ġgest Ã¤rkt
ĠBevÃ¶lker ungs
Ġfot os
T itel
ang o
Ġunbek annte
ĠAus gangs
mel der
ĠUlt ra
ĠSubst anz
Ġtranspor tieren
s d
ĠF aszin
Ã¤m m
ĠRein hard
ĠIniti ativen
ĠColle ge
> <
f ett
and et
Ġsch ritt
g ischen
t agen
ĠJournal ist
Ġd iente
ĠA sp
Ġp ers
ungsver mÃ¶gen
ĠUmsatz steuer
Ġbeige tragen
x id
ï ¸
Ġsch ieben
Ġgesch ah
rad io
vert retung
K G
Ġaus geben
zeit lich
Ġb ran
ĠPar ad
Ġ198 2
res pon
ĠT rÃ¼
ges ucht
Ġgef asst
Ġanzu wenden
Ġfest legen
ĠF Ã¤cher
ĠP seud
Ġge achtet
Ġwo zu
Ġemotion al
ĠVf L
ĠEr laubnis
zus p
ĠÃ¼bersch ritten
ĠmÃ¤nn liche
F T
ir us
Ġso uverÃ¤n
ĠTran sen
K ap
ent um
ov ic
ĠSon dern
ĠSol ange
sa ft
W C
ent wurf
ĠGeb et
ĠK ot
ind lichkeit
Ġt auschen
ĠOber bÃ¼rgermeister
verein igung
ĠAb rechnung
Ġjemand em
vert rauen
j ung
ĠS ahne
ĠAuf l
Ġ ult
ĠBeispiel sweise
wÃ¤r t
Ġschau e
v iele
Ġd Ã¼ster
Ġp or
or er
am eister
ĠÃľberrasch ungen
H N
d ay
ĠP ad
chen gl
od or
Ġgeburt stag
ĠA o
ĠRes e
IS CH
Ġwechs elt
Ġentf alten
ĠSchwimm bad
h ot
affen heit
spf lege
Ã¶nt gen
hleb itis
P eter
Ġal kohol
A ch
w urst
Ġder er
ĠM ike
ĠAus steller
ĠMag az
fre quenz
h Ã¶ch
br ille
glie der
ĠTats achen
b rochen
Ġt schech
ĠWer ten
ĠArch Ã¤
ĠLog ik
h urt
te lefon
Ġg Ã¶tt
Ġst abile
ĠMed itation
ĠSand alen
bÃ¼ hne
A dr
sch ichten
ĠL ekt
mel zen
ĠFort bildung
Ġverbunden e
ĠSchnitt stelle
Ġf un
vor schlÃ¤ge
oll er
ĠRe pl
Ġho tel
ko hle
Z ug
w ord
in dern
M edia
si der
Ġverf asst
Ġkr imin
atter ie
st ange
ĠZ one
Ġbe ziehung
ĠMand anten
oll te
Ġbestimmt es
omb op
ĠBekl agte
N ieder
j u
Ġoffen er
ĠBeob achtung
Ġtau cht
uf akt
ĠKon stru
Ġhand elte
Ġasiat ische
Ener gie
Ġver wiesen
ĠU s
Ġbe deut
ĠAb stÃ¤nden
ĠAuf stellung
st euern
ĠR elease
sp ringen
ĠAr gentin
Ġreligi Ã¶sen
kom plex
ĠGed icht
ĠZuschau ern
Ġbe an
Ġaus b
ĠO ben
ĠAl u
ĠHinter grÃ¼nde
ĠÃ¤r ger
ĠNiederl anden
ĠErscheinungs bild
ĠP aderborn
ĠZeit ungs
Ġstra p
spezif ischen
icht ungs
gr enzt
Ġlau ten
por te
r essen
Ġver legen
ĠVer sammlung
beh Ã¤lter
ĠT hal
Ġ19 68
ĠS he
ĠF ul
ĠBet a
ĠAx el
Ġre gener
A uft
Ġge stellten
Ġaut or
at us
ĠFach wissen
nah e
Ġkurz frist
ĠT E
gel der
Ġgen iessen
Ġ198 3
ĠRicht ungen
Ġspiegel t
ĠRechtsanw Ã¤lte
kon omie
Sch ul
gro ÃŁe
v ia
Ġger ettet
ĠTabl ets
B O
ĠH undes
ĠR aten
ard o
ĠRo ut
ĠHaust Ã¼r
Ġm ochte
Ġan zunehmen
Ġan grenzen
Ġbew Ã¤hrt
beweg ungen
Ġschon mal
Ġbet reuen
ĠVerlag s
way s
ĠSÃ¤nger in
ĠBundes amt
ĠGed ichte
ĠW eite
ĠSch ale
ym pt
ĠSkla ven
ill y
gro ÃŁ
Ġdeut lichen
if ikation
ution s
Ġok ay
Ġtranspor tiert
r ichtig
sch le
gro und
rang ig
ĠauÃŁergewÃ¶hn lichen
Ġb Ã¼r
geb r
ĠWei zen
ĠgÃ¼nstig sten
ĠIngen ie
Ġresul tieren
usch eln
C ard
b elt
ĠHy brid
ĠRumÃ¤n ien
f rem
Ġs Ã¼ÃŁen
ĠAm ate
Ã¼ss eln
ĠFol gende
ĠKur ven
ĠSan itÃ¤r
Ġbesei tigen
Ġdipl om
o ckt
p i
un ts
ĠD rum
ĠJ ena
Ġeinz iger
ĠSt uttgarter
ag anda
ĠBe quem
br Ã¼cken
ĠZeug nis
ĠBegrÃ¼ ÃŁ
Ġsign ifik
} .
ĠW itt
chte te
I st
Ġseiten sprung
ĠBÃ¶ den
ĠkÃ¼nstler ischen
Ġte xt
klus iv
ĠUnterhalt ungs
ĠVorbereit ungen
or p
ĠKinder tages
Ġge form
Ġausge wertet
k ino
Ġman ip
hol m
Ġkommen tiert
ĠWander ungen
ĠA alen
ĠEnt tÃ¤u
ĠDu o
l Ã¤ssig
Ġver hÃ¤lt
Ġaus zut
ĠBr Ã¶tchen
ĠHa ppy
es a
ĠVer handlung
ĠAn ime
Ġst Ã¤ndige
vor haben
ĠJul ian
SP D
ĠspÃ¼r bar
de cker
Ġneu sten
Ġverm eint
umm eln
c at
m ix
isten ten
Ġbr ill
h aken
k enntnis
z ahn
Ġkompl iziert
ĠG L
ĠZ im
Ġqualif izierte
u u
se ktor
Ġpro jekt
ĠDr ess
Ġkrit ischen
ĠTrau ben
M otor
x e
ak ers
Ġbek Ã¤mpfen
ĠGem Ã¤lde
Ġzerst Ã¶ren
ĠHem d
sext rem
o or
Ġd on
it ies
Ġauss age
Ġvernach lÃ¤ss
w olle
Ġr Ã¼cken
ĠLi ber
f ac
ĠK Ã¶st
pl attform
tier ter
dienst leister
ĠÃĦn gste
ĠÃ¤st het
ombop hlebitis
p iel
te c
ĠKil o
Ġberuf s
Ġdauer hafte
ier endes
Ã¶ bel
end ung
ĠRe alisierung
vers uche
haft es
ĠAb wasser
Ġw endet
Ġg ay
ĠSch Ã¤r
Ġdi agnost
er ten
ir en
Ġbe wirkt
familien haus
ĠWÃ¤l der
ĠGelt ung
Ġm isst
ĠSch r
ĠAus ge
Ġanspruchs volle
ĠUrheber recht
N ur
R Ã¼ck
ĠW Ã¼ste
ĠT sch
Ġu ber
Ġklein ste
ĠFÃ¼r st
ĠsÃ¼d lichen
L Ã¶sung
Ġv en
ĠEr ich
Ġeffe ktive
ĠWiderruf s
Ġweite m
ĠMaster arbeit
Ġun auf
lei tete
Ġgeb Ã¼r
Ġhum or
Ġw etter
sen sor
bo hr
Ġun gen
ĠUS D
Ġd pa
Ġm astur
Ġf Ã¤h
ir o
ĠL eu
ĠR TL
ĠSpiel platz
ĠChr om
Ġvari ieren
ĠP ur
Ġent lassen
Ġeinsetz bar
: .
ĠG aumen
ro gen
ĠTier schutz
ĠLeitungs wasser
ĠYo ung
Ã ´
ĠMor al
ĠfleiÃŁ ig
ĠZu vor
ĠExempl ar
fer en
Ġausge tragen
Ġverr ingert
pf alz
ĠH Ã¼lle
ĠT oleranz
ĠSp anisch
ĠAuf lagen
gl Ã¤ub
ĠGen auso
Ġgeist ige
str al
ĠstÃ¤d tischen
ĠZ eile
az itÃ¤ten
200 3
ĠEich en
ĠFach krÃ¤fte
ator s
Ġfehlen den
ĠRechn ungen
B ank
P DF
Z er
ĠB indung
Ġkom m
ar men
Ġn em
Ġqualif iziert
ĠGewÃ¤hr leistung
ĠGÃ¶t ter
S ex
Ã ±
is her
Ġl imit
ĠGl eit
Ġerinner e
ÃŁ end
ĠAn hand
Ã¼ber wachung
lig ht
ĠStat istiken
ĠE len
ĠBer Ã¼hrung
ĠSte ffen
et ti
ĠR io
Ġvers uchten
Ġfair e
ĠCol or
K S
P P
rakti ver
Ġrech net
Ġs ite
ak on
Ġlaufen de
ĠAro men
gesch ehen
ĠAd ler
K L
Ġw uchs
pf leger
schei dungen
Ġteil genommen
jahr en
ĠBeruf ungs
sport ler
ĠK lagen
ĠR asse
Ġal arm
Ġmod ell
ĠR eu
Ġauf hÃ¶ren
ĠP anzer
stand ard
Ġwe cken
ĠgehÃ¶r ten
varian ten
schrau ber
ĠF ette
Ġauf weist
ĠAnt rÃ¤ge
ĠPrinzip ien
T ele
St ra
Ġangen ehmer
R ock
Ġet h
Ġkosten pflich
ĠGener ell
gel esen
ĠursprÃ¼n gliche
kÃ¶n ig
untersuch ung
ĠTenden z
Ġunver zicht
N ational
ĠEle f
ĠBur ger
Ġeur o
ĠKapit alismus
Ġerweiter te
Ġh arm
ï¸ ı
Ġgest oÃŁen
Ġdah eim
f i
ĠzurÃ¼ck greifen
ĠPass form
Ġkompat ibel
l Ã¼
ĠSchul ung
ĠFlÃ¼cht lingen
Ġherunter geladen
zÃ¼nd ungen
k lichen
Ġf o
ĠK B
and ra
Ġmiss b
ĠS A
ĠT akt
ieren der
ess ungen
ĠEx cel
hoch druck
ĠMeld ungen
Ġm ail
ĠL obby
acht eil
ĠbenÃ¶ tigte
Sh irts
Ġcool e
Ġd Ã¤n
Ġf okuss
ĠprÃ¤ sent
ĠBundestag s
ĠA ur
ĠSt ri
ĠSt urz
Ġm ill
Ġan leitung
ĠPersÃ¶n lichkeiten
der ungs
ter en
Ġqu alitÃ¤t
ĠKin os
ĠKÃ¼nstler in
H ein
S ieg
ĠH ingucker
ĠMinister ium
R O
ĠR utsch
Ġalles amt
ĠMan tel
ĠK E
ĠRuh est
ĠAfghan istan
ĠKreis lauf
an ischer
ĠSe gen
Ġstehen de
ssystem e
Ġverschw indet
ĠPigment fle
w urz
ĠI ron
ĠC M
ĠNiederl ande
t herapie
Ã¤ch te
zug reifen
K Ã¶n
eigen e
ĠHand werks
Ġbelieb ig
bef riedigung
ĠS essel
it Ã¤ren
ĠKrank heits
ĠAngel es
ĠVeg as
A ktiv
Ġan rufen
Ger man
f low
kore a
ĠMit hilfe
ourn alismus
Or g
ĠM ot
Ġsch alten
ĠRu der
ĠBedien ungs
ĠnÃ¼tz liche
ĠT aten
Ġer eig
Ã¼ber sicht
ĠMÃ¼n zen
ge stellte
mal t
ĠLe op
ĠMass agen
gewinn ung
ĠF erne
a ats
ĠE volution
ĠAn melde
ĠAus fall
Ġf lieÃŁt
ĠTo y
ĠK un
Ġk al
ĠTradition en
% )
ĠB H
schlÃ¼ssel ung
ĠKatastrop he
p utz
Ġan wesend
Ġ( !)
Ġausge gangen
Ġkosten loser
Ġaktu alisieren
steh end
Ġemotion ale
o os
hof ft
ĠR S
ĠAb b
Ġschwei zer
ĠH auch
ĠKon rad
sk arten
ĠNe use
in halt
Ġgrund sÃ¤tz
Ġabgel aufen
k andid
u ge
ĠKopf schmerzen
Ġdor tigen
ĠM ik
Ġer wiesen
skont rolle
un ten
Ġer fahr
setz te
ĠPort rÃ¤t
Ġsch la
qu es
ĠprÃ¤ ch
ĠBen jamin
ĠSÃ¶ hne
Ġer baut
ĠSch Ã¼ssel
ĠAgr ar
ĠW arten
fl os
ĠEt agen
Ġnachvoll ziehbar
chengl adbach
g riffe
Ä į
Qu elle
Ġer lassen
ĠWord Press
H g
ĠZigar etten
k lin
Ġh as
Ġf ielen
ru d
fÃ¼ gt
Ġerheb lichen
Ã £
ĠBundes lÃ¤ndern
gehÃ¶r igkeit
P ass
w itter
Ġs uch
Ã¶r tern
Ġwider sprechen
ĠJack pot
F er
ĠF eiern
Ġnach denken
ĠMel de
ĠHaft ungs
ĠH asen
ra it
ĠCon ne
âĤ¬ .
N ov
ĠC ho
ĠInst itute
M eister
ron ic
Ġiden tifiziert
ĠSchieds richter
ĠL eb
amen te
Ġnah t
sm od
Ġchrist liche
ĠD G
Ġauf bau
Ġab ente
ĠEs stisch
Ġbed roh
seh er
ĠAnti biotik
Ġphys ikal
B enz
N et
k reise
kor de
an hÃ¤nger
ĠTier arzt
Ġbd sm
Ġein tragen
Ġk Ã¼ndigen
Ġber Ã¤t
Ġir re
ĠZertif ikat
d rÃ¼
Ġausge prÃ¤
ĠUnivers um
ter rasse
Ġbes ichtigen
Ġkr atz
ĠSch ienen
Ġe G
Ġgest Ã¶rt
l ime
w andern
ĠP ers
ess o
Ġre prÃ¤sent
Ġausge de
Ġinter disziplin
ĠKa der
ĠJ ord
schaft lichen
etzt eil
use um
ĠkÃ¼nstler ische
A ss
ĠO ri
ĠSel f
ĠKil ogramm
ĠFahr bahn
ĠSt yl
ĠEr trag
ĠerwÃ¤hn ten
telle ktu
ĠApart ment
Ġg igan
Ġsch lau
st Ã¤be
ĠEin richtungs
ĠProgramm s
fa ce
Her steller
ĠHÃ¶l le
ĠS itze
Ġg rauen
ichtig t
Ġklass isch
ĠÃĦr zten
ĠAusland s
Ges ellschaft
ĠTrage komfort
R est
ĠL etzten
ill s
Ġgest anden
Ġfotograf ieren
sch war
ĠÃľ bel
ĠBrand schutz
ĠSachver halt
N ummer
f ind
sk arte
last et
Ġvirt uelle
j unktur
Ġm utter
ĠVer gabe
ĠĠĠĠ ĠĠĠĠ
d Ã¼n
ĠJ as
ĠSym p
por tiert
hostw riting
ĠSpir itu
ĠG Ã¼te
ĠW urm
ss on
mark eting
An lage
ĠBd sm
Ġswinger club
ĠE du
ĠVer tretern
ot yp
zeit raum
Ġunein gesch
geschn eider
Ġbe wirken
Ã¤ch tigen
sk op
ĠEich e
ĠlÃ¤nd lichen
Ġerforder liche
ĠB rÃ¤
ĠM ore
att le
ĠWert pap
verk auft
ĠBefrei ung
ĠL Ã¼n
Ġgez ielte
ĠBor ussia
pf ern
ĠZu gangs
Ġfrei lich
Ġaktu eller
rÃ¤n kung
ĠKu pp
Ġschm utz
fÃ¤ll ige
alb um
bezir k
c us
ĠE uer
ang abe
Ġr ollen
ĠKom bi
Ġheraus fordern
Ġmass iven
ĠHar n
Ġder zeitigen
ĠEin bruch
ĠHaar en
ho de
Ġ10 5
ĠB innen
ĠPersÃ¶n liche
ĠF Ã¤r
pro t
ĠChrist ine
ĠWolf sburg
ĠSt Ã¼hle
ement s
p zig
Ġ19 78
ĠWasser filter
zell an
ste am
fl aschen
Ġben utzer
iegel ung
b ag
ĠK el
Ġge zahlt
ĠGr at
Ġfach arbeit
Ġhe bt
Ġ hr
au scht
el eist
Ġk ehrt
ĠAn sehen
teil ig
geh Ã¤use
Ġindividuell es
ĠKost Ã¼m
Ġhum an
ĠP ra
ĠIn ser
Ġt rin
ĠWir t
ĠCom mun
ĠKoordin ation
i od
Ġs yr
techn iken
ĠGet riebe
ĠerÃ¶ff nete
ĠProgno se
I de
Ġb aby
ĠW urf
ĠSo wjet
ce pt
Pro blem
ĠEss zimmer
ĠT oren
Ġlat ein
Ġm Ã¼ÃŁ
rit ter
ĠBl as
ĠVan ille
Ġunter liegt
Ġho fft
n ick
ron om
k auft
tel ler
ĠBam berg
ĠCost a
ĠW olle
ĠL IN
Ġbelieb ter
Ġbay erischen
S ho
j ak
ĠVolk es
b Ã¤nder
ag ina
Ġgest alteten
l Ã¶s
Ġw ort
ĠEr mittlung
Ġ, ,
m ischung
ol or
Ã¤tz ungen
ĠSamm lungen
F G
ĠVerl angen
ĠRab atte
g ames
w ik
ah le
ĠOn kel
ĠHeim spiel
Ġ198 1
Ġhochwertige m
ĠBul gar
Sm art
ĠS IE
ĠG ymnas
ĠN am
Ġp acken
ĠVer sprechen
ĠEr klÃ¤rungen
stÃ¼t zung
stre am
ĠSchwar zwald
Ġdamal ige
Ġw ilden
ĠSch loÃŁ
ĠNeu kunden
ĠFort schritte
ĠRoll stuhl
ur teil
Ġange st
Ġstark es
lieb haber
vit ra
S M
Ġb lin
ĠErl Ã¤u
Ġf liegt
deck el
ĠNaz is
ĠT in
ĠN ylon
zu gang
ĠBe fÃ¼r
Ġvert ritt
W ill
k Ã¤mpfe
ĠSport wetten
al p
rech ter
ĠBus se
Ġbit tet
ĠP insel
Reg ion
ĠInstitu tion
Ġr Ã¼ber
Ġges ell
ĠSchw ing
schw ing
ownlo aden
ĠDreh buch
ĠInhaltsst offe
ut sche
ĠGesch ick
Ġangesch aut
" ;
an forderungen
âĢľ ).
ĠSt abil
ven tionen
hau ser
E uro
I Z
ff ic
ĠUm so
antwort ung
gef angen
Ġur heber
. ]
ĠWohl fÃ¼hl
Ġberuf lich
Z us
k Ã¶pf
ĠK ater
ĠO sc
Ġwei se
d it
z es
ĠZ ielen
ĠMa is
ĠZentr ale
dem okrat
tier ungs
Ġbevorzu gen
h ar
h Ã¼ter
Ġst eh
ĠGar n
ĠKlar heit
te au
ĠSt o
Ġes stisch
ĠBl ind
lau bt
ĠWort es
Ġversen det
ĠA re
Ġthe oretisch
ateg or
Dat eien
ĠÃ¤uÃŁ ern
Z entrum
Ġo ur
Ġbe weist
Ġstatt gefunden
ĠGewerk schaft
ĠUm kreis
Ġbem Ã¼hen
gesprÃ¤ che
G A
an ia
ausch ale
ĠReh abil
Ġgolden en
ĠV od
Ġt raten
ĠVers uchen
ĠAn weisungen
Ġ19 79
ĠTisch tennis
ĠIll ustr
B ilder
ph il
ĠTelefonn ummern
or derung
bl Ã¤ttern
Ġgel andet
ĠSte cker
ĠÐ ²
wander er
er ation
at her
re zept
ĠRe v
stre ck
ĠSach verstÃ¤nd
ĠHoll and
ĠWirk stoff
12 0
Ġleicht es
ĠChar les
ĠDisk rimin
ĠBem erk
Ġn etz
ro b
Ġber Ã¼hmt
Ġ19 72
Ġschlimm sten
pum pen
ĠS itzen
ĠW itter
Ġan stelle
f ix
Ġm ul
ĠAd obe
Ã© s
plan er
Ġgewerb lichen
Ġpro p
Ġm ov
sp rit
zeu ger
M ich
ĠK ran
ĠIns ulin
wÃ¤r me
istr ation
ĠLat ina
c reen
Ġge treten
ĠkÃ¼r zer
ĠKleider schrank
ĠSubst anzen
ĠTschech ien
Ġein bringen
ra de
Ġes cort
ĠHÃ¼ hner
Ġrad ik
Go ogle
Ã¤uf ers
ĠAk zeptanz
herr schaft
O pti
ĠVor wurf
ĠMus ical
ĠT Ã¶ch
uf er
aktiv en
ĠP ech
Ġver tik
Ġst oÃŁen
? ,
Ġ Ã¤us
Ġ19 75
ĠPh antasie
sver kehr
ĠverstÃ¤r ken
o ft
Ã¤ her
zus prechen
ĠPsych otherapie
ĠPassen d
U hr
Ġpro test
ĠWa ppen
Ġabente uer
er lebnis
Ġunter richtet
ĠVolks wagen
J uni
un fÃ¤higkeit
ĠS agen
Ġlie ge
ĠLeich tigkeit
ĠNikol aus
h ahn
ĠAktu alitÃ¤t
st arke
Ġver samm
ver w
aur er
ĠKranken kasse
ĠVerk nÃ¼
kÃ¼ hlen
in haber
ĠE b
am as
Ġber Ã¼hren
Ġvorher ige
Ġcouch tisch
ĠB lin
ition s
Ġ: -
po int
ĠUnis ex
ĠG or
Ġsich ert
ri f
ĠGesch wÃ¼r
Ġfr uch
Ġd rast
ĠFl ammen
ĠBlick e
ĠTra ding
fo od
gerech ten
ĠgewÃ¶hn t
Ġanstren gend
i que
Ġin sofern
ĠN etto
Ġjahrel ang
Produ kt
Ġde ko
Ġherz lichen
ĠVor jahres
vor lage
ĠSu ppe
ĠKa i
ĠEin wohnern
ĠÃ¶ff nete
Ġhal bes
New s
or sen
Ġsteigen den
ĠKr im
ĠKonfigur ation
Ġdir ekter
si bil
ĠNe on
gegen stÃ¤nde
ĠRese arch
Ġhind urch
y on
Ġwei s
ĠSozial es
vÃ¶lker ung
W issen
ĠnÃ¤ch ster
Ġselten er
ĠGra fen
ĠkÃ¶rper lich
p reisen
ĠN ett
ul ationen
ĠWer ks
zuf riedenheit
pack ung
Ġzit iert
Angeb ote
ac o
Ġfest zustellen
tent wicklung
Ġplatz ieren
âĢ¢âĢ¢ âĢ¢âĢ¢
z Ã¤
ĠAb zug
ĠAntrag steller
Ġaltern ativen
Ġspezif ische
ĠKonsequ enz
Ġan ziehen
Ġs ehn
ĠAk kus
abhÃ¤ng ig
N acht
Ġst yl
ist ern
fer tigte
ĠPat ch
ĠKan Ã¤le
Ġver arbeiteten
ges chenke
Ġheraus finden
rÃ¤n kungen
r ale
setz ungs
ĠBeh Ã¤lter
ator ium
ĠVerstÃ¤r kung
erkrank ungen
an gel
geb ungen
Ġc as
ho ckey
ĠE P
aus bau
ende te
c raft
Ġschar fe
ĠEr le
was chen
ĠVari ationen
beauftrag ten
Ġw Ã¼ten
ĠH Ã¼nd
ĠRe den
ĠBet rieben
Ġtrocken en
haf tigkeit
g am
Ġver weisen
Ġse c
ge stell
Ġge prÃ¤
spl attform
ĠVorgehen sweise
Ġmass ive
rock ner
ĠExempl are
ĠAnwesen heit
R aum
ĠW ater
ĠWei ÃŁe
ĠStich wort
ĠMon ika
A gentur
geb ogen
Ġte ure
schÃ¶n e
sch warz
ĠB arr
ro g
Ġabge stimm
mÃ¤r kten
ĠHerz lichen
Ġzwang sl
ĠSch er
An schluss
sf el
othe ker
Ġsch utz
ĠZusammen stellung
ĠSant a
on omie
ĠAl m
Ã¤l len
ĠMittel s
Ġengag ierte
ĠTh is
k leben
ĠFranz osen
Ġb u
ĠBer echn
ĠSign ale
ĠCockt ail
Ġseit her
itt le
ĠH armonie
ĠOrg ane
Ġb auch
ĠVer ab
ĠHe alth
do sen
ĠInnov ations
ĠProtagon isten
Ġzu stimmen
Ġan ony
ĠN ap
rÃ¼ mpfe
mit h
.... ..
Ġfrank furt
V iel
p ots
t v
ĠR ind
ĠCh i
unst ig
Ġw ilde
et scher
Ġvor teil
iker in
ĠSicher ungs
ĠHart z
s how
Ġk Ã¤mpft
ĠSch um
Ġent werfen
ĠAb lehnung
ĠSti pend
ĠArchite kt
Ġklar er
besch Ã¤f
Ġbed acht
ein stellung
it hm
ĠSp ren
F rÃ¼
Ġ eil
sch rauben
bl Ã¼ten
Ã¼nst igen
Ġempf unden
200 2
Ġzeit weise
ĠSch recken
iz ed
ov ern
mess ung
Ġbeeindrucken de
ĠG Ã¼ltigkeit
ĠCl ip
spf lichten
ĠerlÃ¤u tern
Ã¤ ÃŁe
Ġan zuf
Ġaufge fÃ¼hrten
ipp er
Ġausgel iefert
spart ei
Ġlauf end
A ir
ĠL Ã¼cken
ĠBoden see
ĠLager ung
Ã¤dig ungen
ĠU K
bo te
Man ager
Ġkorre kte
ĠA genda
ĠG ieÃŁen
Ġrei che
ĠNeuer ungen
op ft
schl Ã¼ssen
ÂŃ ÂŃ
ĠDe k
ĠHor ror
ĠGerichts hof
ĠUn recht
ik ator
ĠMaÃŁ stab
ĠTri p
Ġgolden e
wer en
Ġbef assen
Ġâ ĺ
ĠBlut zucker
Ġles ben
ĠEpis ode
al tern
ĠZu hÃ¶rer
ĠWei den
ĠjÃ¼d ische
Ġentdeck te
Ġg if
ĠT ante
ĠVer folgung
ĠAb gesehen
E lekt
M ER
Ġzu viel
ut te
ĠInter aktion
Ġsinn volle
K onto
om y
ĠMigr ations
Ġh d
ĠT aufe
Ġ19 77
Ġerw Ã¼n
sisten z
ĠFreund innen
ĠKomp akt
ĠSch affung
ul ierte
att an
Ġar men
Ġzwe ck
s weisen
Ġein fallen
Ġherr liche
ĠS yl
ĠZit ronen
Ġtem por
Ñ ĩ
Ġab onn
be cher
he um
hal l
los ung
ĠGra ph
Ġintelligen te
b Ã¼chern
ie sen
ĠW itten
ĠPark ett
ĠSozial e
Ġgetr enn
ĠCann ab
A ktion
ĠG Ã¶r
st Ã¤tigkeit
ĠG h
bÃ¼r os
durch schnitt
Ġgleichnam igen
Ġm att
bau te
ĠDis ney
ĠOrganis mus
ĠAufbew ahrung
ab kommen
ĠHerunter laden
ĠD OC
Ġl Ã¼cken
ĠMikro fon
ĠFo ot
ĠLok ale
versicher ungen
ĠSoft war
ĠK aka
ber ry
Ã¤m men
ĠWar s
ĠAb nehmen
ĠFrage stellungen
ĠD Ã¼r
ĠKosten loser
ĠWel ches
Ġstrateg ische
M ax
ro om
Ġso urce
ĠBe et
Ġander wei
ĠD U
trag ungs
ĠVerz wei
f un
ie ger
Ġk ul
Ġt ausende
mÃ¤ÃŁ igkeit
ĠFuÃŁ boden
Ġap otheke
ĠG Ã¤rtner
200 1
forn ien
g mbh
Ġaufgel Ã¶st
ĠH abt
Ġge wartet
ĠSt ol
Ġle eren
ĠKauf mann
ĠSand ra
schn ell
Ġd uf
ĠK napp
lich te
ĠT ische
ĠSch en
Ġle d
Ġdeut licher
ĠStud iums
Ġland haus
ĠSauber keit
c odes
ĠT es
ĠIn fr
Ġwachsen de
ar ier
ĠF len
ĠEleg anz
ĠH Ã¤tte
ĠC our
ĠUn sicherheit
ĠGru pp
in halte
ĠD age
Ġbl Ã¼hen
b om
schie bung
Ġbedeuten de
ĠPu ppen
M L
ĠS O
ar g
Ġst Ã¤ndigen
ad es
gr ab
n ik
ĠLe be
ĠFer r
ĠGebrauchs spuren
ĠLe v
ĠDurch gang
Ġerhe bt
ĠUlt raschall
verl ag
ĠAt hen
ĠZwie beln
Ġm oll
Ġaller lei
ĠCas ual
markt ung
ĠPul lover
P rot
Ġbe zeichnete
Ġ9 1
ĠRass ismus
h unde
ĠS H
ra kt
ĠKon stanz
Ġbeg ut
Ġgek onn
Ġide alen
B eit
i dent
r ike
ĠD N
Ġg ame
Ġak ust
Ġschwier ige
ĠLau ra
Ġg ang
ĠK Ã¶pfe
ĠanschlieÃŁen den
pÃ¤dagog ik
a er
sch rÃ¤nke
ĠP unk
ĠC hallen
p et
Ġver weist
ang riff
Ġges undes
ĠBlut hochdruck
ĠDoppel zimmer
ĠThr iller
A ug
Ġin soweit
sen kirchen
Ġdies jÃ¤hrige
w atch
Ġm Ã¼nchen
ĠAn ker
ĠZu gleich
Ġko pf
ĠAb nahme
press ionen
ĠSamm ler
ĠausfÃ¼hr lichen
Ġdiesbe zÃ¼glich
K Ã¼
ĠC er
Ġverpflich ten
ĠMit arbeit
Ġber g
Ġbas ieren
Ġbemer kte
Ġjur istische
ï »¿
Ġm uster
ĠB uffet
ĠVert retung
fest ival
ĠKur ze
Ġag ieren
Ġelektr isch
ĠCop yright
e v
Ġn ull
Ġl uft
Ġaus nahm
ĠJ ones
ĠKl einer
Ġeinge geben
Ġberech tigten
ĠPil oten
eth od
ss ituation
ĠFil iale
Ã¼ss elt
ĠNieder Ã¶sterreich
ĠH Ã¤uf
Ã¤r bt
ĠEnt gelt
ĠLeben sst
ĠGl Ã¼h
ĠBef ragten
ĠÃ¼ber zeug
zu bringen
Ġv al
ĠA er
ĠSc reens
g Ã¼ter
ĠG abel
ĠVer wenden
ĠSo uth
Ã¤lt in
ĠOber landes
v ok
ĠB arriere
ĠSch la
schl us
ĠWohn sitz
sf Ã¶rderung
ĠHei den
Ġaufgew achsen
Ġsp aÃŁ
ĠAll g
position en
1 000
ĠSt opp
ĠMar athon
Ġfr ucht
meister schaften
schul den
ĠLa ien
F rau
us er
f inder
ĠH Ã¤rte
Ġst Ã¶ÃŁt
ĠUn der
wirt scha
ĠArt hr
ĠG Ã¼nstig
op en
Ġbl ickt
ĠDis c
ĠP ion
ĠKl ett
ens ystem
ĠSu ite
fot ografie
ĠVerteidig ungs
Ġbesei tigt
Ġlande te
ar tiges
Ġh ot
br icht
Ã¼s ste
Pl us
au g
ab les
icht lichen
ĠRei f
ĠExper iment
Ġc lass
will ig
Ġexpl izit
an bul
ĠK eil
ra tete
in vest
b re
r ungen
Ġnorm aler
ĠKe vin
Ġwo von
ĠHeil ige
ĠMat ratze
ĠRoh stoff
sprÃ¤ sident
ĠUrlau ber
ĠRelev anz
l ampen
wissenschaft lichen
ĠbeeintrÃ¤ch tigt
ĠWhats App
9 00
ei ver
Ġmit gel
il ometer
Ġent sch
glie d
ĠEx p
spe ktive
ĠEurope an
z eln
Ġges endet
Ġ19 74
Ġlo cken
Ġprofit iert
ĠBrun o
Ġhinter en
Ġne bst
Ġaltern ativ
f ick
al at
ĠT ruppe
ĠLu zern
ĠK uh
Ġge merkt
rei tete
umm i
ĠM ast
ĠRo uter
kreis es
n ommen
Ġerk annte
abil ity
ĠBauern hof
à ¤
Ġer sichtlich
ĠGesch Ã¤ften
Ġmus lim
ĠkÃ¼nst liche
Ġwahnsinn ig
ern te
fe sten
hin weise
ĠÃ¶ff entlicher
ĠEint racht
ĠkÃ¼nf tigen
H C
ĠK uschel
Ġgen iale
reg ionen
ĠDiagnost ik
ufakt ur
I s
l iteratur
schaft liche
Ġâ Ļ
Ġl ud
ĠSch aut
Ġr Ã¼ckt
ĠLe o
ĠThr ombophlebitis
Ġmun chen
z elle
Ġ Ã¤nder
ĠDie bstahl
Ġj ahren
Ġdarf st
Al les
Ġpsych ische
Mitglie der
B R
F an
ĠSa fe
ĠR oss
ann over
Ġerinner te
Ø ±
Ġs inkt
Ã¼n dete
ĠWeiter bildungs
ĠTr ik
ĠBast el
kÃ¤ se
ĠKrist all
r assen
Ġb arriere
ĠT il
ĠKarne val
E ffekt
Ġein bauen
ĠL ifestyle
ĠBro wn
ograph ische
ĠZy linder
L iste
ĠH its
Ġehemal iger
ĠBr illen
Ġge drÃ¼ckt
us k
Ġunter such
ĠBestand teile
fÃ¼ll ten
ĠZiff er
G ar
ĠSp am
ech ten
Ġlang es
ĠDiplom arbeit
ĠSpark asse
ĠA chten
Ġmit genommen
Ġbl ut
ĠTri b
Ġverr ingern
ĠÃ¼bert rieben
Ġzwangsl Ã¤ufig
Ġirgend etwas
Ġz zgl
Ġf ru
ĠF Ã¼ll
ĠAb o
sÃ¤ uren
ĠMahl zeiten
ab satz
âĢ ¯
os is
rÃ¤ uch
bl asen
ant on
Ġbes orgen
ĠNieder schlag
ĠKonkur renten
m ischen
de b
ĠMar gar
amp oo
ĠRoh stoffe
ĠImmun system
k eller
St unden
mo dern
IL D
Ġs etze
Ġte uren
omat ic
Ġausreichen de
ĠunnÃ¶ tig
B Ã¼rger
R eise
ĠHÃ¶ hle
polit ischen
ĠEleg ant
arch ie
Ġli ber
Netz werk
f ranken
ie gt
ĠB at
Ġkon kur
Ġdigit aler
ĠPhot os
re fer
ĠVor lieben
ĠDurch schnitts
ĠKar in
ES CO
Ġn or
ber ichten
ĠR Ã¶ntgen
rie t
ĠBe eren
ĠSo ul
Ġverd anken
ĠAuÃŁen bereich
kÃ¼n ften
Ġbeherr scht
eigent Ã¼mer
Ġt herm
Ġberu hen
stÃ¤d ter
Ġkorrig ieren
B ay
K lass
Ġun ternehmer
Ġb us
Ġb ank
Ġmonat lichen
Ġunterb rochen
Gro ÃŁ
2 50
s im
in kl
ĠM is
hei de
Ġbenutz e
L ook
al ia
ĠÃ¼ bel
ĠReisen de
krank en
Ġverwir klichen
ĠSatell iten
k reisen
Ġqualif izierten
Ġaus lÃ¤ndische
ĠWen ig
Ġgel istet
ĠBest eller
ĠzurÃ¼ck halten
ic on
E ssen
sk rise
ĠGeheim nisse
ĠQue en
ant a
Ġhistor isch
T yp
k Ã¼nstler
ungs mittel
Ġgesch ichte
ĠAd el
ĠRent ner
ĠSchrÃ¶ der
Ġabge holt
ĠKap elle
Ġ% .
ĠGesundheits wesen
Ġf emin
ser gebnisse
Ġlie fen
ĠBuch ungs
Ġmei ste
Ġfreu te
Ġdunk ler
N o
rech net
Ġsauber e
ĠBundes rat
b ischof
um feld
Ġbe kl
Ġwar nt
Ġne ur
Jahr e
ĠHimm els
L icht
w Ã¶ch
kl ick
ko hl
n isch
Ġ19 76
chte ten
ĠFle ck
N atur
ĠA le
ĠT ausend
hyd rate
k eine
it Ã¤re
Ġsch ieÃŁen
ĠSp ed
aus flug
Ġwieder her
Ġzahl reicher
ĠWh isk
Ġserv icenummern
War um
an ti
Ġvor zunehmen
ĠPl Ã¶tzlich
ere cht
r ett
Ġ !!
Ġs kepti
ĠIn sofern
vert rÃ¤glich
ĠMater ie
S en
t ung
Ġ oma
Ġb at
ĠDu ell
ĠRuss ische
zur eichen
pal ette
Ġb ut
ĠP interest
ard i
Ġgest richen
ĠG G
ĠGo od
ĠD ildo
ĠÃ¼ber qu
Ġc ur
ĠQu ick
Ġeleg anten
ĠSens oren
le d
Ã¼hr ungen
ĠThe ologie
stÃ¤ndig er
Adr essen
ier bare
Ġlern te
ĠInform ieren
Ver anst
ĠBen achr
Ġpop ulÃ¤r
! ).
ĠT rieb
ĠLehr erin
Ġf rac
Ġzu einander
Ġ19 30
ĠMus lime
ath an
Ġw ein
ĠT reue
ĠBe arbeitungs
roll ing
Ġgra de
ĠC rem
ho ven
Ġun ab
ĠK L
ĠT iger
ĠSch lafen
men d
Ġwar te
ĠPartner in
ĠAir port
pert oire
ĠD ra
t hal
Ġaus machen
ster ben
ĠTag ungs
gemein schaften
IS T
Ġrechts wid
Ġnutz bar
ĠKenn zeichen
Ġanerk annten
Ġaufgel istet
ĠkÃ¼ndig te
L o
b ell
spr ungs
Ġwirk liche
b old
tern acht
Ġ19 67
ĠTh ese
Ġarg umen
ĠSch ott
sp ause
Ã¤ tigt
Ġp ack
Ġspr achen
Ã¡ n
Ġna ja
d rin
Ġst eil
Ġgew inn
ĠHex en
brem se
ĠSch wie
ver eine
amb ots
Ġtrock nen
u es
ĠRe prÃ¤sent
16 0
ĠSpr inger
ĠjÃ¼nger e
E E
F ol
T ech
ost al
Ãľ N
ĠAn bindung
und ung
ĠFo und
b orse
ent ai
ĠVer an
mitglie dern
z ed
ĠBr at
schw ester
ĠPark s
ĠEinzel heiten
Ġm ak
Ġsorg ten
k ante
ĠL Ã¼cke
if ikationen
Ġfl Ã¤chen
mod ul
dat ei
ĠSex treff
ĠAut hen
ĠMo os
ĠWissen schaften
ĠSal be
steil nehmer
or chester
utz end
S ommer
Ġ4 000
ĠkÃ¶nnte st
Ġbas ierend
Fr anzÃ¶s
ĠRoll er
ĠAttra ktionen
Ġauf halten
ĠdÃ¼n ne
v ar
Ġs and
ab o
ĠJ Ã¤hr
onn tag
ĠM C
Ġp ay
ĠFunktion s
akti sch
ĠBrosch Ã¼re
Ġin wie
ĠW ille
ĠOr angen
ĠW is
stÃ¤nd lich
ĠSpezial ist
ĠNeuse eland
ograph ischen
Ġkathol ische
beauftrag te
a iss
Ġer richten
Ġgleich mÃ¤ÃŁig
ĠRad i
A lt
å ½
st atten
Ġin des
Ġweiterge leitet
Ã¼ck ten
Ġverb raucht
ĠHol ger
ĠEin kaufen
Ġerst aunt
schu hen
ĠRÃ¼ck blick
IS S
ku gel
Ġwechsel te
] [
be gl
bet on
ĠÃ¼b licherweise
Ġbem erk
Ġauft auchen
an fall
te u
ĠBar ock
ĠKolle ge
d rei
ĠG reif
Mit arbeiter
ĠHoff mann
Ġentstanden en
ĠGrundstÃ¼ck s
h at
ĠS ide
ge heim
urt eile
Ġversch ickt
Ġb spw
Ġh ung
ĠT ausch
ĠMar ine
Ġange zogen
ĠDage gen
k riterien
ĠEner gy
Ġvert rieben
her um
ĠAt hleten
berech tigung
Ġschmal en
R icht
in sen
ĠG ard
Ġbe acht
wir k
ĠwÃ¼rde st
ĠRÃ¼ck stand
Ġbeh oben
AT E
Ġor ange
Che ck
ĠStrÃ¤n de
Ġ1 11
Ġ1 14
ver sch
ĠReg ierungen
20 2
D C
Ġeiniger maÃŁen
ÑĢ Ð°
ĠWider spruchs
ĠAutor s
Ã¤n ke
men Ã¼
iff eisen
Ġwes entlicher
Ġge druckt
Ġ19 73
ĠGesch lechter
ĠCE O
Ġson nen
B aden
W O
u tive
ĠG itter
ĠT Ã¶ne
det ails
obil ien
ĠVerm utlich
Ġgener ieren
Ġvorzu bereiten
an iker
Ġget rieben
Wir tschaft
sper re
) ?
ĠV alle
ĠSp ambots
ĠBe eintrÃ¤ch
star ken
ĠF rÃ¤
ĠZ a
rag te
Ġsamm elt
ĠÃľberein stimmung
ie ge
ĠS av
is m
ĠEin sicht
ord et
ĠVerz icht
Ð¾Ð ²
ĠWeis heit
i ftung
ĠL ip
Ġp rinzip
ĠExpl os
Ġgetr unken
wei ht
ĠAb onn
ĠPul s
Ġun regel
ĠK ampagnen
ĠG all
ĠStadt werke
fÃ¤ll igen
Ġbenachbar ten
Ġun ges
ĠSt Ã¶rung
ĠJubilÃ¤um s
Ġfrei gegeben
ĠTages licht
sg rad
Intern et
ĠL t
Ġmeist ern
ĠFe ature
f irmen
zen zen
ĠOr al
ĠkÃ¼ chen
ĠKamer aden
ĠDo sen
Ġabgeb rochen
It alien
ĠM ieten
ĠVer gewal
ĠUn g
EN D
Ġirgend einer
Ġunber Ã¼hrt
ĠK amp
Ġtrocken e
heil kunde
bar em
inst anz
ĠKompon isten
Ġdies el
wand lung
ĠTr enn
ĠHeil bronn
Ġerg reifen
ĠVal entin
al la
ing o
Ġwahl weise
ĠStra hl
Ġblei be
Ġgem Ã¤ss
ĠfÃ¼ gt
test s
M P
e te
ch ange
B eg
I EL
ĠStadt rat
kon zepte
ĠV Ã¤ter
Ã¶ff nungs
Ġpriv ater
ĠNAT O
W el
ĠMan ip
Ġlin k
Ġkomp akt
ĠStar ter
Gesch ichte
Ġbe absichtig
Ġ19 0
ĠHo hl
Ġmusikal isch
ĠF ind
ĠZ R
Ã¤ng lichen
Ġbetrieb lichen
ĠWiderruf srecht
Ġsa ison
sch alen
T ick
ĠD eg
ĠI HK
ĠFac etten
lieben en
spart nern
Ġvorgesehen en
Ġdar zustellen
Ġa v
ĠNeu jahr
ĠAnt eile
ĠKor ruption
ĠBeding ung
ab ler
achte ten
ĠBened ikt
f reu
Ġhand y
ĠEinzel handel
pfl anzt
um satz
og a
Ġde ckt
ĠTest ergebnisse
Ġgespeicher ten
Ã¤ k
stell bare
lie ge
Ġc ialis
ĠstÃ¤rk sten
ĠvorÃ¼ber gehend
ĠV ok
ĠL ichten
Ġer bracht
Ġo blig
Ġl u
ĠSt rumpf
Ġst u
ĠImpul s
i ppen
t wicklung
ĠP eg
ĠH ay
ell ungen
ĠDr ama
ĠerhÃ¤lt st
ĠLeiter in
ĠKomplex itÃ¤t
S K
or ing
ĠK Ã¤mpfe
ik ten
ĠJahrhunder te
Ġsm art
ildes heim
st opp
ĠD ance
ĠJahr t
Ġsel be
ĠHÃ¶ hlen
ĠSal on
kap elle
Ġm ess
ĠIr rt
ĠFinn land
ĠRend ite
n ie
eu tet
ĠAuf sicht
ĠTechn iker
ĠGel tend
Ð ·
er be
Ġauf fallen
ĠO LG
ieb te
ĠVern unft
r iert
Ġen ormen
ĠVerÃ¶ffentlich ungen
ĠBenutz ern
b our
ot in
no pf
ĠRad fahrer
Ġstabil en
ĠMehrwert steuer
t raining
ĠD umm
ĠB acken
ĠAn tik
Ġab genommen
ĠAuf regung
lÃ¤ss igkeit
k ow
ĠSp rit
g ottes
t um
st eigt
Ġb lack
ĠgefÃ¤hr liche
Ġass ozi
Ġein treten
ĠAd olf
merk male
V iele
ank auf
Ġverm ein
ĠAp otheken
ĠM IT
Ġaus drucken
Ġunver Ã¤ndert
ĠPay pal
ĠauÃŁerorden tlich
Ġwar tete
rie sen
ĠEhe paar
Ġabwechslungs reiche
Ġh igh
Ġin ne
ight s
ĠDos is
Ġverw Ã¶hnt
Ġober e
ĠÃ¼bersch reiten
ĠKatastrop hen
Ġs eh
Aut or
Ġs in
ren te
Ġind irekt
Ġed len
ĠDigit ale
Ġlei b
gleich heit
ĠRes onanz
sprach ige
ĠVen edig
Ġdis sertation
Ġwin z
#### ####
t aschen
at al
ĠÃľber weisung
sk a
ĠGesprÃ¤ch s
ĠCan on
ĠFrancis co
C up
S R
T ext
Ġd om
Pro fil
N a
ĠK redite
ĠWein gut
ĠBetreu er
ch arakter
Ġaus sen
gesch altet
off iz
str eit
Ġrelev ante
Ġprim Ã¤r
ĠEr ic
og gen
ĠPar tien
ĠBestand s
lÃ¤uf igen
ĠR n
ĠAuf wendungen
af one
Ġzentr aler
m isch
u alisierung
techn isch
st einer
Ġvor zustellen
ĠP on
Ġge forder
ĠVor wÃ¼rfe
ĠFrei heiten
ĠBeruf e
n nen
st ige
Ã¼ le
ver sprechen
ĠAp ost
ĠVitam ine
Ġun voll
ĠT Ã¤nzer
ĠVer dienst
Ġst Ã¼rzen
be zeichnung
ĠGeschÃ¤fts fÃ¼hrung
ĠKlima wandel
Ġkompeten ten
be werber
Ġverlin kten
Î ±
ack el
m eln
ĠT ip
schaft lich
ĠCre w
ĠE chte
Ġan wesen
ĠUn ited
ĠBau stellen
Ġpsych ischen
ĠS etzen
qu en
ĠFein de
" ).
Ġ est
Ġk reis
Ġam Ã¼s
ĠUnter b
ĠPublik ums
ĠCro w
Ġgelie bt
f ia
Ġsch Ã¤r
Ġbef riedigen
Ġerstmal ig
Ġgra v
ĠFotograf ien
V oll
ĠSch ar
ĠÃľber wachungs
wor ks
bas ierten
Ġh ing
sicht liche
Ã¤ck chen
ĠEk zem
zÃ¼ gl
ĠKan inchen
upp ort
Ġmus ik
Ġpfl anzen
rechn ungen
m ig
Ġzu lassen
ĠSt Ã¼tz
ru hen
no se
Ġange stre
ĠBo y
Ġgeb rauchen
mens ionen
ĠM M
Ġver lieÃŁ
ĠFest e
Ġkrank en
ver stÃ¤r
Ġr is
ĠZwei te
ĠGang bang
ĠKul isse
mit arbeiter
ĠFern bedienung
teil er
ĠGer d
liessen d
Ġgenehm igt
ĠS Ã¤ulen
ĠLu pe
per iode
Ġeffizien te
ĠWur de
O ption
Ġwer ben
ĠEx pert
K ar
ĠJ ag
sp raxis
ĠKl icks
ĠMark et
Ġgelegen e
osm ose
Ġherausragen de
ĠStand punkt
Ġschlecht es
ĠgefÃ¤hr lichen
Ġorden tlichen
ĠR in
ĠWir kungen
Ġreg ulÃ¤ren
ĠPrior itÃ¤t
en er
Ġim pos
ĠHoch wasser
Ġess ay
ĠAl i
ess elt
ingen ieur
ĠVerpack ungs
Med ien
Ã¤uÃŁ ert
D N
le hne
ĠL um
all em
ĠEnt decke
Ġgest euert
ĠSa un
ĠWart ungs
ĠAff Ã¤re
ĠCouch tisch
hÃ¤ fen
ĠT alente
ĠjÃ¼ng ste
lie derung
ĠGes ucht
wir te
Ġeinz ut
ĠVerf asser
ĠIntens itÃ¤t
ĠVerwand ten
ĠDarauf hin
Ġd rum
ĠMin us
kolle gen
W A
Ġge steckt
ĠKl ienten
Ġausgieb ig
Ġl asst
ĠSt roh
Aut o
k ennung
m os
ĠEr den
Ġber eichern
ĠY or
Ver b
ĠEth ik
ĠF ieber
ĠR iver
ĠJ Ã¤nner
ver fÃ¼
ĠDu al
Ġ12 8
ĠVerpf legung
Ġschnell es
ĠEt age
ĠZ ent
Ġt rÃ¤umen
ĠKom miss
Ġatt raktiver
Ġsepar at
ĠT ap
Land es
ĠAusflug s
ĠH ebel
Ġim plemen
Ġaus Ã¼ben
ho u
Ġkinder zimmer
ĠParlament s
grÃ¶ÃŁ te
ĠO d
Ġum liegenden
Ġaufge teilt
ĠgroÃŁzÃ¼g ig
Ġann Ã¤hern
ĠGeltend machung
ĠPhil osoph
ĠMÃ¼ hle
ĠÃľber mittlung
Ġti me
Ġaus suchen
ĠOm ega
varian te
ĠF alt
Ã¶ geln
S teuer
ĠB ER
Ġzu gest
sp osition
ĠkÃ¶n ig
ĠTh ai
Ġbelieb igen
ĠKrie ger
ĠF lieger
ĠFl irten
stand es
ĠLiefer ungen
Ġmaxim alen
rest aurant
Ġall jÃ¤hr
Ġklass ischer
bro wser
ĠOste uropa
ĠM Ã¶rder
ter ungen
ĠL od
ĠL AN
ĠZ iegen
ĠGe fr
ĠSo hle
Ġbet rÃ¤
ĠÃĸ le
Ðµ Ð½
ĠSchiff s
Spiel er
schi ffe
ator in
Ġhal f
ĠOld timer
Â ©
ĠW Ã¤hrungs
Ġab gem
Ġgesch lecht
ĠKor b
ĠjÃ¤hr liche
Ġgesundheit lichen
ĠKÃ¼n ste
ĠUrsprÃ¼n glich
Ġent nommen
Ġbes p
rechn ungs
b zw
ĠP utin
Ġ19 00
Ġunmittel baren
K urs
j an
M Ã¤r
ĠT ai
ĠDe pression
Ġbeh ei
ĠIst anbul
Ġdiplom arbeit
Ġein gesetzten
ĠSt y
ien d
ĠAb bruch
berg s
ĠBis lang
Ġprofession eller
ä º
Ġs hem
Ġm ethod
is ierter
ĠN on
ĠprÃ¤ gen
Ġanzu geben
Ġrest aur
;;;;;;;;;;;;;;;; ;;;;;;;;;;;;;;;;
ĠW alt
ĠU rin
ĠSp ritz
beg eister
ĠOper ationen
Ġgelungen en
ĠnÃ¶r dlichen
g reg
ĠBundes ministerium
t ran
sch ir
wer tig
Ġern euert
berech tigt
Ġk alk
lei dung
ĠSp ei
ĠUnter schrift
sicht lichen
ĠLiefer zeit
Ġmed iterran
Ġausges ucht
ĠR C
od ien
Ġverf assungs
J an
ĠFot zen
ĠArbeits losigkeit
ĠKul issen
ĠSied lung
b on
u gt
ĠFir e
ĠWander er
L ED
ĠAl gor
Ġeindrucks voll
ĠP os
Ġan g
ent ag
ĠHaupt sache
ĠzÃ¼ gig
Ġau stral
Ġgest ohlen
ĠDem enz
ĠLekt Ã¼re
W ind
k ru
Ġein sehen
Ġre c
ĠDre ck
P olit
ĠN ow
Ġt u
adem y
ĠSÃ¤ ure
athl on
Ġm ega
ild ing
Ġverl Ã¤ngern
22 3
Ġeinzu stellen
........ ........
Ġaussage krÃ¤f
I EN
g raf
ĠSch mal
Ġab lehnen
ish ing
p ension
mer s
zei ger
ĠEl be
Ġbef indlichen
ĠFertig stellung
Ġ Ñģ
ĠK itz
ĠÂ ´
vor bereitung
Ġweg zu
ĠSan ierungs
. (
ĠL aus
ul ierten
polit ische
ĠÃĦsthet ik
p re
Ġk rieg
ĠL yr
Ġp osten
og nit
Ġmit teilte
ip e
ĠHen ry
kombin ation
ĠV e
Ġman ches
Ġ19 38
Ġsicher stellen
Ġschw ule
ĠBir ken
um l
Ġab out
rie bes
ĠInstrum enten
Ġschar fen
ĠReicht um
ĠL amm
Ġum gew
ĠSport arten
ĠGut haben
Ġrespe kti
P ER
z ieren
ĠKre b
Ġst illen
ĠÃ¼ber arbeitet
ĠOrganis ations
Ã¤chs ische
ĠS ite
ĠF eu
Ġfest halten
ĠHeil praktiker
V ideos
Ġt ue
Ġtags Ã¼ber
ungs bereich
ĠPor zellan
ĠWeihnachts markt
ĠB ahnen
ĠE valu
Ġge druck
Ġst ieÃŁ
uÃŁ te
Ġbr as
sproblem e
Ġbeleg te
Ġl okal
Ġaus bildung
ĠsÃ¤mt licher
H eim
V ER
Ġ Ï
ĠB D
le gend
Ġfl Ã¼
ĠJon as
sprodu kt
ĠC PU
ĠAn zug
ĠPro grammen
ĠIm port
Ġrichtig er
ĠBi ologie
ĠVerm ietung
Ġdrin nen
h on
... "
ĠNort h
k iste
ĠH aufen
Ġkon sum
ĠLandes hauptstadt
ĠRichter in
ĠKandid at
ĠNic ole
W F
ess or
fr ucht
Ġjen es
Ġbequem e
U B
ĠB utt
Ã¼t teln
ĠCo ol
ĠFavor it
Ġf Ã¶r
schw anz
ĠWest e
Ġextrem e
eu f
Ġabge deckt
ĠGroÃŁ stadt
ĠT S
Ġhochwer tiges
ĠFa sten
Ġnied rige
mm el
Ġbl ind
greif end
fl ikt
ĠFl ut
ph abet
ank a
Ġgesch ossen
cl us
ĠStraÃŁen bahn
ĠWen iger
Ġausgestatte te
ĠGegeben heiten
Ġselten en
Ex perten
ie m
ĠD ah
Ġh Ã¤us
ĠW unden
verb und
stechn iken
te e
Ġaus bauen
lei bt
Ġ13 5
F inanz
ik atoren
ver y
ĠPlan et
ĠGesellschaft s
Ġfac ebook
Ġm or
ĠZ Ã¤hl
wer de
bei spiele
nach richten
ĠSteuer berater
Ġra ffin
ĠG ent
Ġst art
Ġbeg reifen
Ġzeit nah
ĠWest falen
st raining
ĠTem p
Ġabs ur
ĠkÃ¼nf tige
H err
l inger
ser ien
all ye
rÃ¤ dern
ĠSommer ferien
ĠHalte stelle
g ungs
Ġgr enz
Ġverm ute
Ġd ienst
Ġsch icke
ĠBe kleidung
ĠTra vel
Ã¼ch ter
Ġre ale
Ġfr ischer
ĠZukunft s
Ġorganis ierte
ĠSyn chron
s ig
el ess
Ġaus fÃ¼llen
Ġber Ã¼hr
ik ern
Ġnach ge
Ġschnell st
dienst leistungen
Ġkn all
ausschuss es
Ġkop ieren
st Ã¶rung
sch Ã¤tzen
sp rinzip
ĠWissenschaft s
Ġvoraus gesetzt
ch ain
os k
che ck
ĠSe el
ĠSchw Ã¤che
ĠNe un
ĠOrt steil
amer ikanische
Ġpreis wert
B ad
h us
u de
Ġverlie f
ĠThÃ¼r inger
T ran
der obe
ĠL kw
ĠZ Ã¼nd
ĠÃ¼b liche
ĠTaschen geld
ĠHu bert
ĠNeck ar
F O
u ktion
Ġsch eiter
ĠNic ol
ĠM ahn
Ġab holen
Ġvor liegende
gesetz e
b rie
ĠSch Ã¶pfung
Ġha ften
ĠTit an
k Ã¤ufe
y ers
ĠC redit
ĠCli ent
C K
ĠAus strahlung
Ġunglaub liche
Ġsonder lich
Ġgewe ckt
ad rat
Ġ19 69
ĠGewinn linien
ĠBaut eile
Ġdemokrat ischen
w urm
Ġt ages
prÃ¤ senz
Ġlie gende
ĠMag ic
ĠKop ien
ar es
Ġver folg
ĠKon sistenz
ĠBundes gerichtshof
IL L
ĠL ars
Ġempf inden
Ġern annt
Ġleg al
D L
ĠC ater
ĠAn forderung
ĠEm il
Ġkomfort able
G rad
h Ã¤lfte
ĠT s
ĠzurÃ¼ck kehren
ĠRelig ionen
ĠÃ¼ber schau
ĠÃľber gangs
ĠGem Ã¤ÃŁ
einer ziehen
ivi den
Ã¼ndig t
por tieren
Ð ¹
ĠAb d
ĠAuf preis
ĠDo uble
ĠRuhr gebiet
h anden
n Ã¤ck
ĠAus zug
ul den
pro vider
bes ucher
Ġabsolv ierte
Stud ien
it at
Ġnach her
Ġstren gen
ĠrÃ¶m ischen
Ġf Ã¶rder
ĠVertrag spartner
ĠRa iffeisen
kont roll
aff el
c an
d on
ĠEr leich
Ġ3 65
eld orf
sst ruktur
bil anz
ĠIden tif
Ġs agten
Ġf asst
ob te
inder ungen
ĠBeruf serfahrung
mitt lungs
ti zen
ĠT anzen
Ġte ppich
ĠErst aun
ĠÃ¤uÃŁer e
farb ig
Ġanget an
Ġ arr
ĠL otto
Ġmin i
Ġerg onom
dien sten
r uss
co ut
Ġwh ich
as a
ĠH IV
ik alien
ĠMar y
ph ys
asch in
Ġsp Ã¼rt
ĠInfr arot
f ell
re ste
Ġlag ern
Schn itt
h ur
ĠR inder
ĠHer zlich
ĠErl angen
Ġunheim lich
gesch ickt
Ġangemessen en
f ont
Ġsel e
Ges etz
Ġsepar ate
Ð ¿
Ġgew aschen
Ġlangsam er
verf assungs
Ġt abletten
ĠBesch affenheit
Ġverw altet
Ġhor izont
v ard
Ġaus zul
ĠBo hnen
ĠVi ktor
Ã¤ glich
Ġvor zeitig
ok umente
ĠBÃ¼ gel
besch eid
Ġent fÃ¤llt
eig ht
ĠDat ent
ĠAbs icherung
T ex
ĠD schungel
ĠK V
ĠK ri
ent zÃ¼ndung
Ġst Ã¶bern
Ġsp ritzen
Ġeffe ktiver
Ġroman tische
B eim
ĠA telier
ĠDe pot
ĠLebens raum
f ries
ĠB uche
Ġan k
ĠHoch glanz
ĠNutz ers
Ġamaz on
m Ã¼n
ĠC are
ĠIng wer
Port al
Ġignor iert
A mer
iz a
reu er
bin sel
Ġrepar ieren
H O
Ġm ikro
os met
bo ards
Ġun geh
Ġsp enden
ĠBe er
Ġ| --
Ġkn ack
ĠAnmer kung
S onnen
w ett
ĠAn fahrt
ĠRe cycling
Ġgeb rauchte
ĠF ru
ĠH ttp
wei ser
wer bst
ĠOb ama
ĠKomment aren
te ams
ĠGes etzen
Ġamb ition
ĠDÃ¶r fer
Ġder jenige
ĠT HE
ĠAus legung
ĠDoppel bett
ĠVen e
kÃ¤ sten
ĠVirt ual
ĠInszen ierung
ka ppe
ĠErst mals
ĠAussch reibung
M y
l lt
sch aum
ĠB U
Ġsch uf
ĠTeil nehmen
Be weg
Ġ2 10
ag ing
ĠDar an
ĠProf ile
ĠDownload s
ĠTim es
ĠB I
ĠM arburg
ĠVor arl
sk irche
schn eider
ĠCont in
Ġli zenz
ĠPrÃ¤z ision
at men
Ġgegen einander
An t
haft ung
Ġauf satz
ĠUn ent
Al b
gemÃ¤ ÃŁen
R und
Ġs ingt
ĠGn ade
ĠJÃ¼n ger
ĠFreu den
schÃ¼t zer
eln den
ĠHand arbeit
Ġsex uell
ĠAspe kten
Ġdrei er
ĠLes ung
Ġleb ten
vort eil
G mbH
ann el
ĠMit ternacht
ĠZer tifizierung
ĠDemonstr ation
Ġweiterentwick elt
ĠT alk
ok ia
Ġopti sche
gest alten
Ġvermein tlich
S zene
ĠT ja
il ch
ĠAl ice
un ch
ĠCh irurgie
ĠMed i
ĠEg o
ĠKle be
Ġerm u
Ġgenutz ten
ĠH Ã¼l
Ġt reff
auber t
ĠSonnen aufgang
Ġjen em
ĠAbl Ã¤ufe
ĠH alten
ĠUN ESCO
Ġnutz te
Ġfestge legten
Ġaus zur
ĠAl ben
leb te
ĠgrÃ¶ÃŁer er
zut eilen
b rau
ĠC A
Ġfor men
ĠGet rÃ¤nken
ĠGewerk schaften
bau ern
ĠLes ezeichen
ĠHilf est
r ika
ĠL TE
Ġauf steigen
ĠMÃ¶glich erweise
alis ierungs
Ger Ã¤te
Ġa ktiver
lau tern
ĠRob in
. ________
d n
Ġf enster
ĠBe bauung
Ġeinfach ste
sst Ã¶rungen
fel dern
Ġgeg ner
Ġges ungen
Ġgel ben
ĠPlan en
hotel s
an schlag
ĠLe asing
Ġgrundlegen den
st agen
ĠAb ruf
freund lichen
ĠHaust ier
ĠG ot
Ġr Ã¼hren
Ã¤m mung
ĠL ena
Ġr einer
ĠKauf entscheidung
ĠUmkehr osmose
etz ungs
ĠGe fallen
ĠGeschmack s
sem ester
ĠSicher lich
Ġ Ã¤t
fahr zeugen
Ġbesch rÃ¤nken
if izierung
ĠElekt ron
Ġein bezogen
ĠR GB
ver waltungs
Ġsp eichert
in tegr
Ġt v
stÃ¤n der
Ġausge zeichneten
ĠSa x
sver trag
Ġy e
Ġstaat lich
Ġâĸ º
Ġun ange
ĠI R
ĠLes ern
Ġspr ingt
Ġmonat liche
ĠW ichtige
Ġgem ischt
In g
ĠEnter prise
geb rauch
Ġirgend eine
ĠProp he
w l
z heim
ĠMar sch
Ġem pir
E X
it tern
Ġh allo
ĠL Ã¤den
Ġâ Ĺ
Ġdokumen tieren
o pfer
ĠPf ar
Po int
ĠR ate
Ġbe waff
00 00
ĠTre kk
ve c
ĠS ingen
Ġzu zÃ¼gl
ĠL an
Ġver schlagwortet
ad i
ĠKom pression
ĠlÃ¤nger er
ĠtÃ¼rk ische
Ġbil dete
Ġdaten schutz
sch Ã¤d
ĠC ob
Ġerm ordet
ĠAndr Ã©
l angen
Ġk uchen
schl auch
Ġle gten
prÃ¤ ch
ĠR ache
Ġab schlieÃŁend
ĠMÃ¼ hlen
ĠDres dner
Ġanspruchs vollen
Ġdem selben
ĠProdu ktivitÃ¤t
iss ionen
ĠMÃ¶ch te
B V
ĠS her
ĠH ur
ĠPro zessen
ĠXX L
ĠSp ace
Ã¤l tigung
fl ix
Ġfol glich
oo f
ĠAnti semit
play er
Fahr er
ĠK ragen
ser gÃ¤n
sp Ã¤t
auf kleber
ĠAus zeit
klÃ¤r ungs
Ġwei ÃŁer
ĠTaschen buch
ĠPassag iere
ĠAuf list
rÃ¼ m
ĠSe eho
ĠKar ib
hÃ¶ fen
ĠKr imi
neu e
Ġreligi Ã¶se
on ischen
fe der
Ġhoch glanz
Ġm b
ĠN uss
ĠUr sprungs
ĠDem okrat
ĠSaarb rÃ¼cken
F D
Ġh ies
im o
ain t
ĠSchnitt stellen
ĠGust av
in ett
Ġun zul
ĠZ ehen
ĠProgramm ier
ĠBi om
wirtschaft liche
m ehl
ĠP ens
Ġerwei st
ĠSp Ã¤testens
ĠalltÃ¤ glichen
ste cker
ĠLog in
ĠAnal sex
ĠMikro welle
er fahrung
ed a
our ce
ĠBesch leun
---- --
ĠArn old
ĠEngine ering
g sten
Ġ eu
ah ner
ed s
sol e
wissenschaft liche
ĠD utzend
ĠB enn
ĠRei sel
Ġfr isches
klus ion
Ġfort gesetzt
Ġpol nischen
ĠmaÃŁ geschneider
ĠHalb jahr
ĠD HL
ord neten
ĠRest aur
Ġperfekt es
ĠProzess or
Ġres pekt
ĠAbteil ungen
ĠEw igkeit
Ġbemerk bar
sk rank
ĠsÃ¤mt lichen
ĠkrÃ¤f tigen
ogen e
c in
Ġsp anische
ĠPf und
ĠMÃ¤r kten
Ġspiel erisch
ĠPlug ins
Ġp ic
Ġsp azieren
ĠBe cher
spiel s
ian ischen
Ġhand ge
ief st
verein barung
em e
Ġent fallen
Ġindividu eller
ĠnatÃ¼r licher
er ken
sch Ã¼sse
ĠB uÃŁ
wa ffe
ĠR ats
dr ig
ĠÃ¶k ologischen
D ownload
ĠL Ã¼gen
gemein den
Ġumzu gehen
au ÃŁer
icht liche
ĠZ elle
ĠZ ink
be vÃ¶lkerung
schul ung
wÃ¼rdig keit
f ra
Ġdurch gehend
ĠFahr rÃ¤der
ĠProgramm ierung
fest igkeit
Ġab gebaut
og o
Ġelekt ro
verband s
ĠSpark assen
u ppe
ĠS eiden
Ġk och
ier n
Ġst arr
ĠPar as
ĠB isch
Ġge fÃ¼t
me te
ĠgroÃŁ artigen
So zial
Ġinteressant es
ĠKali fornien
ĠHunder te
ĠEm otion
Ġvert ie
Ġrie cht
im es
ĠWe der
ĠSonnen schutz
ĠLad ung
IV E
G EL
stell igen
Ġbes uch
ĠSte h
Ġbeh eben
Ġverf ein
Ġk uche
Ġauf fÃ¤llig
ĠCont rol
D ann
ĠS ud
ien ds
ĠPR O
K auf
sch ach
olog in
ĠTri o
ĠAktu elles
H G
Ġun zureichen
ab s
ĠEr reichen
Ġgesch eitert
pfl anze
Ġsystem atisch
Ġun gar
Ġk uschel
ĠApp etit
ĠNord see
Ġumfassen des
Ġorden tliche
Ġengl ischer
Ġstarte ten
ĠmÃ¼ hel
ruf bar
ĠWasch becken
ĠCre ampie
ĠIng olstadt
ĠBetr achter
Ä ±
ĠGerÃ¼ chte
ĠBefest igung
ĠF ont
ĠEin spar
ffiz ienten
ĠKÃ¼r bis
Ġreal istisch
is l
ĠVer stoÃŁ
Ġgr enzen
ĠStr Ã¶
ĠZiel gruppen
Ġbl ick
ĠS ektor
el ementen
ĠSchei dung
Ġge grÃ¼ndete
ĠHaus frau
ĠAuff orderung
ĠErdbe ben
ĠOsc ar
ĠJ ess
ĠPro te
ĠTr anny
j ust
l ok
ok ol
je ktiven
Ġp unkten
Ã¤hr st
ĠSpr ich
ĠZeich nung
Ã¨ re
krit ik
Ġeingest uft
k it
al o
ĠC ore
ler eisen
ĠSti cker
zwe cke
ĠDisziplin en
ĠZim t
T age
ĠP ian
ĠSie ge
ĠAuf hebung
ĠEl fen
min Ã¼
sver hÃ¤ltnis
es kop
ĠB uck
ĠK uss
ĠL atex
Ã¶l ler
ĠKir sch
z Ã¤hler
re flex
Ġhier her
atis ierung
Ġversch Ã¤r
ĠPil ze
ĠSter ben
O kt
ĠSe arch
ĠÃ¼berw achen
F o
stra hlt
Stud ie
Ġs ites
ill t
ĠUr ban
ĠMag nes
ograf ischen
Ġetabl ieren
ĠP ist
Ġerwar tete
En glisch
ĠGef ickt
n berg
w ol
ĠS ix
ĠF kk
ĠK ate
Ġ19 71
Ġanges iedelt
ĠHÃ¼ ft
g ard
Ġ ul
Ġaus genommen
Ġabsolut es
Ġkap ital
Ġstrateg ischen
Ġehrenamt lich
p us
ant eile
Ġzeit gleich
ĠhÃ¶her er
ĠSchokol aden
ĠCannab is
ein g
ĠD rop
ĠEr ben
seh bar
wind igkeiten
Ġad d
Ġz B
Ġg i
B Ã¼r
ĠP auschal
Ġvor gehen
AC K
Mod elle
om i
Ġaufge treten
Ġcom puter
Ġnam entlich
s land
u sten
z erne
Ġbet onen
Ġregel recht
st uf
st our
ĠP N
ok e
ĠÃľber schrift
ĠVerb Ã¤nde
ĠJugend arbeit
verteidig er
B D
ĠGer ichten
Ġvorh ers
beg riffen
ĠbefÃ¼r chten
ĠF F
ĠH ong
c as
m ahl
w ollen
ĠM IN
ĠW em
ĠSt eiermark
Ġverm ag
Ġvier zehn
ĠLauf schuhe
Ġsu pp
a tel
b iss
anz ahl
ak ei
12 39
Ġsch Ã¤len
Ġab nehm
heit lich
ĠSex kontakt
ĠWertsch Ã¤tzung
ĠB ut
ĠH ilfen
ĠAn wohner
rin a
ĠSchl uÃŁ
com e
Ġklein sten
ĠHistor ische
H ilfe
ĠSch aft
fl Ã¼gen
ĠBundes lÃ¤nder
ĠSprÃ¼ che
br achte
reichen d
Ġind ire
ab zug
ĠC lin
ern et
ĠhÃ¶ f
ruf e
ĠE h
wei ss
ĠFir m
ĠPer iode
ĠMach ine
ĠGrund sÃ¤tze
drÃ¼ck e
Ġchar man
C asino
st ube
ĠfrÃ¶h lich
Ġer fahrung
ĠBe ein
ud io
ĠRoman tik
ĠMun chen
um men
ĠN ano
ĠKrÃ¤ ften
unn ing
Ġunters agt
Ã¶ gen
Ġu krain
spro jekte
ĠAktiv ierung
ĠRot wein
ĠKirchen gemeinde
ĠOlymp ischen
Ġmit bekommen
ĠSchl ampe
ĠMann schafts
mittag s
ĠWarte zeit
B it
Ġo ver
maÃŁ nahme
P il
ĠS Ã¼ÃŁe
ĠG ib
ĠL CD
qu emen
echs eln
fas ern
C amp
Ġaufge tragen
ĠSchul ungen
Ġgek ocht
ĠBÃ¤ der
Ġg rin
wick ler
ĠQu est
ĠSalz burger
Ġchem ischen
ĠVul kan
Ġt ri
ĠGar agen
Ġfreund in
Ġwirk lichen
Ġmed ien
ĠFal sch
st rÃ¤n
Ġan y
sp ace
Ġerfolgreich sten
bew usste
zy linder
ĠModern isierung
pla ys
sied lung
k ate
at tern
die se
ĠVersand Nr
Ġkrie gt
ĠS amt
Ġn er
aterial ien
ĠMart ina
ĠRen aiss
ĠOlymp ia
strate gien
ĠTageb uch
ĠN ina
Ġger au
ĠSex ual
ĠGel senkirchen
Ġvergangen e
[...]
