{"<s>":0,"<pad>":1,"</s>":2,"<unk>":3,"<mask>":4,"!":5,"\"":6,"#":7,"$":8,"%":9,"&":10,"'":11,"(":12,")":13,"*":14,"+":15,",":16,"-":17,".":18,"/":19,"0":20,"1":21,"2":22,"3":23,"4":24,"5":25,"6":26,"7":27,"8":28,"9":29,":":30,";":31,"<":32,"=":33,">":34,"?":35,"@":36,"A":37,"B":38,"C":39,"D":40,"E":41,"F":42,"G":43,"H":44,"I":45,"J":46,"K":47,"L":48,"M":49,"N":50,"O":51,"P":52,"Q":53,"R":54,"S":55,"T":56,"U":57,"V":58,"W":59,"X":60,"Y":61,"Z":62,"[":63,"\\":64,"]":65,"^":66,"_":67,"`":68,"a":69,"b":70,"c":71,"d":72,"e":73,"f":74,"g":75,"h":76,"i":77,"j":78,"k":79,"l":80,"m":81,"n":82,"o":83,"p":84,"q":85,"r":86,"s":87,"t":88,"u":89,"v":90,"w":91,"x":92,"y":93,"z":94,"{":95,"|":96,"}":97,"~":98,"¡":99,"¢":100,"£":101,"¤":102,"¥":103,"¦":104,"§":105,"¨":106,"©":107,"ª":108,"«":109,"¬":110,"®":111,"¯":112,"°":113,"±":114,"²":115,"³":116,"´":117,"µ":118,"¶":119,"·":120,"¸":121,"¹":122,"º":123,"»":124,"¼":125,"½":126,"¾":127,"¿":128,"À":129,"Á":130,"Â":131,"Ã":132,"Ä":133,"Å":134,"Æ":135,"Ç":136,"È":137,"É":138,"Ê":139,"Ë":140,"Ì":141,"Í":142,"Î":143,"Ï":144,"Ð":145,"Ñ":146,"Ò":147,"Ó":148,"Ô":149,"Õ":150,"Ö":151,"×":152,"Ø":153,"Ù":154,"Ú":155,"Û":156,"Ü":157,"Ý":158,"Þ":159,"ß":160,"à":161,"á":162,"â":163,"ã":164,"ä":165,"å":166,"æ":167,"ç":168,"è":169,"é":170,"ê":171,"ë":172,"ì":173,"í":174,"î":175,"ï":176,"ð":177,"ñ":178,"ò":179,"ó":180,"ô":181,"õ":182,"ö":183,"÷":184,"ø":185,"ù":186,"ú":187,"û":188,"ü":189,"ý":190,"þ":191,"ÿ":192,"Ā":193,"ā":194,"Ă":195,"ă":196,"Ą":197,"ą":198,"Ć":199,"ć":200,"Ĉ":201,"ĉ":202,"Ċ":203,"ċ":204,"Č":205,"č":206,"Ď":207,"ď":208,"Đ":209,"đ":210,"Ē":211,"ē":212,"Ĕ":213,"ĕ":214,"Ė":215,"ė":216,"Ę":217,"ę":218,"Ě":219,"ě":220,"Ĝ":221,"ĝ":222,"Ğ":223,"ğ":224,"Ġ":225,"ġ":226,"Ģ":227,"ģ":228,"Ĥ":229,"ĥ":230,"Ħ":231,"ħ":232,"Ĩ":233,"ĩ":234,"Ī":235,"ī":236,"Ĭ":237,"ĭ":238,"Į":239,"į":240,"İ":241,"ı":242,"Ĳ":243,"ĳ":244,"Ĵ":245,"ĵ":246,"Ķ":247,"ķ":248,"ĸ":249,"Ĺ":250,"ĺ":251,"Ļ":252,"ļ":253,"Ľ":254,"ľ":255,"Ŀ":256,"ŀ":257,"Ł":258,"ł":259,"Ń":260,"en":261,"er":262,"ch":263,"Ġd":264,"ei":265,"un":266,"ie":267,"st":268,"in":269,"an":270,"Ġs":271,"ein":272,"ich":273,"es":274,"au":275,"ĠS":276,"Ġw":277,"Ġun":278,"Ã¼":279,"on":280,"ge":281,"al":282,"te":283,"Ã¤":284,"Ġm":285,"Ġund":286,"Ġdie":287,"ar":288,"as":289,"ung":290,"it":291,"sch":292,"Ġv":293,"Ġein":294,"Ġb":295,"ĠD":296,"ĠA":297,"el":298,"or":299,"Ġder":300,"at":301,"ĠB":302,"Ġi":303,"Ġn":304,"Ġz":305,"hr":306,"Ġau":307,"ten":308,"ur":309,"gen":310,"ĠM":311,"em":312,"der":313,"Ġh":314,"Ġf":315,"ĠE":316,"Ġin":317,"ter":318,"ĠF":319,"den":320,"ĠK":321,"Ġk":322,"ĠG":323,"ĠW":324,"et":325,"Ã¶":326,"ĠP":327,"Ġzu":328,"lich":329,"ab":330,"ir":331,"ol":332,"ach":333,"ti":334,"Ġg":335,"am":336,"le":337,"ĠH":338,"ĠT":339,"Ã¼r":340,"de":341,"ĠI":342,"ck":343,"Ġdas":344,"eit":345,"ĠV":346,"Ġge":347,"ber":348,"ĠL":349,"ier":350,"ĠR":351,"Ġden":352,"ro":353,"Ġmit":354,"is":355,"Ġer":356,"il":357,"icht":358,"Ġan":359,"re":360,"us":361,"âĢ":362,"om":363,"Ġvon":364,"Ġist":365,"ig":366,"Ġauf":367,"um":368,"sen":369,"ut":370,"ÃŁ":371,"Ġal":372,"eh":373,"ra":374,"ĠN":375,"isch":376,"and":377,"Ġver":378,"ĠfÃ¼r":379,"se":380,"ann":381,"Ġo":382,"Ġl":383,"rei":384,"Ġim":385,"ben":386,"len":387,"ĠZ":388,"ĠU":389,"Ġ1":390,"ent":391,"Ġsich":392,"ft":393,"nen":394,"Ġnicht":395,"ĠSch":396,"Ġwir":397,"Ġsch":398,"Ġbe":399,"ion":400,"och":401,"ĠDie":402,"ser":403,"men":404,"Ġ(":405,"ĠSt":406,"Ġaus":407,"ĠJ":408,"Ġ2":409,"Ġp":410,"ĠVer":411,"Ġeine":412,"ind":413,"eu":414,"Ġdes":415,"ff":416,"ahr":417,"Ġes":418,"Ġauch":419,"ĠâĢ":420,"ĠC":421,"ag":422,"kt":423,"sp":424,"ĠIn":425,"Ġdem":426,"sten":427,"ehr":428,"ĠSie":429,"iel":430,"ĠAn":431,"Ġbei":432,"chen":433,"ell":434,"ah":435,"ing":436,"Ã¤n":437,"ungen":438,"Ġt":439,"Ã¼ber":440,"Ġso":441,"Ġab":442,"Ġst":443,"Ġj":444,"ĠO":445,"Ġwer":446,"ern":447,"Ġwie":448,"Ġich":449,"uch":450,"ik":451,"ien":452,"ver":453,"etz":454,"Ġals":455,"Ġoder":456,"wei":457,"ĠÃ¼ber":458,"esch":459,"..":460,"Ã¶n":461,"mer":462,"lei":463,"Ġwerden":464,"und":465,"os":466,"ĠEin":467,"Ġhat":468,"ot":469,"be":470,"hn":471,"enn":472,"ĠUn":473,"Ġsind":474,"ation":475,"ĠEr":476,"ungs":477,"Ġhab":478,"Ġsie":479,"Ġsein":480,"00":481,"oll":482,"uf":483,"im":484,"Ġvor":485,"ort":486,"Ġum":487,"tig":488,"ĠSp":489,"rau":490,"cht":491,"est":492,"Ġnach":493,"ad":494,"urch":495,"eil":496,"ischen":497,"Ġ-":498,"ul":499,"Ġdass":500,"Ã¼n":501,"ed":502,"ri":503,"ger":504,"Ġihr":505,"Ã¤t":506,"he":507,"anz":508,"Ġwar":509,"Ġwird":510,"aus":511,"eg":512,"pp":513,"hal":514,"end":515,"la":516,"ĠPro":517,"Ġeinen":518,"wer":519,"ang":520,"kti":521,"auf":522,"all":523,"Ġeiner":524,"tel":525,"eine":526,"Ġman":527,"Ġr":528,"Ġkann":529,"ler":530,"tern":531,"tet":532,"Ġzum":533,"pf":534,"01":535,"gt":536,"Ġda":537,"scha":538,"ĠâĢŀ":539,"ick":540,"zen":541,"ste":542,"Ġnoch":543,"Ġeinem":544,"ĠAl":545,"âĢľ":546,"Ã¼ck":547,"Ã¶r":548,"ĠkÃ¶n":549,"ĠDas":550,"zu":551,"Ġam":552,"Ġent":553,"ru":554,"ĠAr":555,"Ġzur":556,"ner":557,"iv":558,"Ġdurch":559,"art":560,"bt":561,"rÃ¤":562,"che":563,"ĠGe":564,"ĠDer":565,"igen":566,"Ġnur":567,"ĠJahr":568,"lichen":569,"Ġunter":570,"ĠAus":571,"Ã¤r":572,"eiter":573,"rie":574,"ĠMit":575,"ex":576,"Ġhaben":577,"Ġaber":578,"iert":579,"fÃ¼":580,"gel":581,"ank":582,"ster":583,"hl":584,"orm":585,"Ġsp":586,"ische":587,"lie":588,"eiten":589,"ĠRe":590,"Ġ\"":591,"arb":592,"op":593,"lin":594,"uss":595,"Ġ3":596,"Ġmehr":597,"geb":598,"og":599,"acht":600,"ĠBe":601,"liche":602,"ige":603,"Ġwur":604,"eben":605,"schaft":606,"ieren":607,"ehen":608,"stell":609,"ĠÃ":610,"ĠâĢĵ":611,"ĠIhr":612,"ess":613,"elt":614,"Ġbis":615,"Ġunser":616,"ĠEn":617,"ĠkÃ¶nnen":618,"dern":619,"ers":620,"schen":621,"eut":622,"atz":623,"gr":624,"bar":625,"ass":626,"aten":627,"hen":628,"Ã¤l":629,"keit":630,"her":631,"ommen":632,"ht":633,"Ġander":634,"eich":635,"bl":636,"assen":637,"ĠBer":638,"ĠGr":639,"Ġdies":640,"ist":641,"ellen":642,"Ġre":643,"ĠAb":644,"ahl":645,"Ġneu":646,"ĠVor":647,"schl":648,"heit":649,"Ġ201":650,"ert":651,"glich":652,"fen":653,"ĠAuf":654,"Ġuns":655,"Ġwenn":656,"ill":657,"utz":658,"ob":659,"etzt":660,"me":661,"Ġall":662,"du":663,"ÂŃ":664,"ffen":665,"ÃŁen":666,"eigen":667,"rit":668,"Ã¤hr":669,"ont":670,"...":671,"ges":672,"sam":673,"unden":674,"Ġber":675,"ant":676,"Ġdann":677,"mal":678,"ech":679,"rÃ¼":680,"mt":681,"ok":682,"ĠEs":683,"ap":684,"ak":685,"ĠWir":686,"ast":687,"ild":688,"Ġkl":689,"ic":690,"ze":691,"bst":692,"Ġ4":693,"fahr":694,"ehmen":695,"ktion":696,"Ġges":697,"ken":698,"alt":699,"Ġwurde":700,"Ġgen":701,"Ġsehr":702,"Ġweiter":703,"Ġbes":704,"ĠIch":705,"ekt":706,"Ġwas":707,"Ġwieder":708,"Ġje":709,"pl":710,"iz":711,"ss":712,"war":713,"nis":714,"ĠZu":715,"Ġdar":716,"wie":717,"age":718,"ne":719,"Ġsoll":720,"ĠAu":721,"od":722,"Ġ5":723,"ĠSo":724,"Ġschon":725,"Ġc":726,"ibt":727,"Ġet":728,"per":729,"Ġhier":730,"Ġimmer":731,"ÃŁe":732,"lo":733,"Ġlie":734,"ĠBei":735,"Ġ19":736,"ĠIm":737,"eb":738,"rag":739,"iele":740,"Ġdiese":741,"ial":742,"form":743,"kl":744,"ack":745,"att":746,"ho":747,"ĠHer":748,"Ġhin":749,"ĠZeit":750,"einen":751,"Ġviel":752,"fach":753,"Ã¶glich":754,"fer":755,"eits":756,"Ġgro":757,"ark":758,"Ġher":759,"Ġgew":760,"Ã¼t":761,"osten":762,"Ġgibt":763,"Ġganz":764,"Ã¤ch":765,"ĠNach":766,"ĠUm":767,"leich":768,"fe":769,"achen":770,"eld":771,"Ġkom":772,"gend":773,"ĠÂ":774,"Ġsel":775,"Ġvom":776,"ĠGes":777,"Ġhabe":778,"mit":779,"itÃ¤t":780,"Ġmir":781,"schie":782,"eln":783,"elle":784,"ohn":785,"fl":786,"fol":787,"dem":788,"was":789,"inden":790,"los":791,"Ġa":792,"hnen":793,"Ġalle":794,"ĠMen":795,"Ġbest":796,"Ġzwei":797,"pt":798,"dig":799,"ĠKl":800,"hne":801,"lung":802,"agen":803,"Ġmich":804,"onder":805,"qu":806,"fÃ¼hr":807,"br":808,"inder":809,"ĠBl":810,"Ġdieser":811,"zeit":812,"ud":813,"ĠEnt":814,"eite":815,"ĠÃľ":816,"ett":817,"Ġdu":818,"Ġle":819,"ĠOr":820,"reis":821,"Ġe":822,"ĠUnd":823,"ĠUnter":824,"aut":825,"ord":826,"tigen":827,"ĠGesch":828,").":829,"bur":830,"Ġgegen":831,"ichtig":832,"ragen":833,"ĠArb":834,"halten":835,"onn":836,"kte":837,"ÃŁer":838,"ate":839,"adt":840,"Ġgut":841,"sche":842,"Ã¼hr":843,"Ġgem":844,"ollen":845,"Ġeigen":846,"Ġeinfach":847,"ĠCh":848,"ĠMa":849,"cken":850,"vor":851,"lau":852,"gesch":853,"Ġ6":854,"ĠDeut":855,"id":856,"ĠWas":857,"spiel":858,"ĠFl":859,"Ġmein":860,"rank":861,"amm":862,"inn":863,"ierung":864,"issen":865,"ale":866,"ĠPl":867,"ĠWer":868,"Ġkeine":869,"Ġwo":870,"ationen":871,"iger":872,"olle":873,"reich":874,"Ġger":875,"angen":876,"Ġsowie":877,"Ã¼s":878,"itz":879,"ĠKom":880,"Ġbek":881,"ielen":882,"Ġeines":883,"ĠÃľber":884,"amit":885,"Ã¶ch":886,"Ġmal":887,"eist":888,"ke":889,"eute":890,"rin":891,"ran":892,"ĠSpiel":893,"wischen":894,"ĠKon":895,"atur":896,"net":897,"tige":898,"esen":899,"Ġpro":900,"reu":901,"ĠFrau":902,"Ġgr":903,"ĠLeben":904,"eht":905,"Ġ|":906,"no":907,"ĠTh":908,"Ġihre":909,"icher":910,"Ġselbst":911,"ĠEur":912,"wick":913,"unde":914,"Ġohne":915,"ug":916,"ade":917,"ive":918,"Ġgesch":919,"for":920,"Ġson":921,"nah":922,"Ġbet":923,"erson":924,"pro":925,"Ġwen":926,"),":927,"gab":928,"abei":929,"Ġbeim":930,"ĠLand":931,"bau":932,"ktiv":933,"ĠHand":934,"tion":935,"stÃ¤n":936,"imm":937,"alen":938,"off":939,"arten":940,"ucht":941,"we":942,"Ã¤u":943,"Ã¶ff":944,"ia":945,"ater":946,"Qu":947,"Ġhatte":948,"Ġjed":949,"weise":950,"ĠDa":951,"so":952,"ma":953,"ĠSex":954,"Ġwel":955,"line":956,"Ġmuss":957,"geben":958,"Ġdiesem":959,"ard":960,"teil":961,"zeu":962,"Ġetwas":963,"satz":964,"ĠMar":965,"eim":966,"fall":967,"ften":968,"yst":969,"wend":970,"ust":971,"Ġ200":972,"ĠFÃ¼r":973,"ha":974,"Ġdir":975,"spr":976,"ĠDaten":977,"ĠWie":978,"Ġerst":979,"Ġange":980,"ĠBet":981,"Ġdeut":982,"eren":983,"ding":984,"ay":985,"Ġseine":986,"Ġ7":987,"Ã¤h":988,"Ġanderen":989,"ĠDu":990,"ide":991,"Ġbie":992,"ĠMenschen":993,"ez":994,"stand":995,"arbeit":996,"ĠQu":997,"zt":998,"Ġ8":999,"ĠSe":1000,"ĠRei":1001,"aufen":1002,"Ġins":1003,"ystem":1004,"cher":1005,"Ã¶l":1006,"ment":1007,"amen":1008,"Ã¤d":1009,"io":1010,"oren":1011,"ĠWenn":1012,"ine":1013,"Ġ0":1014,"Ġob":1015,"kel":1016,"ruck":1017,"ierte":1018,"ition":1019,"halt":1020,"sk":1021,"Ġgel":1022,"sst":1023,"Ġdamit":1024,"burg":1025,"ĠLie":1026,"ternehmen":1027,"Ġja":1028,"Ġfinden":1029,"nung":1030,"innen":1031,"uten":1032,"ĠBo":1033,"ĠProdu":1034,"ren":1035,"ĠHo":1036,"Ġgef":1037,"ute":1038,"aum":1039,"Ġmachen":1040,"ĠGer":1041,"ange":1042,"Ġdoch":1043,"ĠKinder":1044,"Ġgeht":1045,"ĠAm":1046,"immer":1047,"ce":1048,"Ġschn":1049,"ichte":1050,"Ġlei":1051,"land":1052,"rechen":1053,"ĠAut":1054,"ĠTag":1055,"ĠIhre":1056,"Ġausge":1057,"ĠBr":1058,"weg":1059,"Ġ10":1060,"aar":1061,"bes":1062,"halb":1063,"ahn":1064,"stellt":1065,"Ġjetzt":1066,"vers":1067,"ĠmÃ¼s":1068,"Ġneue":1069,"our":1070,"Ã¤lt":1071,"inde":1072,"lt":1073,"ĠGrund":1074,"ĠJahren":1075,"uchen":1076,"Ġviele":1077,"ĠBes":1078,"Ġ9":1079,"zei":1080,"schland":1081,"dr":1082,"ĠTeil":1083,"schieden":1084,"rad":1085,"hm":1086,"eiÃŁ":1087,"gang":1088,"ub":1089,"Ġdenn":1090,"ander":1091,"Ġ/":1092,"ppen":1093,"schei":1094,"Ã¶s":1095,"Ġalles":1096,"Ġkein":1097,"Ġgeh":1098,"ĠwÃ¼r":1099,"ow":1100,"ip":1101,"Ġzwischen":1102,"under":1103,"Ġbeg":1104,"lage":1105,"ats":1106,"ischer":1107,"ĠAuch":1108,"Ġwurden":1109,"ost":1110,"atÃ¼r":1111,"zent":1112,"akt":1113,"ichten":1114,"ĠEine":1115,"keiten":1116,"Ġwaren":1117,"setz":1118,"Ġlassen":1119,"fahren":1120,"Ġnun":1121,"Ġsondern":1122,"mittel":1123,"org":1124,"tem":1125,"fÃ¼r":1126,"ĠStadt":1127,"bild":1128,"kommen":1129,"ĠMan":1130,"ĠIhnen":1131,"olog":1132,"ĠWelt":1133,"zie":1134,"ingen":1135,"asse":1136,"wir":1137,"ele":1138,"si":1139,"Ġseit":1140,"ĠSchw":1141,"gem":1142,"Ġeben":1143,"Ã¤re":1144,"aupt":1145,"201":1146,"amt":1147,"ov":1148,"annt":1149,"Ġkonn":1150,"ĠMus":1151,"Ġ&":1152,"fte":1153,"ks":1154,"Ġdabei":1155,"ium":1156,"esse":1157,"rieb":1158,"eig":1159,"urz":1160,"Ġsollte":1161,"ĠPerson":1162,"Ġeinz":1163,"alten":1164,"Ġbin":1165,"Ġbereits":1166,"richt":1167,"licher":1168,"ĠBest":1169,"ogen":1170,"Ġ18":1171,"undes":1172,"sel":1173,"ĠHaus":1174,"ĠPart":1175,"anden":1176,"rot":1177,"ĠMin":1178,"ĠMon":1179,"unktion":1180,"ĠUhr":1181,"tur":1182,"ĠFr":1183,"Ġunsere":1184,"essen":1185,"ĠDeutschland":1186,"oten":1187,"Ġbesonder":1188,"Ġandere":1189,"ald":1190,"Ġersten":1191,"ĠDiese":1192,"Ġaller":1193,"ache":1194,"ĠFahr":1195,"rage":1196,"igkeit":1197,"âĢ¦":1198,"hol":1199,"amil":1200,"ĠmÃ¶ch":1201,"ĠNeu":1202,"lieÃŁ":1203,"lagen":1204,"12":1205,"ĠGl":1206,"Ġdieses":1207,"ĠJahre":1208,"ph":1209,"ĠWei":1210,"ĠEx":1211,"ĠInform":1212,"ĠGew":1213,"ĠVers":1214,"ĠKont":1215,"berg":1216,"stag":1217,"St":1218,"blem":1219,"Ġgest":1220,"Ġseiner":1221,"orden":1222,"Ġkosten":1223,"chn":1224,"ĠAber":1225,"ĠReg":1226,"inter":1227,"Ġkommen":1228,"ppe":1229,"Ġbesch":1230,"folg":1231,"Ġsei":1232,"Ġletz":1233,"Ġverl":1234,"ĠUnternehmen":1235,"ĠPol":1236,"Ġnie":1237,"000":1238,"alitÃ¤t":1239,"Ġex":1240,"stellung":1241,"10":1242,"Ġ20":1243,"ian":1244,"ilder":1245,"Ġwill":1246,"ĠmÃ¶glich":1247,"gl":1248,"uche":1249,"ĠWoch":1250,"sammen":1251,"reichen":1252,"erv":1253,"Ġde":1254,"auer":1255,"ĠBild":1256,"Ġte":1257,"ĠFre":1258,"ĠzurÃ¼ck":1259,"Ġgleich":1260,"Ġzusammen":1261,"wo":1262,"Ã¤uf":1263,"ĠRo":1264,"ail":1265,"enden":1266,"ativ":1267,"wert":1268,"Ġheute":1269,"uÃŁ":1270,"Die":1271,"ĠÃĸ":1272,"Ġalso":1273,"ĠDe":1274,"ĠIntern":1275,"ĠmÃ¼ssen":1276,"unkt":1277,"indet":1278,"ĠArbeit":1279,"tag":1280,"pr":1281,"Ġdrei":1282,"Ġper":1283,"Ġ15":1284,"Ġverschieden":1285,"ĠThem":1286,"ĠEl":1287,"aden":1288,"sicht":1289,"atÃ¼rlich":1290,"Ã¤tz":1291,"ĠkÃ¶nn":1292,"ĠTe":1293,"haus":1294,"Ã¤nder":1295,"trag":1296,"euer":1297,"min":1298,"unter":1299,"reiben":1300,"ĠSchl":1301,"ts":1302,"tschaft":1303,"erne":1304,"stellen":1305,"ierten":1306,"eile":1307,"zeich":1308,"ĠWeb":1309,"raum":1310,"dung":1311,"Ġvers":1312,"zw":1313,"ac":1314,"ĠStra":1315,"amp":1316,"asch":1317,"ĠBau":1318,"Ġdazu":1319,"Ã¤hrend":1320,"klich":1321,"Ġweil":1322,"ĠGro":1323,"Ã¼nst":1324,"ĠZus":1325,"zahl":1326,"Ġschnell":1327,"Ġunserer":1328,"if":1329,"Ã¤m":1330,"Ã¼l":1331,"entlich":1332,"Ġ...":1333,"Ġneuen":1334,"nit":1335,"ĠHier":1336,"ktu":1337,"Ġkommt":1338,"ĠWasser":1339,"gie":1340,"ere":1341,"bel":1342,"kten":1343,"Ġeinmal":1344,"ym":1345,"rum":1346,"ĠFor":1347,"Ã¤ÃŁ":1348,"ĠGeb":1349,"ĠDes":1350,"Ġihrer":1351,"In":1352,"Ġihn":1353,"ign":1354,"11":1355,"Ġ12":1356,"achten":1357,"iss":1358,"Ġdiesen":1359,"hÃ¤lt":1360,"ĠfÃ¼hr":1361,"eister":1362,"Ġbef":1363,"Ã¤hl":1364,"Ġmeine":1365,"ies":1366,"ĠschÃ¶n":1367,"ĠMed":1368,"Ġihren":1369,"gar":1370,"ĠLe":1371,"ĠGem":1372,"rat":1373,"ĠUr":1374,"ĠInter":1375,"ammen":1376,"klÃ¤r":1377,"ĠOn":1378,"man":1379,"ĠDurch":1380,"ĠSte":1381,"ĠKo":1382,"ĠPf":1383,"ĠGen":1384,"Ã¤ng":1385,"ĠSti":1386,"ĠWohn":1387,"ritt":1388,"Ġgeb":1389,"ende":1390,"Ã¤nger":1391,"ĠRecht":1392,"agt":1393,"ron":1394,"ĠCo":1395,"ĠFot":1396,"Ġsteht":1397,"ĠFrei":1398,"schutz":1399,"schu":1400,"wa":1401,"ĠFrauen":1402,"ĠKunden":1403,"Ġfol":1404,"isten":1405,"glie":1406,"ott":1407,"yp":1408,"tlich":1409,"forder":1410,"orn":1411,"mann":1412,"gleich":1413,"Ġho":1414,"schein":1415,"ker":1416,"ĠMo":1417,"mus":1418,"ĠEuro":1419,"Ġverb":1420,"rem":1421,"ww":1422,"Ġ.":1423,"Ġhoch":1424,"ĠÂ»":1425,"stÃ¼t":1426,"wort":1427,"tre":1428,"ĠDies":1429,"ienst":1430,"hin":1431,"Ġsicher":1432,"âĢľ,":1433,"Ġseinen":1434,"ĠMann":1435,"gew":1436,"allen":1437,"sprechen":1438,"Ġjeder":1439,"orf":1440,"eter":1441,"rain":1442,"gung":1443,"euch":1444,"riv":1445,"Ġsol":1446,"Ġjedoch":1447,"falls":1448,"ĠBundes":1449,"ĠSeite":1450,"fern":1451,"ĠFil":1452,"ĠAls":1453,"recht":1454,"immt":1455,"Ġallem":1456,"ĠFall":1457,"ionen":1458,"nahme":1459,"bo":1460,"nisse":1461,"ĠWar":1462,"grund":1463,"ĠKosten":1464,"Ġen":1465,"az":1466,"ĠwÃ¼rde":1467,"Ġsex":1468,"altung":1469,"Ġfest":1470,"Ġon":1471,"Ġeinge":1472,"cker":1473,"Ġlang":1474,"zial":1475,"Ġem":1476,"ĠBuch":1477,"ens":1478,"als":1479,"Ġ[":1480,"zug":1481,"af":1482,"kehr":1483,"cke":1484,"orgen":1485,"ĠVerb":1486,"Ġblei":1487,"legen":1488,"Ġgar":1489,"ffe":1490,"ĠFamil":1491,"Ġdort":1492,"Ġvoll":1493,"zimmer":1494,"ĠLu":1495,"Ġâ":1496,"Ġrecht":1497,"kun":1498,"prÃ¤":1499,"enz":1500,"Ġeh":1501,"ĠNe":1502,"Ġinter":1503,"bung":1504,"Ġsehen":1505,"ĠInternet":1506,"ĠSchu":1507,"jekt":1508,"Ġihm":1509,"Ġwelche":1510,"werk":1511,"Ġwirklich":1512,"ĠRÃ¼ck":1513,"15":1514,"ĠÃĦ":1515,"Ġkon":1516,"mun":1517,"Ã¤ft":1518,"fang":1519,"Ġmacht":1520,"von":1521,"stÃ¤nd":1522,"ennt":1523,"Ġfrei":1524,"ĠBeg":1525,"pti":1526,"Ã¶rt":1527,"Ġallen":1528,"ĠArt":1529,"ER":1530,"ckt":1531,"Ġbel":1532,"ĠEnde":1533,"Ġbietet":1534,"els":1535,"Ġben":1536,"ĠMÃ¶glich":1537,"Ġkonnte":1538,"ĠJu":1539,"ĠProblem":1540,"Ġbr":1541,"ĠBerlin":1542,"eitung":1543,"tt":1544,"Ġbeh":1545,"ĠAll":1546,"uer":1547,"gramm":1548,"Ġbesser":1549,"arbeiten":1550,"gabe":1551,"kon":1552,"Ġstehen":1553,"dings":1554,"Ġnichts":1555,"ĠSon":1556,"fÃ¤l":1557,"schied":1558,"wor":1559,"ino":1560,"Ġwichtig":1561,"Ġmus":1562,"ĠForm":1563,"anst":1564,"ice":1565,"stens":1566,"rieben":1567,"ĠnatÃ¼rlich":1568,"alis":1569,"umen":1570,"ĠLebens":1571,"co":1572,"ĠLin":1573,"Ġbzw":1574,"weit":1575,"tiert":1576,"ĠDr":1577,"frei":1578,"ĠWeiter":1579,"ys":1580,"achsen":1581,"ĠSchul":1582,"ennen":1583,"ations":1584,"ĠKar":1585,"iet":1586,"hÃ¶":1587,"raf":1588,"Ġ,":1589,"schluss":1590,"ilfe":1591,"leicht":1592,"itte":1593,"wohl":1594,"Ġaktu":1595,"fort":1596,"ielt":1597,"ite":1598,"unst":1599,"30":1600,"ĠInformationen":1601,"ĠBesch":1602,"etten":1603,"ans":1604,"ĠLei":1605,"tigt":1606,"Ġliegt":1607,"je":1608,"Ġletzten":1609,"Ã¼nf":1610,"ĠOnline":1611,"ĠOber":1612,"asst":1613,"schaften":1614,"inger":1615,"ette":1616,"eilen":1617,"zogen":1618,"ĠStud":1619,"kauf":1620,"kunft":1621,"ĠPh":1622,"ĠgrÃ¶":1623,"Ġ16":1624,"zer":1625,"neh":1626,"Ġwollen":1627,"raft":1628,"ĠMal":1629,"19":1630,"av":1631,"inanz":1632,"anis":1633,"Ġgenau":1634,"Ġ14":1635,"ĠdafÃ¼r":1636,"Ġschw":1637,"hlen":1638,"lig":1639,"ultur":1640,"Ġwohl":1641,"chte":1642,"ĠPreis":1643,"ktur":1644,"ĠSel":1645,"Sch":1646,"ĠnÃ¤ch":1647,"det":1648,"ĠStand":1649,"Ġgerne":1650,"ĠY":1651,"gaben":1652,"Ġstatt":1653,"gangen":1654,"Ġ30":1655,"one":1656,"laub":1657,"ider":1658,"Ġverst":1659,"ĠAngeb":1660,"ĠUS":1661,"ote":1662,"Ġerhalten":1663,"tier":1664,"ĠVide":1665,"ĠStel":1666,"ĠBÃ¼r":1667,"ĠHoch":1668,"ĠDar":1669,"Ġof":1670,"ĠBeh":1671,"fil":1672,"voll":1673,"ersÃ¶n":1674,"Ġgemein":1675,"Ġgerade":1676,"ĠmÃ¶chte":1677,"ĠZusammen":1678,"einer":1679,"Ġverw":1680,"16":1681,"Ġgeben":1682,"ause":1683,"Ã¶rper":1684,"Ġ:":1685,"wicklung":1686,"heim":1687,"Ġ2018":1688,"Ġeinige":1689,"Ã¤ter":1690,"ĠArbeits":1691,"stra":1692,"kom":1693,"ager":1694,"echn":1695,"14":1696,"ruppe":1697,"ĠwÃ¤re":1698,"olit":1699,"Ġjeden":1700,"Ġvielen":1701,"seite":1702,"icherheit":1703,"ĠWeg":1704,"Ã¼ss":1705,"Ġwe":1706,"ĠwÃ¤hrend":1707,"Ã¤sst":1708,"icken":1709,"18":1710,"utter":1711,"zeug":1712,"Ġoft":1713,"lex":1714,"iere":1715,"rom":1716,"orno":1717,"itzen":1718,"ampf":1719,"bei":1720,"50":1721,"Ġwenig":1722,"Ġseinem":1723,"ingt":1724,"Ġ17":1725,"druck":1726,"Ġir":1727,"nehmen":1728,"isk":1729,"sÃ¤tz":1730,"ĠNutz":1731,"17":1732,"Ġdirekt":1733,"ĠOb":1734,"\",":1735,"ĠhÃ¤t":1736,"ĠGeld":1737,"up":1738,"Ġweitere":1739,"Ġdenen":1740,"ĠSport":1741,"Ġwei":1742,"stoff":1743,"rÃ¤n":1744,"ĠKÃ¼":1745,"bet":1746,"hand":1747,"ĠgroÃŁe":1748,"âĢĿ":1749,"sol":1750,"utzen":1751,"ĠBed":1752,"ĠGemein":1753,"An":1754,"Ġrund":1755,"ĠMusik":1756,"achte":1757,"weil":1758,"obil":1759,"Ġhand":1760,"rift":1761,"Ĥ¬":1762,"Ġlange":1763,"Ġget":1764,"etter":1765,"ĠSta":1766,"hop":1767,"Ġfr":1768,"bie":1769,"Ġgehen":1770,"ĠSa":1771,"Ġbeiden":1772,"ĠGegen":1773,"punkt":1774,"ĠFar":1775,"ĠDi":1776,"ief":1777,"Ġkurz":1778,"aher":1779,"ko":1780,"ellschaft":1781,"ĠgroÃŁen":1782,"olz":1783,"Ġch":1784,"ĠFach":1785,"tikel":1786,"ĠCom":1787,"pe":1788,"ĠDen":1789,"Ã¤ss":1790,"riff":1791,"leist":1792,"ĠWochen":1793,"igung":1794,"aterial":1795,"Ġmo":1796,"ven":1797,"itu":1798,"Ġsogar":1799,"ĠChr":1800,"--":1801,"ĠKr":1802,"aÃŁ":1803,"Ġbesonders":1804,"aler":1805,"are":1806,"feld":1807,"rotz":1808,"ĠEurop":1809,"ings":1810,"Ġoffen":1811,"Ġgute":1812,"Ġaufge":1813,"rauen":1814,"13":1815,"ĠVerl":1816,"Ġempf":1817,"Ġerste":1818,"Ġ100":1819,"Ġbrau":1820,"Ã¼b":1821,"Ġetwa":1822,"rist":1823,"ĠStr":1824,"Ġthe":1825,"Ġbesten":1826,"Ġdarauf":1827,"ahmen":1828,"ĠIde":1829,"ember":1830,"old":1831,"ĠPar":1832,"Ġonline":1833,"eitet":1834,"erk":1835,"ix":1836,"ĠMod":1837,"str":1838,"ĠVon":1839,"Ġgemacht":1840,"Ġverm":1841,"ĠgroÃŁ":1842,"ĠPlatz":1843,"ehn":1844,"urs":1845,"ĠThema":1846,"einander":1847,"ĠHotel":1848,"stadt":1849,"ĠLeist":1850,"ative":1851,"Ã¶ren":1852,"Ġbieten":1853,"ĠBilder":1854,"ĠTi":1855,"Ġeigenen":1856,"Ġwissen":1857,"verb":1858,"ĠMitglie":1859,"Ġstell":1860,"eigt":1861,"uter":1862,"beh":1863,"ĠâĢľ":1864,"Ġteil":1865,"ĠX":1866,"ĠkÃ¶nnte":1867,"ĠOrt":1868,"ond":1869,"ĠSeiten":1870,"ahlen":1871,"licht":1872,"ĠHaupt":1873,"ĠEm":1874,"aben":1875,"mÃ¶glich":1876,"20":1877,"mar":1878,"tik":1879,"Ġ13":1880,"ore":1881,"ĠBeispiel":1882,"reise":1883,"ĠSu":1884,"zieh":1885,"ĠÃ¶ff":1886,"gegen":1887,"hof":1888,"legt":1889,"ĠJe":1890,"schlieÃŁ":1891,"Ġunseren":1892,"Ã¼d":1893,"echs":1894,"Ġeuch":1895,"ĠMill":1896,"fÃ¼hrt":1897,"ĠNatur":1898,"ax":1899,"ĠThe":1900,"ĠZiel":1901,"ĠDoch":1902,"ĠJugend":1903,"auen":1904,"Ã¶rder":1905,"leben":1906,"mb":1907,"ina":1908,"li":1909,"wand":1910,"ĠlÃ¤sst":1911,"inen":1912,"ĠAben":1913,"ĠMittel":1914,"ĠfrÃ¼":1915,"anken":1916,"Ġpl":1917,"ĠHÃ¶":1918,"com":1919,"jÃ¤hr":1920,"ĠErfahr":1921,"Ġu":1922,"Ġwoll":1923,"auft":1924,"ĠSom":1925,"Ġabge":1926,"Ġca":1927,"ĠPartner":1928,"Ġfast":1929,"Ġdich":1930,"weis":1931,"ĠTer":1932,"ĠTest":1933,"Ġdavon":1934,"urt":1935,"!!":1936,"ĠauÃŁer":1937,"fÃ¼l":1938,"ĠSelbst":1939,"ib":1940,"ĠKunst":1941,"ĠDenn":1942,"ĠGeschÃ¤ft":1943,"ĠProzent":1944,"reffen":1945,"lossen":1946,"schnit":1947,"ĠGrÃ¼n":1948,"ĠUnser":1949,"Ġpaar":1950,"Ġinteress":1951,"ĠEner":1952,"Ġrei":1953,"EN":1954,"Â«":1955,"Ġzie":1956,"ister":1957,"ĠSpr":1958,"Ġrichtig":1959,"ĠFol":1960,"ĠFrage":1961,"genden":1962,"ilt":1963,"gestellt":1964,"ĠAd":1965,"ichtet":1966,".âĢľ":1967,"Ã¤nd":1968,"ĠweiÃŁ":1969,"Ġentsprechen":1970,"ĠAnt":1971,"ĠViel":1972,"mÃ¤ÃŁ":1973,"arbeiter":1974,"Ã¤ten":1975,"wahl":1976,"ĠMehr":1977,"ufen":1978,"Ġgemeinsam":1979,"Ġ50":1980,"ĠFrank":1981,"bildung":1982,"ologie":1983,"ĠMet":1984,"Ġirgend":1985,"ĠRegel":1986,"ame":1987,"Ã©":1988,"Ġihrem":1989,"ĠHin":1990,"Ġmeiner":1991,"ĠTechn":1992,"ĠVerein":1993,"ose":1994,"ĠIhrer":1995,"mm":1996,"tieren":1997,"gehen":1998,"Ġinner":1999,"Ġfindet":2000,"ĠdaÃŁ":2001,"ĠKir":2002,"yn":2003,"ase":2004,"Ġunserem":2005,"Ġgl":2006,"ĠTex":2007,"ĠSk":2008,"Ġentwick":2009,"Ġjeweil":2010,"hle":2011,"Ġgab":2012,"Ġhinter":2013,"anten":2014,"Ġx":2015,"arte":2016,"ĠpersÃ¶n":2017,"Ġmei":2018,"nahmen":2019,"ĠTeam":2020,"ĠEigen":2021,"ĠFir":2022,"Ã¤dchen":2023,"ure":2024,"__":2025,"des":2026,"Ġhatten":2027,"ĠApp":2028,"ĠBereich":2029,"Ġheraus":2030,"Ġzwar":2031,"isches":2032,"uren":2033,"Ġ#":2034,"Ġel":2035,"platz":2036,"stÃ¼ck":2037,"Ġvier":2038,"Ã¤tig":2039,"ath":2040,"Ġkleine":2041,"amer":2042,"ĠRahmen":2043,"Ġkleinen":2044,"ausen":2045,"annten":2046,"red":2047,"Ġkaufen":2048,"ĠMein":2049,"schw":2050,"welt":2051,"Ġ25":2052,"Ġ199":2053,"ĠMark":2054,"ĠNicht":2055,"Ġerfolg":2056,"etzen":2057,"arm":2058,"ĠIhren":2059,"IN":2060,"Ġallerdings":2061,"ware":2062,"ivers":2063,"Ġro":2064,"ĠZum":2065,"alter":2066,"ĠâĢ¦":2067,"rech":2068,"ĠSystem":2069,"bach":2070,"ĠLi":2071,"tisch":2072,"Ã¤hlen":2073,"iges":2074,"les":2075,"Ã¤nge":2076,"Ver":2077,"ringen":2078,"ĠSicherheit":2079,"Ġschwer":2080,"ome":2081,"Ġind":2082,"atten":2083,"ĠMÃ¼n":2084,"Ġgilt":2085,"ĠTr":2086,"ĠBesuch":2087,"opp":2088,"zung":2089,"Ġtun":2090,"ĠFest":2091,"sy":2092,"buch":2093,"ĠJun":2094,"ĠMe":2095,"agte":2096,"iker":2097,"ook":2098,"jahr":2099,"Ġsollten":2100,"Ġwahr":2101,"ĠInst":2102,"ock":2103,"omat":2104,"tiv":2105,"lose":2106,"glichen":2107,"roffen":2108,"ivi":2109,"Ġkostenlos":2110,"Ã¤us":2111,"liches":2112,"leb":2113,"antwort":2114,"ĠVerfÃ¼":2115,"ĠDir":2116,"Ã¤tze":2117,"ital":2118,"Ġern":2119,"ĠKa":2120,"ĠverfÃ¼":2121,"Ġneben":2122,"ĠMÃ¤n":2123,"heiten":2124,"ĠEinsatz":2125,"ĠQualitÃ¤t":2126,"iff":2127,"Ġderen":2128,"ubl":2129,"Ġnehmen":2130,"ĠDat":2131,"ĠHa":2132,"zept":2133,"ĠDank":2134,"Ã¤hn":2135,"ĠDann":2136,"ity":2137,"ĠAuft":2138,"vent":2139,"ĠspÃ¤ter":2140,"lichkeit":2141,"ehlen":2142,"ile":2143,"Ġunterschied":2144,"ball":2145,"scht":2146,"ons":2147,"ĠRu":2148,"sl":2149,"Ġihnen":2150,"ichtige":2151,"blick":2152,"genommen":2153,"indest":2154,"ober":2155,"ĠVol":2156,"ĠPrÃ¤":2157,"Ã¤hlt":2158,"Ġkam":2159,"lege":2160,"ĠNie":2161,"80":2162,"ets":2163,"Ġleben":2164,"ĠFragen":2165,"ĠWe":2166,"annte":2167,"ĠGeschichte":2168,"ĠprÃ¤":2169,"ĠVert":2170,"deut":2171,"ĠPer":2172,"fÃ¼hrung":2173,"spro":2174,"Ã¤ndern":2175,"rakti":2176,"na":2177,"mo":2178,"Ġweit":2179,"ĠSer":2180,"Ġbekommen":2181,"ain":2182,"ĠBel":2183,"atte":2184,"ĠdÃ¼r":2185,"Ġworden":2186,"erst":2187,"Ġspez":2188,"artner":2189,"sterreich":2190,"ĠWissen":2191,"Ġsagen":2192,"ĠKontakt":2193,"ĠArtikel":2194,";;":2195,"âĢľ.":2196,"ĠFer":2197,"th":2198,"ĠGroÃŁ":2199,"eller":2200,"ĠunterstÃ¼t":2201,"mals":2202,"beding":2203,"ĠPr":2204,"ĠMarkt":2205,"bereich":2206,"mÃ¶":2207,"flÃ¤":2208,"affen":2209,"ĠFrÃ¼":2210,"ĠBÃ¼":2211,"Ġ11":2212,"ruppen":2213,"ĠEU":2214,"stehen":2215,"ĠBeit":2216,"Ġstark":2217,"ividu":2218,"Ġschreiben":2219,"Ġnah":2220,"Ġeigentlich":2221,"indung":2222,"ĠGeh":2223,"Ã¤um":2224,"ĠProjekt":2225,"sehen":2226,"ĠNov":2227,"setzung":2228,"CH":2229,"zÃ¼":2230,"ĠGo":2231,"Ġfor":2232,"grÃ¼n":2233,"ichtung":2234,"ĠKrank":2235,"ĠPat":2236,"ĠServ":2237,"umm":2238,"ĠLehr":2239,"ator":2240,"ĠDabei":2241,"rigen":2242,"reg":2243,"Ġ24":2244,"olf":2245,"agement":2246,"Pro":2247,"verl":2248,"ĠMÃ¶glichkeit":2249,"ĠEnergie":2250,"ĠNeben":2251,"ĠHam":2252,"Ġfre":2253,"Ġleicht":2254,"laden":2255,"Ġweniger":2256,"ĠAlle":2257,"ĠBlick":2258,"steller":2259,"Ġqu":2260,"ĠCas":2261,"ĠerklÃ¤r":2262,"undheit":2263,"stein":2264,"Ã¶ffentlich":2265,"ĠProdukt":2266,"ĠFuÃŁ":2267,"kung":2268,"ĠHe":2269,"Ġklein":2270,"ĠWor":2271,"Ġvert":2272,"ruktur":2273,"Ġschl":2274,"ĠFilm":2275,"ool":2276,"Ġkeinen":2277,"Ġzeigt":2278,"ĠSchwei":2279,"ĠhÃ¤tte":2280,"Ġvielleicht":2281,"ĠAugen":2282,"Ġspielen":2283,"ente":2284,"Sp":2285,"utt":2286,"reifen":2287,"rÃ¤ge":2288,"sf":2289,"ient":2290,"eint":2291,"Ġbede":2292,"ĠZahl":2293,"ĠTran":2294,"fon":2295,"wohn":2296,"Ġebenfalls":2297,"....":2298,"Ġgesp":2299,"ĠHei":2300,"arbeitet":2301,"fÃ¼hl":2302,"arbeitung":2303,"akte":2304,"ĠMinuten":2305,"Ġzahl":2306,"ational":2307,"Ġintern":2308,"ĠNacht":2309,"Ġ2017":2310,"Ġverk":2311,"dent":2312,"ĠTage":2313,"reiche":2314,"ĠBeruf":2315,"lungen":2316,"inner":2317,"Ġverschiedenen":2318,"Ġfreu":2319,"ĠAuto":2320,"fr":2321,"Ġaut":2322,"nehmer":2323,"ĠDem":2324,"herap":2325,"sweise":2326,"ĠErgeb":2327,"Ġkannst":2328,"ĠKÃ¶rper":2329,"AN":2330,"ĠSal":2331,"ummer":2332,"ilf":2333,"Ġeher":2334,"ĠEinz":2335,"Ġgek":2336,"Ġkont":2337,"Un":2338,"ester":2339,"gesetzt":2340,"Ġstellen":2341,"Ġbl":2342,"spruch":2343,"ption":2344,"ichts":2345,"Ġmeinen":2346,"Ġdaher":2347,"ĠSommer":2348,"baren":2349,"ĠVerfÃ¼gung":2350,"Ã¤ren":2351,"rÃ¼f":2352,"scher":2353,"//":2354,"ĠWo":2355,"ance":2356,"Ġerz":2357,"ienen":2358,"ĠVort":2359,"zess":2360,"ĠRaum":2361,"Ġopti":2362,"ĠAbend":2363,"warz":2364,"pfen":2365,"bare":2366,"ĠKind":2367,"Ã¤nde":2368,"Ã¤chst":2369,"âĢĻ":2370,"ĠBas":2371,"ieg":2372,"Â»":2373,"Ġklar":2374,"ĠFunktion":2375,"ĠVeranst":2376,"geber":2377,"ĠSchn":2378,"ĠGott":2379,"ches":2380,"Ġcm":2381,"Ã¼ler":2382,"Ã¤te":2383,"ĠHerr":2384,"Ġpassen":2385,"Das":2386,"aschen":2387,"ĠHal":2388,"ĠTele":2389,"hÃ¤ng":2390,"ĠChrist":2391,"Ġsollen":2392,"ichtigen":2393,"ĠPersonen":2394,"ĠzusÃ¤tz":2395,"ĠMitarbeiter":2396,"Ġging":2397,"://":2398,"scheiden":2399,"Ġbew":2400,"Ġend":2401,"treten":2402,"ĠTrain":2403,"mbH":2404,"ĠStunden":2405,"ĠFlug":2406,"ffiz":2407,"Der":2408,"besser":2409,"eichen":2410,"ante":2411,"gemein":2412,".\"":2413,"wendung":2414,"ĠJahres":2415,"ĠLes":2416,"lungs":2417,"ĠLandes":2418,"hren":2419,"Ġwegen":2420,"ĠBetrieb":2421,"ĠAngebot":2422,"bin":2423,"ĠProf":2424,"Ġsieht":2425,"unk":2426,"sport":2427,"ĀĀ":2428,"leg":2429,"ĠNetz":2430,"Ġkompl":2431,"ĠRad":2432,"ĠGarten":2433,"ĠCl":2434,"\".":2435,"arf":2436,"ĠRechts":2437,"orien":2438,"zeitig":2439,"Ġbekannt":2440,"ĠReise":2441,"Ġwerde":2442,"ĠMÃ¤r":2443,"ĠnÃ¤chsten":2444,"Ġangeb":2445,"ession":2446,"osition":2447,"Ġand":2448,"laf":2449,"lay":2450,"Ġwunder":2451,"ĠAt":2452,"abel":2453,"werb":2454,"schlag":2455,"Ġsagt":2456,"fin":2457,"anzen":2458,"ĠgehÃ¶rt":2459,"stÃ¤ndig":2460,"iegel":2461,"ct":2462,"zlich":2463,"ĠZwei":2464,"ĠWirtschaft":2465,"ĠNamen":2466,"ĠRest":2467,"Ġzun":2468,"Ġsagte":2469,"ĠDesign":2470,"ĠSing":2471,"ĠWert":2472,"Ġtrotz":2473,"ĠKap":2474,"elfen":2475,"spl":2476,"ĠSam":2477,"ika":2478,"rauch":2479,"Ã¼nd":2480,"pen":2481,"ĠGmbH":2482,"ĠStÃ¼ck":2483,"ĠProgramm":2484,"ĠPorno":2485,"rieden":2486,"ĠOrg":2487,"ondere":2488,"ernen":2489,"par":2490,"gende":2491,"Ġbesteht":2492,"ters":2493,"arr":2494,"ĠKat":2495,"ĠÂ«":2496,"ĠKopf":2497,"Ġersch":2498,"Ġfl":2499,"Ġbisher":2500,"Ġwollte":2501,"Ġsofort":2502,"izin":2503,"ĠProdukte":2504,"Ġmeisten":2505,"statt":2506,"ĠBÃ¼rger":2507,"ĠGed":2508,"ĠWerk":2509,"besch":2510,"ĠJan":2511,"ĠHolz":2512,"ĠWahl":2513,"Ã¤f":2514,"ĠGut":2515,"Ġbleibt":2516,"met":2517,"ins":2518,"ĠJul":2519,"utzt":2520,"ĠGel":2521,"auber":2522,"ĠWind":2523,"Ġdeutlich":2524,"gef":2525,"ĠBen":2526,"ĠEntwicklung":2527,"ĠSh":2528,"ĠMaterial":2529,"schule":2530,"200":2531,"Ġkennen":2532,"inge":2533,"Ġ2016":2534,"abl":2535,"Ġ40":2536,"Ġeinzel":2537,"ĠKauf":2538,"Ġdarf":2539,"ĠSuche":2540,"ĠMÃ¤dchen":2541,"ĠWoche":2542,"ikan":2543,"ikation":2544,"Ġjedem":2545,"24":2546,"Ã¶sung":2547,"Ã¶ÃŁe":2548,"ĠNew":2549,"ĠPlan":2550,"ĠheiÃŁ":2551,".)":2552,"tler":2553,"mel":2554,"icherung":2555,"Ġganze":2556,"Ġjem":2557,"ĠSeit":2558,"Ġbed":2559,"ĠFamilie":2560,"ĠVideo":2561,"ĠâĤ¬":2562,"sych":2563,"assung":2564,"ĠAug":2565,"Ġleider":2566,"ĠDieser":2567,"Mail":2568,"iken":2569,"ight":2570,"ots":2571,"ĠBand":2572,"ĠdarÃ¼ber":2573,"aur":2574,"tische":2575,"leichen":2576,"ek":2577,"usst":2578,"ĠFamilien":2579,"dorf":2580,"Ġmeinem":2581,"ĠFreund":2582,"unkte":2583,"Ġsonst":2584,"Ġdeutschen":2585,"25":2586,"wendet":2587,"ĠEntschei":2588,"Ã¤chlich":2589,"haupt":2590,"meld":2591,"ĠKultur":2592,"Ġreg":2593,"tif":2594,"ĠStart":2595,"Ġhast":2596,"rax":2597,"Ġschle":2598,"andlung":2599,"ĠDienst":2600,"ĠLuft":2601,"Ġverd":2602,"schnitt":2603,"Ġindividu":2604,"ĠfÃ¼":2605,"ritten":2606,"rieg":2607,"ktionen":2608,"weisen":2609,"iter":2610,"unt":2611,"tember":2612,"Ã¼cken":2613,"vest":2614,"Wir":2615,"ĠGast":2616,"ĠTÃ¼r":2617,"ttp":2618,"ĠmÃ¶chten":2619,"Ġfunktion":2620,"ĠUnivers":2621,"aren":2622,"itÃ¤ten":2623,"cen":2624,"Ġbitte":2625,"Ã¶hn":2626,"ĠAbs":2627,"ĠFinanz":2628,"Ġinnerhalb":2629,"walt":2630,"site":2631,"Ġne":2632,"meister":2633,"ĠIst":2634,"omit":2635,"Ġregel":2636,"tegr":2637,"otor":2638,"eignet":2639,"wÃ¼r":2640,"ĠBad":2641,"echsel":2642,"Ġbleiben":2643,"urop":2644,"ĠEltern":2645,"folgt":2646,"ĠErfolg":2647,"geh":2648,"Ich":2649,"ĠgrÃ¶ÃŁ":2650,"system":2651,"gesamt":2652,"lieÃŁen":2653,"ĠIhrem":2654,"haft":2655,"Ġ*":2656,"Ġstellt":2657,"ĠhÃ¶":2658,"halte":2659,"gÃ¤n":2660,"ismus":2661,"itter":2662,"ari":2663,"entr":2664,"othe":2665,"ĠAng":2666,"Ġpriv":2667,"Ġerw":2668,"Ġerwar":2669,"besondere":2670,"aly":2671,"ĠWinter":2672,"Ġdein":2673,"Ġzeigen":2674,"Ġgesam":2675,"ĠHerz":2676,"60":2677,"ieb":2678,"ĠKn":2679,"Ġbringen":2680,"tragen":2681,"ĠHinter":2682,"unge":2683,"Ġoben":2684,"adurch":2685,"ĠAnfang":2686,"ĠFern":2687,"ĠÃ¼b":2688,"Ġsuchen":2689,"ĠGlÃ¼ck":2690,"ĠOkt":2691,"fest":2692,"ĠAk":2693,"zip":2694,"Ġhinaus":2695,"ĠGÃ¤":2696,"ĠTour":2697,"igt":2698,"ĠBi":2699,"ĠbenÃ¶":2700,"ĠHilfe":2701,"tens":2702,"ĠZukunft":2703,"ĠNieder":2704,"ĠPriv":2705,"son":2706,"ĠKlein":2707,"ĠGeschÃ¤fts":2708,"ĠSchÃ¼ler":2709,"ison":2710,"ĠNÃ¤":2711,"Ġ%":2712,"Ġhttp":2713,"Ġeigene":2714,"Ã¤ufig":2715,"Ġnutzen":2716,"Ã¶t":2717,"Ġar":2718,"ĠZur":2719,"ĠKÃ¶n":2720,"ise":2721,"Ġhei":2722,"ĠSol":2723,"ĠHÃ¶he":2724,"ĠJuni":2725,"own":2726,"richten":2727,"ĠDamit":2728,"anach":2729,"schung":2730,"Ġhal":2731,"Ġjede":2732,"Ġkaum":2733,"uh":2734,"ĠfÃ¼nf":2735,"ziehen":2736,"ĠÃ¶":2737,"del":2738,"zeichnet":2739,"Ġnot":2740,"ĠPark":2741,"ĠgegenÃ¼ber":2742,"eien":2743,"Ġaktiv":2744,"ka":2745,"Ġide":2746,"Ġguten":2747,"Ġverschiedene":2748,"zus":2749,"ĠKommun":2750,"ĠNord":2751,"Ġhalten":2752,"ĠÂ§":2753,"itten":2754,"wasser":2755,"uck":2756,"ĠDruck":2757,"ĠMag":2758,"dienst":2759,"ou":2760,"ĠGesundheit":2761,"Ġerk":2762,"sa":2763,"ftware":2764,"ĠBar":2765,"kont":2766,"ĠMai":2767,"Ġkonnten":2768,"Ġweiteren":2769,"setzen":2770,"ĠErw":2771,"stelle":2772,"Ġ+":2773,"ĠgÃ¼nst":2774,"atis":2775,"fel":2776,"Ġprof":2777,"ĠRes":2778,"ĠAnd":2779,"ĠBus":2780,"leitung":2781,"Ġ22":2782,"Ġbestimm":2783,"ĠGest":2784,"ĠPoliz":2785,"ĠHeim":2786,"Ġ21":2787,"ĠSchutz":2788,"gest":2789,"ĠEle":2790,"auch":2791,"Ġinform":2792,"Ġ2015":2793,"ruf":2794,"hem":2795,"zuf":2796,"Ġto":2797,"gesetz":2798,"ksam":2799,"Ġhelfen":2800,"Ġabsol":2801,"radition":2802,"atung":2803,"ahren":2804,"duz":2805,"Ġbekom":2806,"osit":2807,"enzen":2808,"ĠAuswahl":2809,"ienten":2810,"ogle":2811,"pfer":2812,"tigkeit":2813,"die":2814,"ĠLiebe":2815,"ĠMillionen":2816,"unsch":2817,"Ġweg":2818,"ĠNur":2819,"sent":2820,"ĠJo":2821,"ĠfÃ¼hren":2822,"ĠBoden":2823,"wegen":2824,"istor":2825,"Ġtechn":2826,"ativen":2827,"kor":2828,"Ġbevor":2829,"ĠSep":2830,".,":2831,"ult":2832,"Ġhervor":2833,"ĠLauf":2834,"sh":2835,"ĠLicht":2836,"straÃŁe":2837,"Ġsu":2838,"stellungen":2839,"ĠAuÃŁer":2840,"ĠErn":2841,"asen":2842,"40":2843,"tert":2844,"stimm":2845,"ĠMaÃŁ":2846,"rich":2847,"ĠEinzel":2848,"oc":2849,"frage":2850,"ehm":2851,"Ein":2852,"Ġerf":2853,"hein":2854,"yl":2855,"bert":2856,"ĠVertrag":2857,"eiden":2858,"ĠPolit":2859,"Al":2860,"Ġvorh":2861,"ĠDieses":2862,"Ġsucht":2863,"ĠMedien":2864,"klus":2865,"spiele":2866,"igin":2867,"fahrt":2868,"raxis":2869,"iell":2870,"ograf":2871,"ĠRegion":2872,"ĠGesellschaft":2873,"Ġnorm":2874,"utet":2875,"ĠInf":2876,"onnen":2877,"bezogen":2878,"lang":2879,"port":2880,"Ġperson":2881,"aun":2882,"ĠHaut":2883,"Ġdessen":2884,"ĠTem":2885,"kr":2886,"wehr":2887,"ĠMÃ¤nner":2888,"ĠTages":2889,"pps":2890,"entlichen":2891,"ehler":2892,"ĠLiefer":2893,"ĠOktober":2894,"ue":2895,"Ġlin":2896,"-,":2897,"ĠFÃ¼hr":2898,"Ġversch":2899,"ordnung":2900,"Ġsozial":2901,"ĠBro":2902,"ausch":2903,"itze":2904,"mÃ¤ÃŁig":2905,"wirtschaft":2906,"Ġ'":2907,"22":2908,"sie":2909,"Ġmag":2910,"ĠMutter":2911,"ĠTo":2912,"orgt":2913,"ĠInnen":2914,"Ġsowohl":2915,"Ã¶sen":2916,"iver":2917,"ossen":2918,"Ġdeine":2919,"ielle":2920,"Ġmehrere":2921,"ĠChar":2922,"Ġwelt":2923,"Ġarbeiten":2924,"Ġliegen":2925,"ĠDach":2926,"ĠKin":2927,"99":2928,"ĠThemen":2929,"Ġbeispiel":2930,"Ġ23":2931,"Ġverwendet":2932,"bringen":2933,"ochen":2934,"kreis":2935,"Ġanders":2936,"markt":2937,"ja":2938,"ĠWeise":2939,"cl":2940,"ĠSeptember":2941,"organis":2942,"richtung":2943,"ĠNovember":2944,"ĠEis":2945,"ĠfÃ¼hrt":2946,"ĠIns":2947,"ateg":2948,"ande":2949,"Ġglau":2950,"lauf":2951,"bahn":2952,"Ġsomit":2953,"bieter":2954,"eier":2955,"ĠWebsite":2956,"ums":2957,"Ġdaran":2958,"acken":2959,"ritte":2960,"fÃ¼hrer":2961,"ĠFeuer":2962,"ĠPap":2963,"Ġ2014":2964,"Ġumf":2965,"ĠKraft":2966,"Ġzeit":2967,"rÃ¤gt":2968,"chten":2969,"ĠMich":2970,"Ã¶nen":2971,"irt":2972,"ĠLeute":2973,"ĠWel":2974,"Ġpass":2975,"ĠFoto":2976,"ĠAlso":2977,"ierungs":2978,"techn":2979,"70":2980,"enten":2981,"ĠerhÃ¤lt":2982,"hunder":2983,"ĠtÃ¤":2984,"oph":2985,"ĠPo":2986,"Ġmusste":2987,"riter":2988,"ĠgrÃ¶ÃŁer":2989,"Ġpolit":2990,"ĠPost":2991,"Ġstand":2992,"akter":2993,"Ġext":2994,"ĠTier":2995,"ickt":2996,"ĠheiÃŁt":2997,"ĠlÃ¤nger":2998,"kosten":2999,"ĠSpieler":3000,"Ãĥ":3001,"ĠSm":3002,"nach":3003,"ublik":3004,"ĠUnsere":3005,"Ġhandelt":3006,"redit":3007,"ĠBay":3008,"ĠSÃ¼d":3009,"ehl":3010,"ĠZimmer":3011,"ĠSonn":3012,"Ġ60":3013,"geln":3014,"inne":3015,"hab":3016,"usch":3017,"schul":3018,"sb":3019,"Ġrein":3020,"ĠSchm":3021,"geschlossen":3022,"Ġerfahren":3023,"Ġgefunden":3024,"ĠApr":3025,"Ġentscheiden":3026,"mitt":3027,"ĠMil":3028,"Ġdeshalb":3029,"Ġbereit":3030,"Ġsolche":3031,"Ġtats":3032,"45":3033,"anger":3034,"ĠEben":3035,"ĠErst":3036,"ĠInd":3037,"ĠLage":3038,"ĠGebur":3039,"Ġalten":3040,"lesen":3041,"ĠEro":3042,"Ġgegeben":3043,"ĠTur":3044,"fre":3045,"ĠSteuer":3046,"ĠVoll":3047,"ĠUnterstÃ¼t":3048,"ĠMont":3049,"ĠGener":3050,"wissen":3051,"ĠSozial":3052,"Ġerforder":3053,"ĠMÃ¼nchen":3054,"immen":3055,"ĠJuli":3056,"2018":3057,"Ã¤llt":3058,"hei":3059,"iellen":3060,"ES":3061,"Ã¼ndig":3062,"reicht":3063,"Ġwes":3064,"ĠSen":3065,"Ġdam":3066,"ĠTagen":3067,"ĠSpaÃŁ":3068,"ĠBeitrag":3069,"ĠSil":3070,"ĠMÃ¤rz":3071,"Ġunver":3072,"Ġmeist":3073,"spe":3074,"ĠBis":3075,"ĠWein":3076,"fallen":3077,"ĠHel":3078,"Ġjedes":3079,"ĠTra":3080,"flÃ¤che":3081,"fÃ¤h":3082,"igit":3083,"&#":3084,"ĠSitz":3085,"Er":3086,"Ġ01":3087,"ĠJetzt":3088,"tete":3089,"ĠBerg":3090,"herapie":3091,"gruppe":3092,"gebung":3093,"igkeiten":3094,"ĠhÃ¶her":3095,"ĠSchÃ¶n":3096,"lieÃŁlich":3097,"racht":3098,"Ã¼nstler":3099,"ĠFotos":3100,"ĠArch":3101,"fft":3102,"asche":3103,"ĠService":3104,"etail":3105,"ĠDez":3106,"ĠWeihn":3107,"ĠAc":3108,"ĠHause":3109,"altet":3110,"uell":3111,"zeiten":3112,"oment":3113,"peten":3114,"ĠVergleich":3115,"Ġzweiten":3116,"get":3117,"ĠDort":3118,"Ġkm":3119,"liegen":3120,"stat":3121,"forderungen":3122,"ĠKur":3123,"will":3124,"alien":3125,"Ã¶st":3126,"ieÃŁen":3127,"test":3128,"ĠUSA":3129,"ĠÂ·":3130,"ĠWahr":3131,"ðŁ":3132,"Ġmm":3133,"ĠÃĸsterreich":3134,"'s":3135,"oo":3136,"wÃ¤r":3137,"ĠmÃ¶":3138,"ĠErk":3139,"Ġgewesen":3140,"plan":3141,"ragt":3142,"ĠRom":3143,"ilden":3144,"ĠCar":3145,"Ġfreuen":3146,"www":3147,"Ġganzen":3148,"Ġlesen":3149,"last":3150,"Ġerreichen":3151,"ĠÃ¤hn":3152,"ĠHeil":3153,"ĠStre":3154,"nete":3155,"ĠBeweg":3156,"ĠWien":3157,"sver":3158,"isse":3159,"tigung":3160,"Ġebenso":3161,"furt":3162,"schrift":3163,"pon":3164,"ĠTop":3165,"ĠAugust":3166,"ĠBehandlung":3167,"ĠTre":3168,"Ġbeispielsweise":3169,"ĠGoogle":3170,"ĠdÃ¼rfen":3171,"abil":3172,"sph":3173,"Ġprakti":3174,"iven":3175,"ca":3176,";&#":3177,"ĠMensch":3178,"alle":3179,"uar":3180,"ĠDis":3181,"23":3182,"spann":3183,"ĠÃ¼berhaupt":3184,"wiesen":3185,"ĠDon":3186,"Ġvergangen":3187,"ĠAuÃŁerdem":3188,"Ġjemand":3189,"ssen":3190,"oss":3191,"teilt":3192,"ĠGar":3193,"wagen":3194,"ĠPort":3195,"ĠBlut":3196,"reibt":3197,"schuhe":3198,"ĠHamburg":3199,"sei":3200,"ĠPolizei":3201,"ftung":3202,"Ġfinde":3203,"aschinen":3204,"ĠBlog":3205,"ĠGesamt":3206,"ĠprÃ¤sen":3207,"roll":3208,"lingen":3209,"orie":3210,"ĠVerkehr":3211,"ĠNun":3212,"Ã¤tzen":3213,"ĠAller":3214,"ĠRolle":3215,"ĠUrlaub":3216,"Ġinsbesondere":3217,"angeb":3218,"Ġnotwend":3219,"Ġwelches":3220,"ĠRa":3221,"teilung":3222,"uster":3223,"meldung":3224,"wertung":3225,"ĠComp":3226,"Ġmittel":3227,"Ġkur":3228,"ĠBeim":3229,"Ġvorhanden":3230,"di":3231,"Ar":3232,"Ġentst":3233,"ĠErfahrung":3234,"Ġ2013":3235,"minister":3236,"ĠWider":3237,"mlich":3238,"AR":3239,"ĠhÃ¶ch":3240,"bank":3241,"ĠFac":3242,"iew":3243,"peratur":3244,"ĠFrÃ¼h":3245,"ĠFe":3246,"ĠEuropa":3247,"ĠOrganis":3248,"ĠWand":3249,"kur":3250,"ĠElekt":3251,"indestens":3252,"Ġaufgrund":3253,"ĠStelle":3254,"Ġrau":3255,"reib":3256,"Ġdr":3257,"90":3258,"innt":3259,"Ġgeworden":3260,"Ġverz":3261,"igar":3262,"abe":3263,"hilfe":3264,"Ġunbe":3265,"ĠfrÃ¼her":3266,"ĠTor":3267,"ĠGruppe":3268,"ĠApril":3269,"Ġged":3270,"ĠSc":3271,"jekte":3272,"ĠIdeen":3273,"Ġbefindet":3274,"Ã¼hren":3275,"Ã¶ffentlicht":3276,"ament":3277,"ziehung":3278,"ĠAlt":3279,"Ġdank":3280,"Ġentfern":3281,"elte":3282,"ĠEssen":3283,"ĠRichtung":3284,"ĠWÃ¤hrend":3285,"ĠSan":3286,"Ã¤ufer":3287,"ebook":3288,"hang":3289,"ĠProbleme":3290,"Ġanderem":3291,"ĠDamen":3292,"ĠPflege":3293,"Ġmodern":3294,"ĠJahrhunder":3295,"Ġbeste":3296,"schlieÃŁlich":3297,"Ġautomat":3298,"ĠDazu":3299,"ĠSchlaf":3300,"ĠKomment":3301,"ehe":3302,"ĠNot":3303,"ĠCasino":3304,"ĠHaar":3305,"ĠÃĸff":3306,"ĠSchule":3307,"ĠKranken":3308,"echt":3309,"ĠSpiele":3310,"ĠMitglieder":3311,"ĠWald":3312,"Ġjeweils":3313,"ĠII":3314,"Ġerfolgreich":3315,"ĠwÃ¼rden":3316,"ĠSonntag":3317,"reten":3318,"klÃ¤rung":3319,"ĠTitel":3320,"nov":3321,"ĠSor":3322,"lassen":3323,"ĠOl":3324,"tiger":3325,"Ġvorher":3326,"ĠNutzung":3327,"Ġeinigen":3328,"Ã¤ude":3329,"verstÃ¤nd":3330,"fekt":3331,"ĠKurz":3332,"ĠGÃ¤ste":3333,"ĠGesetz":3334,"sichtlich":3335,"Ġ28":3336,"ĠEmpf":3337,"wegs":3338,"ĠWett":3339,"ĠBur":3340,"ĠSonnen":3341,"ï¿":3342,"ĠSym":3343,"zte":3344,"ĠWort":3345,"sm":3346,"zeugen":3347,"ĠGesprÃ¤":3348,"krÃ¤":3349,"Ġinternation":3350,"Ġmed":3351,"schau":3352,"zeigt":3353,"hÃ¤ltnis":3354,"iziert":3355,"Ġsetzen":3356,"ox":3357,"Ġselber":3358,"yr":3359,"ĠhÃ¤ufig":3360,"ï¿½":3361,"ĠMitglied":3362,"sor":3363,"ĠErgebnis":3364,"ĠText":3365,"ktive":3366,"ĠRat":3367,"Ã¤uft":3368,"cks":3369,"ith":3370,"Ġgrund":3371,"ĠerhÃ¶":3372,"Ġhochwer":3373,"Ġ26":3374,"ichter":3375,"frist":3376,"Ġbetroffen":3377,"ĠCon":3378,"abhÃ¤ng":3379,"ĠDeutschen":3380,"ĠFarbe":3381,"ĠBru":3382,"Ġaktuellen":3383,"air":3384,"gien":3385,"losen":3386,"ackt":3387,"ĠMÃ¶glichkeiten":3388,"Ġgesehen":3389,"Mit":3390,"stieg":3391,"Ġallein":3392,"Ã¤ndert":3393,"Ġsuper":3394,"Ġerfolgt":3395,"Ġposit":3396,"Ġtreffen":3397,"Ġ27":3398,"kennen":3399,"Ġbedeutet":3400,"ve":3401,"Ġentwickelt":3402,"ĠZwe":3403,"mehr":3404,"Ġ2012":3405,"ĠSitu":3406,"leiter":3407,"ĠBaum":3408,"ĠGanz":3409,"ungsver":3410,"ĠwÃ¼n":3411,"Ġur":3412,"ĠBahn":3413,"zig":3414,"rop":3415,"deck":3416,"ĠBank":3417,"ĠGrÃ¶ÃŁe":3418,"ĠAuftrag":3419,"barkeit":3420,"Ġleich":3421,"Ġis":3422,"samm":3423,"preis":3424,"ĠKolle":3425,"sex":3426,"ĠBesonder":3427,"ĠNÃ¤he":3428,"aurant":3429,"ĠStraÃŁe":3430,"Ġwarum":3431,"produ":3432,"Ġanges":3433,"geld":3434,"IT":3435,"Ġbringt":3436,"ĠMotor":3437,"Ġdeutsche":3438,"Ġmittler":3439,"ĠkÃ¼":3440,"ĠPfl":3441,"ĠWÃ¼r":3442,"ĠJanuar":3443,"Ġus":3444,"ube":3445,"ĠWieder":3446,"Ġwww":3447,"ĠSpez":3448,"kungen":3449,"ument":3450,"Ġbestehen":3451,"reiten":3452,"ĠPass":3453,"Ġak":3454,"ĠExper":3455,"ĠKil":3456,"Ġliebe":3457,"ĠGleich":3458,"chmal":3459,"Ġrel":3460,"mand":3461,"ĠKlei":3462,"ling":3463,"AS":3464,"Ġlos":3465,"eiger":3466,"26":3467,"ĠKreis":3468,"ĠFÃ¶rder":3469,"Ġy":3470,"fter":3471,"Ġalte":3472,"eitag":3473,"behÃ¶r":3474,"ĠAG":3475,"obei":3476,"drÃ¼ck":3477,"Ġfand":3478,"mitteln":3479,"ĠHall":3480,"ima":3481,".:":3482,"AT":3483,"ĠRein":3484,"ĠDatenschutz":3485,"Ġpersonen":3486,"Ġetc":3487,"emin":3488,"ĠBal":3489,"Ã¤lter":3490,"Ġmindestens":3491,"ĠGemeinde":3492,"rÃ¼fung":3493,"dresse":3494,"volle":3495,"ĠzunÃ¤chst":3496,"ry":3497,"Ġor":3498,"ĠOder":3499,"bol":3500,"med":3501,"Ã¤ndig":3502,"ĠFlÃ¼":3503,"ĠDisk":3504,"iko":3505,"arch":3506,"ĠGeburt":3507,"ĠKÃ¶l":3508,"Ġbelieb":3509,"reisen":3510,"ĠFerien":3511,"ĠViele":3512,"ions":3513,"Ġalt":3514,"such":3515,"Ġbraucht":3516,"ĠBitte":3517,"zentr":3518,"Ġ80":3519,"Ġ198":3520,"folge":3521,"ĠEing":3522,"Ġfer":3523,"Ġklass":3524,"mack":3525,"bed":3526,"ĠschÃ¶ne":3527,"Ã¤mlich":3528,"ĠRis":3529,"Ġgenug":3530,"ĠFarben":3531,"ĠZug":3532,"weile":3533,"Ġelekt":3534,"Ġbem":3535,"ĠStein":3536,"IS":3537,"Ġzw":3538,"ED":3539,"ĠKindern":3540,"sta":3541,"achtet":3542,"hlt":3543,"ownlo":3544,"eicher":3545,"Ġverbesser":3546,"rÃ¤ger":3547,"how":3548,"riften":3549,"ĠvÃ¶l":3550,"Ġfrauen":3551,"ĠDezember":3552,"serv":3553,"ĠStrom":3554,"haltung":3555,"ĠUnterstÃ¼tzung":3556,"Ġinsgesamt":3557,"Ġanzu":3558,"itt":3559,"ĠFeb":3560,"reibung":3561,"miss":3562,"ĠMer":3563,"ĠSamstag":3564,"Ġhohen":3565,"ĠSoftware":3566,"Ã¼tzen":3567,"Ġgelten":3568,"ĠKor":3569,"reiber":3570,"prÃ¼":3571,"daten":3572,"ĠBon":3573,"pel":3574,"ĠModell":3575,"ĠUmwelt":3576,"ĠSuper":3577,"Ãľ":3578,"Ġlernen":3579,"ĠPrin":3580,"ĠVerantwort":3581,"ĠFÃ¤l":3582,"Ġse":3583,"âĤ¬":3584,"zwischen":3585,"ĠgehÃ¶ren":3586,"EL":3587,"27":3588,"sichtig":3589,"28":3590,"ipp":3591,"35":3592,"Ġempfehlen":3593,"ake":3594,"dust":3595,"Ġ>":3596,"gliche":3597,"Ġfort":3598,"En":3599,"Ġneues":3600,"Ġpersonenbezogen":3601,"mod":3602,"Ġjunge":3603,"ĠTelefon":3604,"ĠNr":3605,"sto":3606,"napp":3607,"ĠSmart":3608,"ĠSoll":3609,"illen":3610,"____":3611,"erin":3612,"ĠFort":3613,"see":3614,"ĠStraÃŁen":3615,"Ġhohe":3616,"ĠDinge":3617,"ĠRegen":3618,"ĠTri":3619,"istr":3620,"ĠtatsÃ¤chlich":3621,"Ġspiel":3622,"ĠAlter":3623,"ĠPeter":3624,"ĠEntscheidung":3625,"ĠInhalt":3626,"Ã¼rf":3627,"wesen":3628,"Ġgesagt":3629,"Ġendlich":3630,"by":3631,"ement":3632,"ĠSP":3633,"ĠEt":3634,"lass":3635,"Ġbist":3636,"vol":3637,"ĠâĢ¢":3638,"ĠHerren":3639,"schlÃ¤":3640,"bracht":3641,"ĠWetter":3642,"ĠAutor":3643,"Ġvorbei":3644,"Ġbeide":3645,"Ġ=":3646,"vert":3647,"ĠTod":3648,"ON":3649,"Ġdadurch":3650,"por":3651,"ohnt":3652,"ĠAnge":3653,"mobil":3654,"ĠEnd":3655,"Ġeinzelnen":3656,"ĠnÃ¤mlich":3657,"Ġoptimal":3658,"ĠUniversitÃ¤t":3659,"hre":3660,"Ġentfernt":3661,"Ġgeeignet":3662,"Ġverwenden":3663,"Ġnimmt":3664,"ĠGlas":3665,"aktion":3666,"Ġverein":3667,"omaten":3668,"ĠVideos":3669,"reude":3670,"oper":3671,"ĠStandard":3672,"ĠLa":3673,"rate":3674,"ĠInteresse":3675,"ĠStil":3676,"ĠMÃ¶":3677,"Ã¼sse":3678,"Ã¤ngt":3679,"Ġzudem":3680,"ĠFen":3681,"ane":3682,"klei":3683,"hausen":3684,"ĠSchritt":3685,"ĠOst":3686,"prochen":3687,"ĠerfÃ¼l":3688,"ille":3689,"ĠKÃ¼che":3690,"neten":3691,"aschine":3692,"Ġbekommt":3693,"iti":3694,"Ġzehn":3695,"oppel":3696,"ĠLog":3697,"ull":3698,"arian":3699,"anlage":3700,"ĠAktiv":3701,"ried":3702,"ĠWest":3703,"ama":3704,"29":3705,"gebiet":3706,"itzt":3707,"stre":3708,"ĠErfahrungen":3709,"ĠTeilnehmer":3710,"Ġeurop":3711,"Ã¶lker":3712,"ĠRot":3713,"ĠGewinn":3714,"ĠPrivat":3715,"ĠDetail":3716,"ĠHeute":3717,"ĠJa":3718,"ĠEng":3719,"Ġlaufen":3720,"Ã¤ischen":3721,"Ġvergangenen":3722,"ĠDien":3723,"ink":3724,"Ġscheint":3725,"Ġselten":3726,"Ã¼ch":3727,"Ġspann":3728,"uft":3729,"ĠAnder":3730,"Ġgesetz":3731,"ÌĪ":3732,"sein":3733,"ĠKre":3734,"ĠPatienten":3735,"ness":3736,"Ġverbunden":3737,";;;;":3738,"ĠstÃ¤r":3739,"ĠLeistung":3740,"ĠVerkauf":3741,"ĠStu":3742,"worten":3743,"pflich":3744,"ĠKateg":3745,"ĠHeraus":3746,"far":3747,"ĠSicht":3748,"ĠBab":3749,"ĠÃĦn":3750,"33":3751,"ĠSaison":3752,"schlieÃŁend":3753,"urf":3754,"ĠVerbindung":3755,"stru":3756,"ĠHig":3757,"Ġmen":3758,"Ġtoll":3759,"ĠBasis":3760,"esser":3761,"ruar":3762,"Ġfal":3763,"gessen":3764,"uchs":3765,"ĠBran":3766,"decken":3767,"zahlen":3768,"Ã¼ssel":3769,"Ġnahe":3770,"ĠVerarbeitung":3771,"Ġbeein":3772,"deutung":3773,"78":3774,"gn":3775,"Ġenthalten":3776,"ĠPraxis":3777,"ĠSchweiz":3778,"Ġ29":3779,"alk":3780,"ike":3781,"ars":3782,"zeuge":3783,"err":3784,"rifft":3785,"Ã¼gen":3786,"ĠMass":3787,"Ġ2011":3788,"gte":3789,"Ġfahren":3790,"vis":3791,"ĠIdee":3792,"ĠStudien":3793,"ĠChe":3794,"ĠProduktion":3795,"rolle":3796,"ĠWohnung":3797,"ĠSw":3798,"reuz":3799,"offe":3800,"oder":3801,"eid":3802,"Ġsogen":3803,"ammer":3804,"Ġerreicht":3805,"ls":3806,"ĠStim":3807,"Ġkomplett":3808,"ĠÐ":3809,"ael":3810,"ĠhÃ¤lt":3811,"ĠBesucher":3812,"spar":3813,"sident":3814,"Ġdamals":3815,"ĠPolitik":3816,"Ġfinanz":3817,"ownload":3818,"ĠPhil":3819,"bÃ¼r":3820,"ĠGold":3821,"ĠSchau":3822,"ĠerklÃ¤rt":3823,"Ã¤hrt":3824,"Ġindem":3825,"65":3826,"ĠTisch":3827,"out":3828,"use":3829,"Ġmon":3830,"lad":3831,"ogra":3832,"Ġdanach":3833,"Ġmin":3834,"ĠFebruar":3835,"ĠMeer":3836,"Ġbald":3837,"ias":3838,"Ġsetzt":3839,"burger":3840,"ĠMenge":3841,"ĠAuÃŁen":3842,"park":3843,"ĠðŁ":3844,"ierter":3845,"ĠBestell":3846,"ĠÃĦr":3847,"ĠWunsch":3848,"zentrum":3849,"ĠStaats":3850,"verein":3851,"anzeigen":3852,"ĠFolge":3853,"ĠSchwer":3854,"dete":3855,"ĠnÃ¤":3856,"ĠKirche":3857,"ĠvÃ¶llig":3858,"hel":3859,"eting":3860,"host":3861,"ĠEntwick":3862,"Ġbestimmt":3863,"Ã¶sungen":3864,"leistungen":3865,"zon":3866,"Ġsah":3867,"75":3868,"nern":3869,"ames":3870,"Ġdrau":3871,"uhr":3872,"bedingt":3873,"Ġlaut":3874,"ĠBett":3875,"Ġbehand":3876,"ĠGruppen":3877,"sitzen":3878,"kraft":3879,"Aus":3880,"ĠVoraus":3881,"recher":3882,"ĠSand":3883,"ĠMeine":3884,"ĠKan":3885,"ai":3886,"Ġstar":3887,"ĠAusbildung":3888,"Ġtragen":3889,"weiter":3890,"roh":3891,"Ġfolgenden":3892,"gefÃ¼hrt":3893,"ĠStellen":3894,"ĠCD":3895,"ĠFacebook":3896,"fluss":3897,"bew":3898,"ĠunterstÃ¼tzen":3899,"altungen":3900,"ĠIt":3901,"seh":3902,"Ã¤ngen":3903,"ĠGet":3904,"Ġspielt":3905,"rÃ¤um":3906,"OR":3907,"scheinlich":3908,"ĠKÃ¶nig":3909,"ĠSl":3910,"09":3911,"ĠGedanken":3912,"ĠDre":3913,"glisch":3914,"ĠRed":3915,"Ber":3916,"Ġsechs":3917,"raun":3918,"Ġzul":3919,"isiert":3920,"tischen":3921,"holz":3922,"aust":3923,"Ġehem":3924,"lack":3925,"----":3926,"Ġech":3927,"anzÃ¶s":3928,"ĠDom":3929,"Ġ2010":3930,"Ġwert":3931,"ĠInhalte":3932,"ĠDok":3933,"istischen":3934,"lock":3935,"ĠRestaurant":3936,"ĠFreitag":3937,"eucht":3938,"ĠIs":3939,"ĠTro":3940,"wig":3941,"Ã¼ÃŁ":3942,"apan":3943,"US":3944,"Ġjeweiligen":3945,"zeigen":3946,"ĠRund":3947,"Ġunten":3948,"ĠMonate":3949,"view":3950,"Ġauszu":3951,"ash":3952,"ĠWissenschaft":3953,"Ġhil":3954,"Re":3955,"folgen":3956,"gericht":3957,"Ġgleichzeitig":3958,"Ġziemlich":3959,"do":3960,"ĠInvest":3961,"Ġth":3962,"ĠTerr":3963,"ĠunterstÃ¼tzt":3964,"GB":3965,"dustrie":3966,"iten":3967,"ĠTab":3968,"til":3969,"mÃ¶glichkeiten":3970,"Ġangeboten":3971,"Ġkomp":3972,"denten":3973,"ĠAufgaben":3974,"ĠKamer":3975,"beg":3976,"Ġgestellt":3977,"Ġmax":3978,"ĠFirmen":3979,"ĠGefÃ¼hl":3980,"ĠÃ¤u":3981,"Ġwobei":3982,"OS":3983,"Ġtrotzdem":3984,"ĠNatÃ¼rlich":3985,"ĠermÃ¶glich":3986,"schn":3987,"Ġsorgen":3988,"alif":3989,"ĠDrei":3990,"Ġletzte":3991,"Ġrichtige":3992,"xt":3993,"zeichen":3994,"ffer":3995,"bedingungen":3996,"Ã¼cke":3997,"karte":3998,"Ġseines":3999,"Ġkeiner":4000,"ĠMitte":4001,"Ġweiterhin":4002,"ĠBedeutung":4003,"95":4004,"Es":4005,"ĠKrieg":4006,"Ġeng":4007,"ĠLiter":4008,"ĠFirma":4009,"Ġfreund":4010,"raut":4011,"aul":4012,"ĠBeratung":4013,"ĠHome":4014,"okrat":4015,"hard":4016,"garten":4017,"ĠDeutsche":4018,"ux":4019,"woch":4020,"emen":4021,"Ġeinzu":4022,"-)":4023,"Ġjen":4024,"ĠVater":4025,"alyse":4026,"jÃ¤hrige":4027,"ĠschlieÃŁlich":4028,"ĠJob":4029,"reite":4030,"Ġwider":4031,"stÃ¤nde":4032,"Ġ?":4033,"ĀĀĀĀ":4034,"Ġheu":4035,"leitet":4036,"band":4037,"ĠVersand":4038,"ieten":4039,"Ġgern":4040,"ĠPorn":4041,"ĠZudem":4042,"ĠAmt":4043,"Ġwelcher":4044,"stall":4045,"):":4046,"ĠSchwarz":4047,"48":4048,"ĠRel":4049,"afft":4050,"Ã¶pf":4051,"ular":4052,"ĠWill":4053,"ĠBeginn":4054,"hann":4055,"ĠGef":4056,"ĠWeitere":4057,"ĠbeschÃ¤f":4058,".-":4059,"ĠKu":4060,"achst":4061,"int":4062,"ates":4063,"orgung":4064,"21":4065,"Ġbegr":4066,"Ġecht":4067,"ĠWolf":4068,"wind":4069,"ltag":4070,"alisierung":4071,"ĠzusÃ¤tzlich":4072,"Ġspr":4073,"lieb":4074,"ĠPal":4075,"immel":4076,"ĠSchuhe":4077,"Ġ90":4078,"ĠDass":4079,"Ġzumindest":4080,"ĠFehler":4081,"maÃŁ":4082,"ĠPreise":4083,"Ġ;":4084,"Ġintegr":4085,"atik":4086,"ĠMart":4087,"ĠMonat":4088,"ĠPunkt":4089,"zul":4090,"ĠSatz":4091,"ĠAllerdings":4092,"Ġderzeit":4093,"ĠAngebote":4094,"Ġhol":4095,"itut":4096,"ĠUnternehmens":4097,"ĠErd":4098,"ĠKostenlos":4099,"Ġober":4100,"Ã¤den":4101,"ĠMeinung":4102,"ĠVerfahren":4103,"ese":4104,"ĠPersonal":4105,"kunden":4106,"Ġperfe":4107,"nungs":4108,"leisch":4109,"ĠDeutsch":4110,"ĠWeihnacht":4111,"sse":4112,"Ġwohn":4113,"Ġph":4114,"eisen":4115,"38":4116,"richtungen":4117,"Ġporno":4118,"ĠLÃ¶sung":4119,"ĠUmgebung":4120,"Ġperfekt":4121,"AL":4122,"ĠBall":4123,"ĠSinn":4124,"ĠLo":4125,"49":4126,"ĠSache":4127,"amin":4128,"ĠTV":4129,"press":4130,"ara":4131,"05":4132,"Ġberech":4133,"ĠWander":4134,"sprÃ¼":4135,"kir":4136,"Ġgenommen":4137,"ĠAnbieter":4138,"aktiv":4139,"Ã¤user":4140,"Ġherr":4141,"ĠWaren":4142,"ĠDich":4143,"Ġtran":4144,"ĠAlltag":4145,"itzer":4146,"igur":4147,"denken":4148,"Ġmoder":4149,"ĠÃ¼bern":4150,"Ġseien":4151,"waltung":4152,"DF":4153,"08":4154,"ĠEd":4155,"ĠFuÃŁball":4156,"schriften":4157,"akti":4158,"Ġrechts":4159,"ĠLust":4160,"Ġsinn":4161,"Ġerkennen":4162,"ĠKaffe":4163,"spir":4164,"ĠverfÃ¼g":4165,"ĠgroÃŁer":4166,"ĠTyp":4167,"ĠBern":4168,"anen":4169,"suche":4170,"ĠDo":4171,"ometer":4172,"ĠStÃ¤d":4173,"ĠRhein":4174,"Ġjederzeit":4175,"06":4176,"Ġfunktioniert":4177,"uchte":4178,"lieben":4179,"Ã¼tzt":4180,"Ġorganis":4181,"zeugt":4182,"sburg":4183,"Innen":4184,"verband":4185,"anne":4186,"low":4187,"merz":4188,"loss":4189,"Ġbeginnt":4190,"Ġtot":4191,"07":4192,"Ġverg":4193,"ĠTechnik":4194,"mittlung":4195,"Ġhistor":4196,"Ġgepl":4197,"ĠkÃ¶nnten":4198,"Ġgeschrieben":4199,"elegen":4200,"gut":4201,"ating":4202,"Ġ31":4203,"linge":4204,"ĠermÃ¶glicht":4205,"ĠReihe":4206,"Ġanderes":4207,"Ġschaffen":4208,"bewerb":4209,"Ġad":4210,"steuer":4211,"ĠFahrzeug":4212,"zahlung":4213,"ĠKÃ¶ln":4214,"jÃ¤hrigen":4215,"werte":4216,"nehm":4217,"geschichte":4218,"ĠLang":4219,"ĠHersteller":4220,"ĠIr":4221,"ĠGebÃ¤ude":4222,"ire":4223,"39":4224,"ĠAp":4225,"Ġ70":4226,"36":4227,"stimmung":4228,"ĠVolks":4229,"Ġ2009":4230,"ĠPaar":4231,"Ã¼tz":4232,"Ġerle":4233,"omas":4234,"ĠFenster":4235,"44":4236,"ime":4237,"zep":4238,"ution":4239,"ong":4240,"iginal":4241,"Ġverstehen":4242,"ĠHallo":4243,"ĠSalz":4244,"ĠNutzer":4245,"ĠschÃ¶nen":4246,"Ġsing":4247,"gebaut":4248,"Ġstets":4249,"ĠKonz":4250,"ierungen":4251,"ĠAngst":4252,"ĠAlles":4253,"ĠKampf":4254,"merzen":4255,"Ġerh":4256,"bs":4257,"ĠMeter":4258,"ennung":4259,"schrank":4260,"UN":4261,"lebnis":4262,"Ġgleichen":4263,"leistung":4264,"Ġehr":4265,"Ġzahlreiche":4266,"Sie":4267,"ĠZusammenarbeit":4268,"ĠReich":4269,"derung":4270,"Ġruh":4271,"ĠZwischen":4272,"ĠNational":4273,"Ġehemal":4274,"ĠSituation":4275,"Ġbeant":4276,"ĠZustand":4277,"ĠComputer":4278,"Ġ35":4279,"Ġprofession":4280,"aff":4281,"ĠÃ¼brigen":4282,"spricht":4283,"irm":4284,"ulti":4285,"ĠâĨ":4286,"egal":4287,"ĠKÃ¼nstler":4288,"Ġzweite":4289,"istische":4290,"ĠAngaben":4291,"yer":4292,"ĠVerm":4293,"ĠAltern":4294,"zin":4295,"ĠBÃ¼cher":4296,"ĠErwachsen":4297,"hoben":4298,"ĠSinne":4299,"ĠPosition":4300,"stattung":4301,"tell":4302,"leiten":4303,"Ġste":4304,"ĠMetho":4305,"04":4306,"enntnis":4307,"hostw":4308,"van":4309,"ĠgrÃ¼n":4310,"gegeben":4311,"ĠGra":4312,"Ġlangsam":4313,"gelt":4314,"ows":4315,"ĠMichael":4316,"iefer":4317,"Ġunbedingt":4318,"ĠOrd":4319,"rief":4320,"ĠFarb":4321,"âĢ¦]":4322,"ĠSprache":4323,"uchten":4324,"Ġextrem":4325,"eiche":4326,"ierenden":4327,"flug":4328,"tiges":4329,"over":4330,"ĠVier":4331,"ps":4332,"rast":4333,"Ġschwarz":4334,"merksam":4335,"res":4336,"Ã¤hrung":4337,"acher":4338,"gern":4339,"ĠDeshalb":4340,"Ġknapp":4341,"ĠMonaten":4342,"cial":4343,"Ġhilft":4344,"eum":4345,"ĠImmobil":4346,"ĠMax":4347,"ĠLÃ¶":4348,"Ġwichtige":4349,"Ġaktuell":4350,"ĠMoment":4351,"Ġlo":4352,"ĠShop":4353,"ummern":4354,"chenk":4355,"Ġjungen":4356,"gesehen":4357,"seiten":4358,"ĠMeister":4359,"ĠEuch":4360,"ef":4361,"Ġmass":4362,"Ġneuer":4363,"Ġgesamten":4364,"ĠLink":4365,"Ġero":4366,"zehn":4367,"Ġabzu":4368,"ender":4369,"ĠFreunde":4370,"ochter":4371,"frieden":4372,"hafen":4373,"Ġansch":4374,"ĠNa":4375,"ĠStrand":4376,"Ġlau":4377,"arbeite":4378,"Ġweltweit":4379,"34":4380,"ĠKredit":4381,"Ġentstehen":4382,"ĠFrankfurt":4383,"ĠSonder":4384,"Ġrichtigen":4385,"etzung":4386,"ĠProzess":4387,"utzer":4388,"Ġtolle":4389,"ĠTermin":4390,"ĠBade":4391,"Ġschwier":4392,"Ġdigit":4393,"ĠIndustrie":4394,"ĠAnspruch":4395,"durch":4396,"ĠPsych":4397,"Pl":4398,"nungen":4399,"Ġihres":4400,"ĠVerk":4401,"Ġtro":4402,"Ġangen":4403,"ĠRech":4404,"dass":4405,"schafts":4406,"ĠAbschluss":4407,"gart":4408,"ĠFreude":4409,"ancen":4410,"Ã¤ssig":4411,"auso":4412,"ĠhÃ¤tten":4413,"Ġsprechen":4414,"Ġzentr":4415,"Vor":4416,"bauen":4417,"sÃ¤tzlich":4418,"ĠTipps":4419,"eidig":4420,"adem":4421,"zut":4422,"Ġhaus":4423,"gewÃ¶hn":4424,"ĠVersicher":4425,"Ġdurchaus":4426,"quem":4427,"Ã¤tigkeit":4428,"ĠPunkte":4429,"03":4430,"ĠEind":4431,"viel":4432,"Ġmanchmal":4433,"olitik":4434,"fa":4435,"ĠBek":4436,"Ġausgew":4437,"zir":4438,"Ġsorgt":4439,"fle":4440,"ĠHund":4441,"ĠInteressen":4442,"enk":4443,"ĠGesprÃ¤ch":4444,"Ġlieber":4445,"ĠkÃ¶nnt":4446,"ĠFin":4447,"ĠWebseite":4448,"Ã¶ffnet":4449,"ĠAnti":4450,"Ġdefin":4451,"ĠMorgen":4452,"ierende":4453,"ĠlÃ¤uft":4454,"Ġbrauchen":4455,"Ġerg":4456,"unternehmen":4457,"ĠgrÃ¶ÃŁten":4458,"pa":4459,"Ġres":4460,"irn":4461,"Ġzuvor":4462,"Ġumfassen":4463,"Ġunseres":4464,"ĠJohann":4465,"ĠKrÃ¤":4466,"ĠSohn":4467,"ĠSchon":4468,"Ġteilweise":4469,"ĠTon":4470,"ĠBrÃ¼":4471,"ĠAnzahl":4472,"ĠgenieÃŁen":4473,"schÃ¶n":4474,"ĠSpezial":4475,"ĠBack":4476,"Ġdarin":4477,"ĠKarten":4478,"Ġpasst":4479,"ĠSach":4480,"Ġbesondere":4481,"schuss":4482,"Ġkn":4483,"wohner":4484,"ĠnÃ¤chste":4485,"ĠCook":4486,"ams":4487,"ĠTrotz":4488,"oto":4489,"ĠVis":4490,"tionen":4491,"ĠfÃ¤llt":4492,"ĠArzt":4493,"ĠpersÃ¶nlichen":4494,"raucht":4495,"kÃ¼":4496,"atter":4497,"eichert":4498,"Ġanderer":4499,"ĠRuss":4500,"ĠSamm":4501,"geg":4502,"zustellen":4503,"hy":4504,"ĠAufgabe":4505,"Ġgaran":4506,"da":4507,"Ġledig":4508,"icke":4509,"Ġerl":4510,"Ġzer":4511,"Ġsolchen":4512,"fragen":4513,"ĠÃľb":4514,"zÃ¼glich":4515,"Ã¶se":4516,"ĠMacht":4517,"ĠEUR":4518,"sprung":4519,"Ġgebracht":4520,"ĠVersion":4521,"Ġgenutzt":4522,"sammlung":4523,"Ġgekommen":4524,"entrum":4525,"Ġunterwegs":4526,"istik":4527,"xx":4528,"vÃ¶lker":4529,"Ġaktuelle":4530,"Ġerforderlich":4531,"Ġ[âĢ¦]":4532,"ĠÃ¤lter":4533,"ufe":4534,"finden":4535,"stellten":4536,"ĠVielleicht":4537,"68":4538,"vel":4539,"ĠVerwendung":4540,"ĠverÃ¶ffentlicht":4541,"ĠErgebnisse":4542,"ĠGerÃ¤t":4543,"ĠAnwendung":4544,"ĠLeistungs":4545,"attform":4546,"ernt":4547,"Ã¤nden":4548,"Ġeinger":4549,"ĠIS":4550,"ĠnÃ¶":4551,"mÃ¶glichen":4552,"verkehr":4553,"ĠDan":4554,"Ġerhe":4555,"37":4556,"Ġzufrieden":4557,"ĠBayern":4558,"ĠLeistungen":4559,"Ġziehen":4560,"weder":4561,"versicherung":4562,"etzte":4563,"ĠKer":4564,"gruppen":4565,"bieren":4566,"ĠHerbst":4567,"ĠÃ¤uÃŁer":4568,"Ġdeutsch":4569,"Ġlediglich":4570,"ĠAust":4571,"Ġgesamte":4572,"raten":4573,"Ġdre":4574,"technik":4575,"ĠOut":4576,"Ġgewinnen":4577,"ĠOption":4578,"Ġbisschen":4579,"ĠHol":4580,"Ġ2008":4581,"Ġentgegen":4582,"ĠTemperatur":4583,"ĠArbeiten":4584,"Ġeinzigar":4585,"ferenz":4586,"ĠGesicht":4587,"ĠHann":4588,"KW":4589,"ĠmÃ¶glichst":4590,"setzt":4591,"ĠHom":4592,"Ġschlecht":4593,"Ġversucht":4594,"ĠLager":4595,"Ġgener":4596,"ĠBerufs":4597,"ĠMÃ¼l":4598,"swert":4599,"Ġobwohl":4600,"âĢĵ":4601,"Ġdrin":4602,"anlagen":4603,"Ġmachte":4604,"zun":4605,"ĠStaat":4606,"ĠZahn":4607,"55":4608,"riffen":4609,"ĠSchne":4610,"deckt":4611,"ĠGraf":4612,"ĠauÃŁerdem":4613,"ĠPC":4614,"Ġmittlerweile":4615,"ĠausschlieÃŁlich":4616,"abend":4617,"Ãĸ":4618,"ĠNachdem":4619,"auern":4620,"ĠnatÃ¼r":4621,"gehend":4622,"ĠZeitpunkt":4623,"vollen":4624,"wechsel":4625,"ĠAntwort":4626,"ĠmuÃŁ":4627,"wser":4628,"ĠfrÃ¼h":4629,"ĠHalb":4630,"Ġdarum":4631,"uttgart":4632,"ĠKommunikation":4633,"Ġschwar":4634,"leiche":4635,"ĠHintergrund":4636,"spieler":4637,"ĠKurs":4638,"ds":4639,"raucher":4640,"Ġdennoch":4641,"ĠVeranstaltung":4642,"adern":4643,"ikal":4644,"ĠRegierung":4645,"ĠName":4646,"ĠVi":4647,"ĠAktion":4648,"ĠWarum":4649,"partner":4650,"tent":4651,"02":4652,"cm":4653,"ule":4654,"pft":4655,"Ã¤ger":4656,"entliche":4657,"karten":4658,"ĠDoppel":4659,"Ġverloren":4660,"66":4661,"âĢĺ":4662,"spielen":4663,"elten":4664,"Ġpreis":4665,"Ġdah":4666,"stoffe":4667,"ĠGottes":4668,"Ġkor":4669,"formen":4670,"ĠverfÃ¼gt":4671,"ĠSehr":4672,"Ġunterschiedlichen":4673,"ĠUp":4674,"Ġbetr":4675,"ourn":4676,"ĠAntrag":4677,"freund":4678,"ĠBef":4679,"ideo":4680,"Ġ500":4681,"Ġtradition":4682,"wald":4683,"ĠTraum":4684,"ĠKombin":4685,"abr":4686,"ĠVo":4687,"ĠÃ¶ffentlichen":4688,"ĠAss":4689,"Ġwirtschaft":4690,"igten":4691,"ĠBezug":4692,"ieÃŁ":4693,"flÃ¤chen":4694,"fo":4695,"ish":4696,"bruch":4697,"ĠenthÃ¤lt":4698,"Ġhinzu":4699,"Ã¤ume":4700,"reut":4701,"ĠSchrift":4702,"Ġusw":4703,"ĠGeschmack":4704,"ĠHy":4705,"ĠAlb":4706,"programm":4707,"ĠForum":4708,"Ġverantwort":4709,"ĠtÃ¤glich":4710,"gerech":4711,"ĠHunde":4712,"Ġoffiz":4713,"ana":4714,"ĠSuch":4715,"Ġnachdem":4716,"ĠAma":4717,"Ġerlau":4718,"ĠSmartph":4719,"ĠKno":4720,"ku":4721,"ĠSchaden":4722,"Ġbegann":4723,"Ġversuchen":4724,"ĠStunde":4725,"klusive":4726,"ĠPfer":4727,"ĠregelmÃ¤ÃŁig":4728,"Ġraus":4729,"ĠHerzen":4730,"ĠSchnit":4731,"Ġdisk":4732,"mÃ¶gen":4733,"ĠOhne":4734,"Ð¾":4735,"pfel":4736,"ehmer":4737,"ĠnÃ¤her":4738,"ĠZusammenhang":4739,"werke":4740,"dert":4741,"Ġ)":4742,"ĠSucht":4743,"zeichnung":4744,"ktor":4745,"ĠLeider":4746,"ĠÃ¼":4747,"ĠAndre":4748,"ĠMontag":4749,"Ġkleiner":4750,"ĠIT":4751,"Im":4752,"ĠBeste":4753,"Ġdenke":4754,"Ġpar":4755,"Ġreich":4756,"So":4757,"Ġfolgen":4758,"setzungen":4759,"inst":4760,"ĠZeiten":4761,"ĠDein":4762,"Ã¤lte":4763,"77":4764,"Ġausreichen":4765,"Ġentsprechend":4766,"ĠSee":4767,"ĠStat":4768,"Ġautomatisch":4769,"ĠAktu":4770,"Ġkostenlose":4771,"its":4772,"ĠPublik":4773,"Â®":4774,"ograph":4775,"stud":4776,"iat":4777,"Ġerwartet":4778,"Ġeingesetzt":4779,"jen":4780,"deten":4781,"**":4782,"Ġform":4783,"lernen":4784,"Ġlinks":4785,"Ġentwickeln":4786,"amme":4787,"ĠBil":4788,"rt":4789,"ĠBook":4790,"ĠMess":4791,"ĠKlasse":4792,"ĠMain":4793,"ĠChance":4794,"aser":4795,"ĠÃ¼berr":4796,"ĠSachen":4797,"asino":4798,"Ã¤mt":4799,"unkten":4800,"Ġmorgen":4801,"hostwriter":4802,"imal":4803,"obile":4804,"ĠMotiv":4805,"fÃ¼hren":4806,"ĠHeimat":4807,"ĠBrand":4808,"app":4809,"ĠIhres":4810,"ĠEvent":4811,"Ġerleben":4812,"ĠwÃ¤hlen":4813,"po":4814,"ĠPflanzen":4815,"alte":4816,"Ã¤st":4817,"Ġgelegen":4818,"Ġwenige":4819,"Ġuner":4820,"rid":4821,"othek":4822,"ĠMaÃŁnahmen":4823,"ikro":4824,"iete":4825,"fert":4826,"endes":4827,"stechn":4828,"sphÃ¤re":4829,"hung":4830,"SG":4831,"ĠgewÃ¤hr":4832,"ĠpersÃ¶nlich":4833,"ĠSchwar":4834,"ampfadern":4835,"ret":4836,"Ġgenannt":4837,"Auf":4838,"Ã¤dig":4839,"Ġatt":4840,"mittelt":4841,"ĠClub":4842,"ĠItalien":4843,"isierung":4844,"ĠLaut":4845,"ĠWochenende":4846,"Ġbestellen":4847,"ĠMel":4848,"Ġkamen":4849,"ĠFel":4850,"ĠDiskuss":4851,"Ġhalt":4852,"tierte":4853,"ĠHor":4854,"Ph":4855,"ĠFeld":4856,"ĠMail":4857,"unkel":4858,"alz":4859,"Ġsoweit":4860,"Ġzeig":4861,"ĠDaher":4862,"Ġerster":4863,"verstÃ¤ndlich":4864,"ĠMedizin":4865,"Ġfertig":4866,"ĠOpti":4867,"Ġtief":4868,"hafte":4869,"ĠSzen":4870,"management":4871,"Ġbefinden":4872,"lapp":4873,"ĠThomas":4874,"ĠMobil":4875,"sprÃ¼n":4876,"stÃ¤t":4877,"urm":4878,"Ġtyp":4879,"sprach":4880,"ory":4881,"Ġat":4882,"Ġerneut":4883,"ĠSchlag":4884,"??":4885,"ĠBeding":4886,"achel":4887,"Ġbestimmten":4888,"ET":4889,"san":4890,"Ġegal":4891,"Ġabsolut":4892,"Ġbild":4893,"itÃ¤r":4894,"Â°":4895,"ĠFreizeit":4896,"Ġdagegen":4897,"Ġbein":4898,"ymp":4899,"rein":4900,"berger":4901,"ĠAmazon":4902,"sprache":4903,"Ã¼h":4904,"ĠStruktur":4905,"imin":4906,"46":4907,"abet":4908,"ĠglÃ¼ck":4909,"werten":4910,"ĠKe":4911,"ĠAnforderungen":4912,"bereitung":4913,"ĠEinen":4914,"Ġpersonenbezogenen":4915,"of":4916,"aket":4917,"Ġwenigen":4918,"tigten":4919,"ĠTurn":4920,"47":4921,"Ġas":4922,"gesellschaft":4923,"Ġkrit":4924,"Be":4925,"ĠUntersuch":4926,"Ã¼ÃŁe":4927,"ĠKann":4928,"sg":4929,"ĠWÃ¤r":4930,"ĠRuhe":4931,"ĠGu":4932,"ĠBedÃ¼rf":4933,"ĠVen":4934,"ĠVorstand":4935,"ĠGeburtstag":4936,"ales":4937,"itektur":4938,"ĠMiss":4939,"gangs":4940,"ĠKrit":4941,"Ġintens":4942,"iar":4943,"ĠNoch":4944,"Ġallgem":4945,"Ġguter":4946,"ĠAnschluss":4947,"ĠWild":4948,"ĠErsatz":4949,"Ġvergessen":4950,"Ġfolgende":4951,"ĠBestand":4952,"Ġeinzige":4953,"ĠjÃ¤hr":4954,"dlich":4955,"Ġ45":4956,"ĠAir":4957,"Ġgenauso":4958,"Ġwarten":4959,"nerstag":4960,"Ã¤mpf":4961,"DR":4962,"ĠInsel":4963,"Ġnotwendig":4964,"ĠKlin":4965,"duziert":4966,"ĠDeine":4967,"ĠLeder":4968,"ĠStern":4969,"derungen":4970,"Ġdi":4971,"Ġdenken":4972,"ĠVerhalten":4973,"ĠHar":4974,"mittag":4975,"ĠgemÃ¤ÃŁ":4976,"Ġacht":4977,"ĠMetall":4978,"ĠSonne":4979,"lag":4980,"ĠVerÃ¤nder":4981,"ĠKirchen":4982,"ĠJeder":4983,"enthalt":4984,"ĠAbt":4985,"ĠFrie":4986,"ĠTochter":4987,"ĠAnmeldung":4988,"bÃ¼":4989,"ĠWohl":4990,"mark":4991,"ackte":4992,"Ġverlassen":4993,"Ġberuf":4994,"Ġmel":4995,"ĠTreffen":4996,"Ġaufzu":4997,"iness":4998,"ĠJung":4999,"ĠCharakter":5000,"Ġbesonderen":5001,"stÃ¤r":5002,"bus":5003,"Ġwirkt":5004,"Ġpr":5005,"ĠEg":5006,"ĠTraining":5007,"ĠHoff":5008,"Ġwichtigsten":5009,"Ġpartner":5010,"haben":5011,"Ġlangen":5012,"ĠDauer":5013,"ĠGeist":5014,"pflicht":5015,"box":5016,"ĠLive":5017,"ĠSeine":5018,"ĠVerd":5019,"ĠWirkung":5020,"Ġgestalten":5021,"ĠErotik":5022,"ĠFlÃ¼cht":5023,"ĠListe":5024,"ostet":5025,"Ġland":5026,"ĠRÃ¼cken":5027,"betrieb":5028,"ĠgewÃ¼n":5029,"ios":5030,"ines":5031,"ĠAuss":5032,"ĠVarian":5033,"ĠDel":5034,"ĠSpielen":5035,"ĠunabhÃ¤ng":5036,"Ġwissenschaft":5037,"ĠBesonders":5038,"ĠMir":5039,"ĠFÃ¤llen":5040,"31":5041,"ĠDarÃ¼ber":5042,"oth":5043,"ĠImmer":5044,"Ġgratis":5045,"vier":5046,"Ġsodass":5047,"endet":5048,"ĠUl":5049,"Ġmehreren":5050,"ĠlieÃŁ":5051,"Ġlag":5052,"Ġdeinen":5053,"eiert":5054,"32":5055,"ĠâĢĶ":5056,"aub":5057,"ĠVerlag":5058,"ĠSingle":5059,"ĠSein":5060,"sprech":5061,"ĠÃ¤ndern":5062,"ĠMat":5063,"Ġwith":5064,"Ã¼ren":5065,"omen":5066,"barer":5067,"Ġvoraus":5068,"ĠMarken":5069,"Ġstud":5070,"Ã¼sseld":5071,"ĠbenÃ¶tigt":5072,"ĠGeschichten":5073,"funktion":5074,"Ġirgendwie":5075,"ĠMartin":5076,"Ġirgendw":5077,"Ab":5078,"ĠRie":5079,"zunehmen":5080,"Ġherum":5081,"ĠWÃ¼n":5082,"Ã¤ndler":5083,"ĠEhe":5084,"Ġinzwischen":5085,"icro":5086,"zi":5087,"inos":5088,"uff":5089,"ĠAbl":5090,"lern":5091,"IE":5092,"AM":5093,"Ġanal":5094,"ĠĠ":5095,"chter":5096,"ĠMitt":5097,"fassung":5098,"riffe":5099,"hause":5100,"ĠhÃ¶ren":5101,"Ġbegeister":5102,"bieten":5103,"Ġlegen":5104,"ĠLeip":5105,"ĠHandy":5106,"ĠRoman":5107,"Ġverh":5108,"Ġerwarten":5109,"ĠgefÃ¤hr":5110,"bli":5111,"ĠSchluss":5112,"sÃ¤tze":5113,"ĠMannschaft":5114,"itel":5115,"Ã¤lfte":5116,"ĠdurchgefÃ¼hrt":5117,"iser":5118,"mitglie":5119,"ĠWege":5120,"ĠTeile":5121,"pol":5122,"ffizien":5123,"ĠTats":5124,"ĠPoten":5125,"ĠGerÃ¤te":5126,"ĠKreuz":5127,"TE":5128,"ĠDownload":5129,"ĠLeit":5130,"wendungen":5131,"Ġerreich":5132,"Ġverf":5133,"Ġweder":5134,"onen":5135,"ĠÃĸl":5136,"ID":5137,"ĠgÃ¼nstig":5138,"Ð°":5139,"liga":5140,"hÃ¶r":5141,"ĠTat":5142,"Ã¼ckt":5143,"Ġgefallen":5144,"Ġzuletzt":5145,"ĠGelegen":5146,"ideos":5147,"Ġpassiert":5148,"rig":5149,"wirkungen":5150,"wÃ¼rdig":5151,"linie":5152,"ĠSchnitt":5153,"ehlt":5154,"ĠStoff":5155,"ĠNachbar":5156,"Ã¶tzlich":5157,"enntnisse":5158,"Ġwahrscheinlich":5159,"grÃ¼ndet":5160,"vention":5161,"ĠWeiÃŁ":5162,"ĠHandel":5163,"ĠSpann":5164,"Ġti":5165,"AG":5166,"ĠKomp":5167,"ĠTiere":5168,"Ġfehlen":5169,"ĠUrs":5170,"stÃ¤nden":5171,"ĠbestÃ¤":5172,"ĠWindows":5173,"ork":5174,"pack":5175,"uelle":5176,"bi":5177,"ĠWelche":5178,"ĠEint":5179,"auert":5180,"tic":5181,"play":5182,"ĠAlex":5183,"ĠWirtschafts":5184,"Ġbequem":5185,"Ġfach":5186,"Ġherunter":5187,"Ġlieben":5188,"ĠStuttgart":5189,"baum":5190,"ĠExt":5191,"Ġdur":5192,"zÃ¤hl":5193,"Ġverpflich":5194,"ĠGlau":5195,"part":5196,"98":5197,"Ġsieben":5198,"ĠermÃ¶glichen":5199,"ĠTradition":5200,"teuer":5201,"uk":5202,"ischem":5203,"ĠAmer":5204,"reuung":5205,"Kom":5206,"alender":5207,"dungen":5208,"ĠSchweizer":5209,"iums":5210,"ĠZeichen":5211,"ĠOffen":5212,"Ġpf":5213,"Ġfallen":5214,"okal":5215,"ĠjÃ¼n":5216,"Ġbeob":5217,"rÃ¤ume":5218,"Ġung":5219,"ĠBonus":5220,"ĠStar":5221,"rug":5222,"ĠDorf":5223,"ole":5224,"Ġrelativ":5225,"Ġcom":5226,"ĠNachrichten":5227,"Ġdiver":5228,"Ġumfang":5229,"ĠstÃ¤ndig":5230,"ĠSieg":5231,"ĠBewegung":5232,"ĠLinks":5233,"Ġsicht":5234,"ĠImmobilien":5235,"ĠSchei":5236,"ĠKrampfadern":5237,"ĠLÃ¤ndern":5238,"Â´":5239,"ĠAusland":5240,"ĠCamp":5241,"ĠArm":5242,"rucken":5243,"ĠBegriff":5244,"falt":5245,"Ġgutes":5246,"treter":5247,"Ġgeschlossen":5248,"ĠBildung":5249,"Ġbestimmte":5250,"ĠSerie":5251,"Ġ2007":5252,"ader":5253,"Ġag":5254,"ĠSong":5255,"Ġbeteil":5256,"ektor":5257,"ĠWil":5258,"ĠMÃ¼":5259,"ĠKunde":5260,"Ġerinner":5261,"Ġspricht":5262,"2017":5263,"ĠTrend":5264,"ĠFeuerwehr":5265,"Ġinternationalen":5266,"film":5267,"!!!":5268,"lecht":5269,"fangen":5270,"ĠHotels":5271,"Ġinformieren":5272,"obby":5273,"Ġgesucht":5274,"SV":5275,"ĠInformation":5276,"Ġ!":5277,"ble":5278,"ikt":5279,"ĠEigent":5280,"zepte":5281,"ĠBevÃ¶lker":5282,"wechs":5283,"ĠKern":5284,"ĠBew":5285,"76":5286,"mon":5287,"ĠNo":5288,"ĠTheater":5289,"ĠAnlage":5290,"gefÃ¤hr":5291,"leit":5292,"wart":5293,"fahrer":5294,"ĠGerade":5295,"Ġentstanden":5296,"ĠEinsch":5297,"ĠDonnerstag":5298,"ĠGrad":5299,"edes":5300,"ĠPlay":5301,"anien":5302,"Ġfur":5303,"Ġentsprechenden":5304,"UR":5305,"ĠLiebl":5306,"100":5307,"ĠDafÃ¼r":5308,"ktiven":5309,"ĠPan":5310,"ĠFrankreich":5311,"ĠBetriebs":5312,"ĠÃ¼berall":5313,"schungs":5314,"utzung":5315,"ĠSicherheits":5316,"Ġbeachten":5317,"ĠWh":5318,"arkt":5319,"ĠPil":5320,"Ġentschieden":5321,"ĠGroÃŁe":5322,"wissenschaft":5323,"bilder":5324,"ĠBaby":5325,"ica":5326,"rah":5327,"klasse":5328,"ĠFunktionen":5329,"empf":5330,"Ġerwei":5331,"Adresse":5332,"ĠForschung":5333,"holen":5334,"ĠHof":5335,"Ġ300":5336,"passen":5337,"ĠHans":5338,"ĠFree":5339,"ĠFlÃ¤":5340,"ĠWohnzimmer":5341,"ĠVereins":5342,"ĠKal":5343,"Ġkennt":5344,"gelegt":5345,"Ġtut":5346,"ĠFC":5347,"ĠErinner":5348,"ĠDetails":5349,"ĠSim":5350,"ĠverfÃ¼gbar":5351,"âĢŀ":5352,"ĠGeg":5353,"lÃ¶sung":5354,"ĠBÃ¼ro":5355,"sser":5356,"Ġglaube":5357,"Ġbeginnen":5358,"Ġsport":5359,"lichkeiten":5360,"Ġbas":5361,"krÃ¤fte":5362,"ĠDating":5363,"zum":5364,"iegen":5365,"rige":5366,"ĠVerkehrs":5367,"ĠSter":5368,"euten":5369,"ĠGrundlage":5370,"inkel":5371,"Kon":5372,"ynam":5373,"Ġindividuell":5374,"sion":5375,"ĠFranz":5376,"ĠEdel":5377,"Ã¤dag":5378,"ahnen":5379,"Ġ08":5380,"Gr":5381,"Ġgez":5382,"emente":5383,"iveau":5384,"Ðµ":5385,"79":5386,"anwalt":5387,"schte":5388,"Ġzahlreichen":5389,"qualitÃ¤t":5390,"unn":5391,"ĠOriginal":5392,"upp":5393,"ĠZentrum":5394,"Ġries":5395,"IL":5396,"ĠRisiko":5397,"arzt":5398,"ĠSemin":5399,"haber":5400,"ĠBeschwer":5401,"riebe":5402,"ĠErde":5403,"ĠMittwoch":5404,"ĠStimm":5405,"ĠPapier":5406,"ĠVolk":5407,"ĠKostenlose":5408,"aat":5409,"Ã¶ÃŁen":5410,"rick":5411,"ĠNeue":5412,"ĠKlass":5413,"Ġgestern":5414,"ĠKilometer":5415,"Ġnachhal":5416,"Ġniemand":5417,"Ġpsych":5418,"Ġreicht":5419,"Ġgenannten":5420,"ĠExperten":5421,"Ġbesuchen":5422,"Ġant":5423,"ĠVorteil":5424,"88":5425,"ones":5426,"Ġfrau":5427,"Ã¼ten":5428,"elev":5429,"flÃ¼":5430,"Ġsorg":5431,"ll":5432,"ssystem":5433,"ffekt":5434,"gerÃ¤t":5435,"Ġans":5436,"Ġjahr":5437,"urg":5438,"Ġarbeitet":5439,"ĠFÃ¼hrung":5440,"ĠvielfÃ¤l":5441,"geord":5442,"Ġentweder":5443,"wortet":5444,"ĠKaffee":5445,"Ġvern":5446,"Ġkommenden":5447,"ĠPrem":5448,"Ġblau":5449,"able":5450,"ĠUN":5451,"pfl":5452,"ĠVeranstaltungen":5453,"heits":5454,"mission":5455,"club":5456,"ĠFÃ¤h":5457,"stattet":5458,"Ġmensch":5459,"ift":5460,"Ġficken":5461,"Ġmod":5462,"System":5463,"ĠBedingungen":5464,"wurf":5465,"otto":5466,"verfahren":5467,"ĠJahrhundert":5468,"scheint":5469,"tifiz":5470,"legung":5471,"page":5472,"ĠMarketing":5473,"ĠHÃ¶r":5474,"stellte":5475,"ĠWerbe":5476,"Ġschneller":5477,"zahlt":5478,"43":5479,"punkte":5480,"ĠSprach":5481,"gress":5482,"vin":5483,"Ġnieder":5484,"ĠHard":5485,"ĠLeser":5486,"greifen":5487,"Ġkre":5488,"ips":5489,"ĠNor":5490,"ĠLinie":5491,"Ã¶ÃŁ":5492,"Ġheutigen":5493,"Ã¤ngst":5494,"halle":5495,"ĠbetrÃ¤gt":5496,"ournal":5497,"ĠZweck":5498,"Ġ2000":5499,"passt":5500,"ew":5501,"bad":5502,"ses":5503,"eige":5504,"ĠReisen":5505,"ĠgrÃ¶ÃŁte":5506,"Ġschrift":5507,"lefon":5508,"Ġausgestattet":5509,"lÃ¤ss":5510,"bericht":5511,"ĠFein":5512,"ĠFrÃ¼hstÃ¼ck":5513,"ĠOper":5514,"osex":5515,"ĠGefahr":5516,"ĠGewicht":5517,"erseits":5518,"ĠZuf":5519,"bereit":5520,"ĠIntegr":5521,"ĠKol":5522,"ĠLÃ¤nder":5523,"ternehmer":5524,"ĠFit":5525,"material":5526,"tierung":5527,"Ġunmittel":5528,"Ġkleines":5529,"ĠRen":5530,"AP":5531,"ĠTrans":5532,"Ġerstellen":5533,"ĠPartei":5534,"alls":5535,"ĠkÃ¼r":5536,"Ġdire":5537,"ĠDanke":5538,"kret":5539,"chem":5540,"iste":5541,"ĠMÃ¶bel":5542,"ics":5543,"ugend":5544,"kontakte":5545,"ĠChem":5546,"Ġhttps":5547,"Ġunterschiedliche":5548,"ĠStrate":5549,"ĠÃ¼brigens":5550,"service":5551,"ĠgemÃ¼t":5552,"ĠKooper":5553,"wertungen":5554,"ĠBereichen":5555,"dauer":5556,"ĠWechsel":5557,"ĠergÃ¤n":5558,"Ġproblem":5559,"ĠGewalt":5560,"ĠKatzen":5561,"Ġgeboren":5562,"ĠmÃ¤n":5563,"linien":5564,"Ġsuche":5565,"windigkeit":5566,"ction":5567,"ĠbenÃ¶tigen":5568,"ĠFahrt":5569,"ĠKarte":5570,"Ġeingesch":5571,"enne":5572,"ĠNetzwerk":5573,"Ã¼nftig":5574,"Â¼":5575,"ĠWeil":5576,"zur":5577,"ĠBerliner":5578,"ĠOrganisation":5579,"Ġbilden":5580,"atze":5581,"ĠServer":5582,"ĠtrÃ¤gt":5583,"ĠSPD":5584,"ĠHÃ¼":5585,"Ġmer":5586,"rink":5587,"enze":5588,"85":5589,"ĠNorm":5590,"ĠKlima":5591,"ĠTeen":5592,"Ġinstall":5593,"ĠCookies":5594,"Ġsauber":5595,"gro":5596,"ĠLiteratur":5597,"69":5598,"ĠBrowser":5599,"ĠSpe":5600,"auchen":5601,"Ġko":5602,"Ġstra":5603,"ĠProjekte":5604,"Ġbewusst":5605,"kshop":5606,"osoph":5607,"fÃ¤lle":5608,"ĠTrau":5609,"ĠStÃ¤r":5610,"ius":5611,"uhl":5612,"bildungs":5613,"Ġsicherlich":5614,"ĠâĢļ":5615,"Ġdauer":5616,"Ġbezeichnet":5617,"ikanischen":5618,"ĠHilf":5619,"Ġnahm":5620,"ĠZeu":5621,"ĠHein":5622,"onie":5623,"Ġinteressant":5624,"ĠAuff":5625,"bern":5626,"ĠFalls":5627,"ĠUmgang":5628,"ologischen":5629,"ĠCont":5630,"sum":5631,"ĠprÃ¤sentiert":5632,"rochen":5633,"ĠMarke":5634,"Ġgesetzt":5635,"ĠMor":5636,"ĠEinfach":5637,"Ġbi":5638,"Ġerscheint":5639,"ĠwÃ¼nschen":5640,"ĠZer":5641,"Ġmussten":5642,"VO":5643,"ĠJack":5644,"ĠLux":5645,"Ġkombin":5646,"ologische":5647,"Ġalleine":5648,"angebot":5649,"Ġverr":5650,"Nach":5651,"ĠPresse":5652,"schlÃ¤ge":5653,"ĠVorder":5654,"drich":5655,"Ġvoller":5656,"Ġverbessern":5657,"ĠHaushalt":5658,"ĠFahrrad":5659,"ĠTrainer":5660,"ĠVom":5661,"ĠChristian":5662,"ĠKombination":5663,"ĠgroÃŁes":5664,"Ġinnov":5665,"Ġzunehmen":5666,"wÃ¤":5667,"ĠVergangen":5668,"ĠMund":5669,"maschine":5670,"ĠKonzept":5671,"Ġfolgt":5672,"ĠJes":5673,"ites":5674,"ĠWal":5675,"wach":5676,"Ġverschw":5677,"ĠerzÃ¤hlt":5678,"kan":5679,"ĠwÃ¤ren":5680,"Ġmittels":5681,"omin":5682,"Ġunterschiedlich":5683,"ĠBier":5684,"tes":5685,"ĠRechte":5686,"ĠElektro":5687,"Ġessen":5688,"sinn":5689,"angt":5690,"Ġinnen":5691,"rÃ¤gen":5692,"Ġgehalten":5693,"ĠZugang":5694,"MS":5695,"ĠFa":5696,"ĠLÃ¶sungen":5697,"ĠVit":5698,"cri":5699,"ĠSchiff":5700,"ĠKategorie":5701,"ĠGrenzen":5702,"entlichkeit":5703,"ĠAch":5704,"ĠFrem":5705,"ĠTabl":5706,"Ġmiteinander":5707,"Ġvorstellen":5708,"ĠKlassen":5709,"ĠTel":5710,"Ġentsprechende":5711,"achelor":5712,"publik":5713,"iebt":5714,"tierten":5715,"gten":5716,"Ġletzt":5717,"Ġsan":5718,"ĠLehrer":5719,"Ġgespeichert":5720,"reen":5721,"ĠGas":5722,"ld":5723,"itionen":5724,"ĠManagement":5725,"ĠKamera":5726,"ĠInfos":5727,"ĠBio":5728,"ĠZit":5729,"Ã¤mpfen":5730,"sucht":5731,"Ġrech":5732,"leger":5733,"ĠKoch":5734,"Ġprofit":5735,"mosphÃ¤re":5736,"ĠBedarf":5737,"ĠIP":5738,"haften":5739,"sequ":5740,"Ġpol":5741,"ĠGeschenk":5742,"antas":5743,"Ġgelungen":5744,"Man":5745,"stÃ¤ndigen":5746,"ĠTa":5747,"EG":5748,"ĠWunder":5749,"ĠAnal":5750,"ammt":5751,"messen":5752,"waltungs":5753,"fan":5754,"Ġcasino":5755,"etisch":5756,"Ã¼cksichtig":5757,"ĠRock":5758,"Ġwirken":5759,"Ġbauen":5760,"ĠHimmel":5761,"bett":5762,"Ã¡":5763,"teile":5764,"digen":5765,"ĠAlters":5766,"alisiert":5767,"ĠGesundheits":5768,"Ġdeiner":5769,"Ġfragen":5770,"Ġkr":5771,"ĠZahlungs":5772,"volution":5773,"con":5774,"ĠGeheim":5775,"ĠChat":5776,"zesse":5777,"ival":5778,"agno":5779,"abt":5780,"ĠHÃ¤lfte":5781,"ĠDanach":5782,"ĠFilme":5783,"ĠBeziehung":5784,"ĠerhÃ¤ltlich":5785,"iefel":5786,"OL":5787,"Ġtrifft":5788,"Ġreag":5789,"sonsten":5790,"ĠPor":5791,"ĠVerbesser":5792,"ĠEinkauf":5793,"fÃ¤higkeit":5794,"lÃ¤nd":5795,"ĠMaster":5796,"ĠAufenthalt":5797,"omm":5798,"ĠPe":5799,"Ġbeweg":5800,"Ġernst":5801,"Ġschauen":5802,"ĠBrust":5803,"JÃ¤hr":5804,"Ã¼ssen":5805,"Wenn":5806,"ĠRÃ¶":5807,"ĠMicro":5808,"Ġvertreten":5809,"Ġdarunter":5810,"ĠfranzÃ¶s":5811,"ollar":5812,"ĠBewer":5813,"ĠÃ¤hnlich":5814,"ĠJapan":5815,"42":5816,"ĠRunde":5817,"ĠSingles":5818,"kampf":5819,"Ġbedeuten":5820,"kunde":5821,"ĠBezir":5822,"Ġ0180":5823,"Ġ2006":5824,"onds":5825,"holt":5826,"spf":5827,"rechts":5828,"ĠgrundsÃ¤tzlich":5829,"Ġhabt":5830,"ĠDienstag":5831,"ĠTherapie":5832,"ĠLebensmittel":5833,"mund":5834,"Kl":5835,"ĠStandort":5836,"ĠEinige":5837,"ĠUnterricht":5838,"Ã¤ck":5839,"ĠAufbau":5840,"ampe":5841,"istisch":5842,"ulation":5843,"Ġwor":5844,"ichtete":5845,"ĠHinweis":5846,"ĠQ":5847,"ĠFans":5848,"ĠGrÃ¼nden":5849,"Ġheim":5850,"igital":5851,"dungs":5852,"Ġattra":5853,"itar":5854,"AD":5855,"Ġ@":5856,"ĠVerbraucher":5857,"Ġzieht":5858,"Te":5859,"ĠUmsetzung":5860,"Ġamer":5861,"ĠLeipzig":5862,"stÃ¤ndige":5863,"iden":5864,"ĠMaschinen":5865,"ĠâĨĴ":5866,"Ġfein":5867,"alerie":5868,"lafen":5869,"hoch":5870,"gerÃ¤te":5871,"Ġaufgenommen":5872,"ĠsÃ¤mt":5873,"Ġ09":5874,"ĠStudie":5875,"IC":5876,"ĠRicht":5877,"ĠPersÃ¶n":5878,"ĠFlughafen":5879,"auftrag":5880,"gestaltung":5881,"netz":5882,"assungs":5883,"ĠÃ¼bernehmen":5884,"mail":5885,"filme":5886,"ĠEisen":5887,"Ġangegeben":5888,"Ġneg":5889,"ĠWerbung":5890,"ĠZahlen":5891,"Ġprivate":5892,"ĠausdrÃ¼ck":5893,"Ġed":5894,"ĠplÃ¶tzlich":5895,"ĠEindruck":5896,"erner":5897,"ĠAusstellung":5898,"ly":5899,"ĠBeitrÃ¤ge":5900,"nitten":5901,"das":5902,"ĠEinfluss":5903,"Ġgelesen":5904,"tigte":5905,"steh":5906,"frau":5907,"OM":5908,"rock":5909,"Ġgezeigt":5910,"Ã¶rter":5911,"to":5912,"67":5913,"kurs":5914,"Ch":5915,"ĠFleisch":5916,"ĠRoll":5917,"ĠDÃ¼sseld":5918,"Ġberichtet":5919,"RE":5920,"ĠursprÃ¼n":5921,"ĠMy":5922,"ĠStahl":5923,"ĠkÃ¶rper":5924,"ĠSchlafzimmer":5925,"Ġsamm":5926,"ĠBestimm":5927,"ĠTal":5928,"ĠHat":5929,"ĠAs":5930,"Ġabgeschlossen":5931,"zy":5932,"ĠBlack":5933,"ĠZw":5934,"ĠBericht":5935,"reif":5936,"Ġtotal":5937,"Ġmoderne":5938,"kommt":5939,"schm":5940,"ĠWettbewerb":5941,"58":5942,"forderung":5943,"41":5944,"ĠpersÃ¶nliche":5945,"Ã¼rt":5946,"Ġzeich":5947,"ĠerklÃ¤ren":5948,"gÃ¤nge":5949,"sem":5950,"Ġmodernen":5951,"Ġeinst":5952,"date":5953,"ĠBrief":5954,"sprÃ¼che":5955,"Ġ150":5956,"andid":5957,"reig":5958,"ĠvollstÃ¤ndig":5959,"cess":5960,"Ġdrauf":5961,"ĠMikro":5962,"ĠFo":5963,"ĠFrieden":5964,"kre":5965,"Ġdritten":5966,"ĠMaterialien":5967,"ieter":5968,"Ġwichtiger":5969,"bek":5970,"Ġelektron":5971,"seitig":5972,"han":5973,"Ġwachsen":5974,"ĠanschlieÃŁend":5975,"ĠBewertung":5976,"timent":5977,"Ġstellte":5978,"etzten":5979,"ĠLandkreis":5980,"Ã¤ne":5981,"Ġeinfache":5982,"go":5983,"anke":5984,"Ġgebe":5985,"eiern":5986,"zenz":5987,"ĠgefÃ¼hrt":5988,"Ġfil":5989,"pul":5990,"ĠTÃ¤tigkeit":5991,"Ġerlaubt":5992,"Ġfindest":5993,"petenz":5994,"ĠKommentar":5995,"Ġnochmal":5996,"weite":5997,"Ã¼se":5998,"ĠDadurch":5999,"olden":6000,"eilung":6001,"ĠWeihnachts":6002,"Ġdating":6003,"Ġmedizin":6004,"eta":6005,"Ġ32":6006,"boden":6007,"Ġlust":6008,"ĠCor":6009,"Ġwelchen":6010,"ĠerwÃ¤hn":6011,"ual":6012,"Ã¼ÃŁen":6013,"ĠBusiness":6014,"ĠVorsitzen":6015,"dien":6016,"ĠVergangenheit":6017,"ĠfÃ¼hlen":6018,"Ġzahlen":6019,"ode":6020,"Ġgewonnen":6021,"inform":6022,"hindern":6023,"ĠBestellung":6024,"Ġbeschrieben":6025,"ĠBaden":6026,"ĠParty":6027,"ĠFreundin":6028,"Ġjung":6029,"ĠBildungs":6030,"Ġspeziell":6031,"ĠDro":6032,"Ġtr":6033,"Ã¼st":6034,"ĠChina":6035,"enter":6036,"ĠMilliar":6037,"ladung":6038,"aup":6039,"Ġeingeb":6040,"Ġwechs":6041,"icks":6042,"text":6043,"ĠTw":6044,"ĠDres":6045,"ografie":6046,"fernen":6047,"Ã¤dagog":6048,"Ġzuerst":6049,"Ð¸":6050,"ĠPS":6051,"Ġbekannte":6052,"schirm":6053,"AC":6054,"Ġpassende":6055,"ãģ":6056,"ĠBeteil":6057,"ĠInstitut":6058,"Ġwann":6059,"ĠServic":6060,"Ġporn":6061,"treffen":6062,"itor":6063,"ĠPaul":6064,"achtung":6065,"utlich":6066,"ĠtÃ¤tig":6067,"omie":6068,"ĠfÃ¼hrte":6069,"ĠdÃ¼rfte":6070,"vertrag":6071,"The":6072,"ĠWichtig":6073,"df":6074,"ĠBevÃ¶lkerung":6075,"rael":6076,"krieg":6077,"reme":6078,"ĠTransport":6079,"ĠHerrn":6080,"Ġeffe":6081,"Ġbegeistert":6082,"ĠGegner":6083,"Bl":6084,"ĠSmartphone":6085,"usste":6086,"ĠLED":6087,"dat":6088,"Ġsteigen":6089,"ĠFolgen":6090,"ierend":6091,"ĠSchlÃ¼ssel":6092,"Ġflex":6093,"illa":6094,"Ġberaten":6095,"ampag":6096,"gramme":6097,"ĠKollegen":6098,"pap":6099,"ĠProdukten":6100,"ĠLab":6101,"ĠGebrauch":6102,"cel":6103,"rib":6104,"Ġgering":6105,"Ġerheb":6106,"rechte":6107,"ĠÃ¼berzeugt":6108,"yle":6109,"Ġbeliebte":6110,"ĠTaschen":6111,"Ġlieb":6112,"zeige":6113,"rÃ¤f":6114,"blatt":6115,"Ġerstmals":6116,"ĠInterview":6117,"Ġ2005":6118,"ĠBeschÃ¤f":6119,"Mod":6120,"deu":6121,"ĠKÃ¼chen":6122,"ĠHannover":6123,"ĠInner":6124,"Ġlok":6125,"nissen":6126,"hlight":6127,"ĠEreig":6128,"ĠLeiter":6129,"ĠFisch":6130,"ĠFakt":6131,"Ġdient":6132,"ĠÃ¼berprÃ¼":6133,"ski":6134,"Ġsprach":6135,"ĠInnov":6136,"Ġgedacht":6137,"Ġfot":6138,"ĠLÃ¤nge":6139,"ymn":6140,"ĠPlanung":6141,"ampen":6142,"kohol":6143,"rufen":6144,"ĠMinister":6145,"ĠBud":6146,"Ġperfekte":6147,"ĠPDF":6148,"ĠPop":6149,"ĠBox":6150,"ĠVorteile":6151,"ĠTanz":6152,"ĠSchwanz":6153,"ĠRos":6154,"ĠPrÃ¼f":6155,"ĠKontakte":6156,"ĠProt":6157,"gelassen":6158,"ST":6159,"ussen":6160,"handel":6161,"ĠSind":6162,"ĠÃ¼berw":6163,"ĠGelegenheit":6164,"back":6165,"job":6166,"Ġhochwertige":6167,"ĠBot":6168,"ĠSchulen":6169,"ĠDokument":6170,"bas":6171,"ĠIniti":6172,"ĠMedik":6173,"ĠModern":6174,"ĠsÃ¼d":6175,"Ã¤umen":6176,"Ġfalsch":6177,"gerufen":6178,"Ã¼ndung":6179,"platte":6180,"ĠBehÃ¶r":6181,"Ġzuk":6182,"ĠBor":6183,"Ġ07":6184,"ischung":6185,"Ġwollten":6186,"Ã¶rdert":6187,"ĠDeutschlands":6188,"stellungs":6189,"rÃ¤nkt":6190,"ĠUnfall":6191,"ziehungs":6192,"Ġbreit":6193,"Ġschm":6194,"tive":6195,"Ġverantwortlich":6196,"Ġwichtigen":6197,"eitern":6198,"steiger":6199,"raktion":6200,"ehrt":6201,"Ã¶rdern":6202,"Ġsozialen":6203,"sitz":6204,"ĠModelle":6205,"ĠInstrum":6206,"ĠMiet":6207,"schreiben":6208,"ĠSchloss":6209,"Ges":6210,"Ġblieb":6211,"Ġinkl":6212,"ahrung":6213,"Ġfehlt":6214,"maschinen":6215,"Ġverkaufen":6216,"Ġdaraus":6217,"Ġregion":6218,"Ġkurze":6219,"Ġpolitischen":6220,"ĠMilch":6221,"ĠGebiet":6222,"Ġfree":6223,"Ġdisku":6224,"ĠPla":6225,"ondon":6226,"liste":6227,"Ġentsteht":6228,"ehme":6229,"ĠLÃ¼":6230,"ĠSign":6231,"ĠInformations":6232,"telligen":6233,"nummer":6234,"Ġby":6235,"Ġfrem":6236,"TV":6237,"ĠBurg":6238,"ĠAusgabe":6239,"cy":6240,"ĠMig":6241,"Ġsen":6242,"ĠSilber":6243,"Ġhoffe":6244,"ĠgenÃ¼":6245,"atoren":6246,"Ġverhindern":6247,"slam":6248,"erweise":6249,"iefe":6250,"ĠFernseh":6251,"IP":6252,"Ġverpflichtet":6253,"ĠSymbol":6254,"pflege":6255,"ĠFriedrich":6256,"rand":6257,"Ġstarten":6258,"ĠVerantwortung":6259,"igungs":6260,"werbe":6261,"Ã¼m":6262,"ĠSpeicher":6263,"Ġhinein":6264,"ĠKompon":6265,"Was":6266,"Ã¤hlte":6267,"kultur":6268,"geht":6269,"uschi":6270,"ĠPublikum":6271,"ĠKÃ¼hl":6272,"ĠzusÃ¤tzliche":6273,"ĠFett":6274,"Ġtrocken":6275,"ĠMerk":6276,"ĠbeschÃ¤ftigt":6277,"ĠKart":6278,"Ġaufs":6279,"wander":6280,"ĠÃĸffentlichkeit":6281,"ĠKant":6282,"Ġtollen":6283,"ĠWachst":6284,"Ġgeile":6285,"ape":6286,"erei":6287,"Ġhilf":6288,"2016":6289,"Ġvergleich":6290,"ĠBereits":6291,"ĠArbeitgeber":6292,"Ġdeinem":6293,"Ġpositiv":6294,"munity":6295,"Wer":6296,"Ġgekauft":6297,"Vers":6298,"ĠBrem":6299,"Ġwand":6300,"ĠGir":6301,"ĠReife":6302,".[":6303,"ibel":6304,"ĠKeine":6305,"regierung":6306,"ĠFreiheit":6307,"Ġkurzen":6308,"ĠKarl":6309,"Ġschreibt":6310,"ĠStraf":6311,"kn":6312,"ĠKein":6313,"ĠRussland":6314,"Ġerstellt":6315,"orben":6316,"ĠKritik":6317,"ĠWeiterlesen":6318,"Ġ36":6319,"ĠLeiden":6320,"hÃ¤user":6321,"ĠZentr":6322,"ĠUnterschied":6323,"Ã¶rse":6324,"ĠIhn":6325,"Ġgleiche":6326,"arif":6327,"Ġzuverl":6328,"Ġleisten":6329,"ages":6330,"ace":6331,"ĠausfÃ¼hr":6332,"ĠZucker":6333,"Ġserv":6334,"machen":6335,"iefen":6336,"ÑĤ":6337,"beit":6338,"II":6339,"Ġentdecken":6340,"beu":6341,"ĠRab":6342,"ĠeuropÃ¤ischen":6343,"ischt":6344,"Ġgesellschaft":6345,"ĠEigenschaften":6346,"ĠWa":6347,"Ġno":6348,"ĠHD":6349,"ĠStimme":6350,"geschrieben":6351,"ml":6352,"ohlen":6353,"kap":6354,"OP":6355,"ĠVertrags":6356,"Ġachten":6357,"messer":6358,"ĠJunge":6359,"roid":6360,"Â²":6361,"ĠAgen":6362,"Ġexist":6363,"zeichnen":6364,"ĠForschungs":6365,"ĠSchreib":6366,"ĠRelig":6367,"ĠVertrieb":6368,"Ġgespielt":6369,"Am":6370,"eck":6371,"ĠOpfer":6372,"ergie":6373,"ICH":6374,"Ġkultur":6375,"maÃŁen":6376,"ĠMuster":6377,"ĠauÃŁerhalb":6378,"ielten":6379,"ĠZÃ¼r":6380,"Ġkommun":6381,"rÃ¤nke":6382,"essel":6383,"Ġorden":6384,"ĠEp":6385,"ĠPlus":6386,"Ġruss":6387,"fertigt":6388,"ĠErlebnis":6389,"ĠzÃ¤hlt":6390,"LAN":6391,"orte":6392,"ĠGericht":6393,"ĠSpitzen":6394,"jekten":6395,"Ġverurs":6396,"Ġinteressiert":6397,"Sh":6398,"pert":6399,"indert":6400,"ĠPrÃ¼fung":6401,"ĠInteress":6402,"lehr":6403,"fristig":6404,"ĠProfil":6405,"Ġerscheinen":6406,"splatz":6407,"vo":6408,"ĠZiele":6409,"ĠZul":6410,"meter":6411,"ĠSet":6412,"Ã¼hm":6413,"rennen":6414,"spiegel":6415,"Ġausgeb":6416,"akten":6417,"beratung":6418,"Ġentspricht":6419,"mung":6420,"ĠBin":6421,"ĠArten":6422,"IG":6423,"Ġvorber":6424,"figur":6425,"ĠTeilnahme":6426,"Ġlebt":6427,"ĠSicher":6428,"ĠWÃ¤rme":6429,"lament":6430,"Ġwesentlich":6431,"Ġeinzelne":6432,"59":6433,"Ġunge":6434,"oben":6435,"Ġglauben":6436,"plÃ¤tze":6437,"ĠLad":6438,"Ġpraktisch":6439,"stahl":6440,"ĠBlumen":6441,"schlieÃŁen":6442,"ĠFahrer":6443,"Ġlohnt":6444,"ĠHigh":6445,"Ġdienen":6446,"ationalen":6447,"ĠAnfrage":6448,"ĠGute":6449,"rasch":6450,"ĠRob":6451,"dio":6452,"ragend":6453,"ĠPu":6454,"ĠStudium":6455,"werben":6456,"ĠZusch":6457,"Ġengag":6458,"ĠVerz":6459,"mine":6460,"atische":6461,"ram":6462,"Ġerstmal":6463,"ĠMilliarden":6464,"ĠgefÃ¤llt":6465,"ĠAllgem":6466,"ĠErnÃ¤hrung":6467,"altungs":6468,"Ġgarantiert":6469,"kÃ¼ndig":6470,"raining":6471,"Ġfrag":6472,"Ġser":6473,"ĠÃ¼bertragen":6474,"Ġbemer":6475,"ĠKonzert":6476,"ĠLau":6477,"italien":6478,"schaffen":6479,"ĠZeitung":6480,"Ġvorne":6481,"ĠðŁĺ":6482,"ĠHum":6483,"64":6484,"ritz":6485,"automaten":6486,"ied":6487,"kat":6488,"ena":6489,"ĠAtt":6490,"Ġgrau":6491,"ĠRechnung":6492,"Ġhingegen":6493,"egt":6494,"vid":6495,"que":6496,"alismus":6497,"jenigen":6498,"ivil":6499,"gesp":6500,"Ġbehandelt":6501,"ĠAtmosphÃ¤re":6502,"ĠschÃ¼tzen":6503,"ĠWasch":6504,"ĠShow":6505,"ĠUrteil":6506,"ĠFalle":6507,"ĠwunderschÃ¶n":6508,"ors":6509,"Ġkostet":6510,"fordert":6511,"Ġentlang":6512,"ĠTexte":6513,"laufen":6514,"Ġhergestellt":6515,"kul":6516,"Ġkat":6517,"ĠLern":6518,"Ġleichter":6519,"Ġausreichend":6520,"za":6521,"ĠMinute":6522,"Ġevent":6523,"renz":6524,"Ġtelefon":6525,"bu":6526,"Ġzugleich":6527,"Ġsehe":6528,"atisch":6529,"ĠJur":6530,"Ġverwende":6531,"Fl":6532,"Ġprivaten":6533,"Ġhe":6534,"ommer":6535,"ĠTher":6536,"ĠGestaltung":6537,"Le":6538,"Ã¤ische":6539,"liefer":6540,"Ġzeigte":6541,"Ġherzlich":6542,"ĠAnalyse":6543,"ĠLesen":6544,"ĠChancen":6545,"Ġwirst":6546,"ĠHaben":6547,"ĠgewÃ¤hlt":6548,"ĠErwachsene":6549,"Ġinklusive":6550,"angs":6551,";;;;;;;;":6552,"reitet":6553,"freie":6554,"ĠDreh":6555,"Ġoptim":6556,"krank":6557,"Ġsparen":6558,"versammlung":6559,"ĠNummer":6560,"wÃ¤rts":6561,"Ġeiniges":6562,"ĠFinger":6563,"Ġpassenden":6564,"ĠGal":6565,"rÃ¶":6566,"ĠNein":6567,"ĠGlauben":6568,"eichern":6569,"ĠerfÃ¼llt":6570,"sÃ¤":6571,"ĠZubehÃ¶r":6572,"splan":6573,"Ġweiterer":6574,"ĠWorte":6575,"ita":6576,"ada":6577,"Ġinteressante":6578,"Her":6579,"ress":6580,"ĠErkrank":6581,"ĠDÃ¼sseldorf":6582,"wen":6583,"ĠAdresse":6584,"ĠInternetseite":6585,"aber":6586,"dre":6587,"ĠKop":6588,"72":6589,"ĠPay":6590,"nahm":6591,"aufnahme":6592,"ĠPet":6593,"uellen":6594,"ichert":6595,"Ġinvest":6596,"ĠMittag":6597,"Ġunglaub":6598,"ĠStaaten":6599,"digt":6600,"amilien":6601,"ĠApple":6602,"ĠMesse":6603,"ĠAnteil":6604,"ĠChef":6605,"ĠZusÃ¤tz":6606,"val":6607,"artige":6608,"versorgung":6609,"Ġgeist":6610,"Ġgetragen":6611,"-/":6612,"Ġ38":6613,"Ġnennen":6614,"ĠWol":6615,"Ġbekannten":6616,"Ger":6617,"Ġleist":6618,"hÃ¶he":6619,"ĠzÃ¤hlen":6620,"spannung":6621,"ĠSchnell":6622,"Ġla":6623,"ĠInsgesamt":6624,"ĠverfÃ¼gen":6625,"ĠOrts":6626,"eider":6627,"Ġschwei":6628,"ktien":6629,"ĠTechnologie":6630,"dessen":6631,"ĠStamm":6632,"gewicht":6633,"entwicklung":6634,"ĠDiskussion":6635,"ĠDrit":6636,"Ġmusst":6637,"aszin":6638,"Ġhinten":6639,"ĠLondon":6640,"ĠMulti":6641,"ĠVielzahl":6642,"ateur":6643,"ĠEnglisch":6644,"Ġfe":6645,"ĠFormen":6646,"ep":6647,"ĠerfÃ¼llen":6648,"Ġeiniger":6649,"Ġbesitzt":6650,"Ã¤ufe":6651,"steigen":6652,"Ġbeeinfl":6653,"ĠKommentare":6654,"Ġhart":6655,"tim":6656,"antie":6657,"Ġindividuelle":6658,"itiv":6659,"ĠLieferung":6660,"iga":6661,"ĠDV":6662,"ĠAktivitÃ¤ten":6663,"ĠMuseum":6664,"sw":6665,"ĠDeb":6666,"Ġ400":6667,"igem":6668,"annen":6669,"Ġmobil":6670,"isst":6671,"ĠZeitraum":6672,"Ġkonzentr":6673,"sletter":6674,"duzieren":6675,"este":6676,"ĠKontrolle":6677,"wenden":6678,"Ġweiss":6679,"ĠDienstleistungen":6680,"ÃĦ":6681,"Ġnatur":6682,"Ġrot":6683,"ĠSekunden":6684,"OT":6685,"Ġren":6686,"ĠMand":6687,"agd":6688,"ĠBetroffen":6689,"filter":6690,"Ġgeil":6691,"ĠMode":6692,"74":6693,"spartner":6694,"Ex":6695,"zÃ¼ge":6696,"ĠverstÃ¤r":6697,"ĠKunststoff":6698,"istenz":6699,"va":6700,"Ã¶rte":6701,"riterien":6702,"ĠAf":6703,"ĠWerte":6704,"heber":6705,"Ġsogenannten":6706,"Ġei":6707,"edia":6708,"ĠSachsen":6709,"ĠDeck":6710,"Ġstarke":6711,"Ġbilder":6712,"ĠVerwaltungs":6713,"ĠselbstverstÃ¤ndlich":6714,"ĠWird":6715,"Ġextra":6716,"Um":6717,"Ġumfasst":6718,"ĠUmsatz":6719,"ano":6720,"Ġgemeinsamen":6721,"ĠSeni":6722,"ĠInstall":6723,"71":6724,"berech":6725,"ĠRadio":6726,"ĠSehen":6727,"ĠWorkshop":6728,"Ġengl":6729,"schulen":6730,"iller":6731,"ĠVerg":6732,"ĠKabel":6733,"ĠMini":6734,"ĠHÃ¤nde":6735,"vangel":6736,"ĠFran":6737,"ĠOff":6738,"Ġnutz":6739,"denburg":6740,"reff":6741,".Â«":6742,"ĠAufnahme":6743,"teln":6744,"Ġtechnischen":6745,"ĠJohn":6746,"indungen":6747,"ĠBrot":6748,"ĀĀĀĀĀĀĀĀ":6749,"nt":6750,"ĠFur":6751,"73":6752,"bedarf":6753,"ĠOrdnung":6754,"mut":6755,"stes":6756,"ĠAuge":6757,"ĠObwohl":6758,"geschÃ¤ft":6759,"ĠMos":6760,"ĠnÃ¶tig":6761,"Ġeure":6762,"osexuell":6763,"ini":6764,"ĠBlau":6765,"lÃ¤nder":6766,"Ã¼nen":6767,"Ġkinder":6768,"ĠBlock":6769,"Ġkg":6770,"56":6771,"Ġ<":6772,"zellen":6773,"rÃ¤umen":6774,"Ġbetroffenen":6775,"ĠFreunden":6776,"Ġstarken":6777,"ĠverÃ¤ndert":6778,"Ġsinnvoll":6779,"person":6780,"Ã¶rung":6781,"Ġfrisch":6782,"ĠPrakti":6783,"Ġverkauft":6784,"ĠAndreas":6785,"Ã¤tter":6786,"ĠÃ¶sterreich":6787,"Ġvieles":6788,"ĠprÃ¼":6789,"ĠFitness":6790,"Ġbill":6791,"ziehungen":6792,"ĠNews":6793,"Ser":6794,"otion":6795,"Ġangezeigt":6796,"Ġmache":6797,"Ġausger":6798,"spekt":6799,"ĠSchwanger":6800,"gÃ¤nger":6801,"scheidet":6802,"Ġbo":6803,"ĠEss":6804,"!âĢľ":6805,"Ġregistr":6806,"spez":6807,"ĠÃľberblick":6808,"Ġsitzen":6809,"forschung":6810,"ĠFle":6811,"Ġzerst":6812,"amb":6813,"ĠSpiegel":6814,"Ġweiteres":6815,"ikations":6816,"ĠHart":6817,"ĠPul":6818,"lager":6819,"oge":6820,"hÃ¤nger":6821,"ĠZusatz":6822,"ĠTeams":6823,"ĠSound":6824,"Ã¤use":6825,"ĠEinfÃ¼hrung":6826,"Ġergeben":6827,"ĠGang":6828,"ola":6829,"ĠJugendliche":6830,"Ġfreien":6831,"schten":6832,"wertet":6833,"ĠEngagement":6834,"ordin":6835,"ĠÃ¤r":6836,"Ġ:)":6837,"ĠHabe":6838,"hnung":6839,"ĠkÃ¶nne":6840,"Ġeindeu":6841,"IM":6842,"ĠGegensatz":6843,"ĠDenk":6844,"ĠPKW":6845,"aker":6846,"kle":6847,"Ġmark":6848,"ĠFÃ¶rderung":6849,"aute":6850,"teilen":6851,"ĠSexy":6852,"Ġbehaup":6853,"ĠMethoden":6854,"euert":6855,"ĠSollte":6856,"sprechend":6857,"ĠVerf":6858,"ĠSV":6859,"Ġkontroll":6860,"________":6861,"Ġeleg":6862,"ĠWell":6863,"ĠBruder":6864,"Ġhaupt":6865,"kÃ¼n":6866,"ĠBauch":6867,"Ð½":6868,"temberg":6869,"ĠKooperation":6870,"Wie":6871,"ĠWes":6872,"ĠStefan":6873,"Ġbessere":6874,"ĠBÃ¼rgermeister":6875,"Ġgetr":6876,"Ġ2019":6877,"CD":6878,"Ã¼ter":6879,"ĠPrinzip":6880,"ĠStrecke":6881,"rinken":6882,"ĠKlaus":6883,"umente":6884,"anischen":6885,"ĠCre":6886,"ĠAg":6887,"Ġschnelle":6888,"usstsein":6889,"gebracht":6890,"Ġvermeiden":6891,"Ġerfolgen":6892,"stÃ¤ndnis":6893,"way":6894,"alisieren":6895,"Ġideal":6896,"Ã¼ltig":6897,"ĠHu":6898,"ĠSyn":6899,"ĠJahrzehn":6900,"Ġgefragt":6901,"AB":6902,"itis":6903,"ĠBenutzer":6904,"ĠAntworten":6905,"ĠGrie":6906,"Ġteilen":6907,"liegt":6908,"Ġwiederum":6909,"Ã¤dt":6910,"Ġgeplant":6911,"ruhe":6912,"ĠUnion":6913,"Ġanbieten":6914,"ĠKenn":6915,"undert":6916,"euern":6917,"ĠSwinger":6918,"euchtung":6919,"Ġvorgestellt":6920,"ĠgegrÃ¼ndet":6921,"Ge":6922,"igner":6923,"zieht":6924,"Ġzweit":6925,"ĠHighlight":6926,"star":6927,"ĠRichter":6928,"macht":6929,"helm":6930,"ĠBÃ¼hne":6931,"Ġseiten":6932,"ĠAusdruck":6933,"azin":6934,"ĠHomepage":6935,"Ġeur":6936,"Ġniedr":6937,"Ġladen":6938,"ĠKlo":6939,"oler":6940,"innern":6941,"angebote":6942,"Ġ2004":6943,"okus":6944,"ĠiPh":6945,"ĠAlten":6946,"agten":6947,"ĠAnlagen":6948,"Ġschul":6949,"ĠKrankheit":6950,"spruchs":6951,"Ġeigenes":6952,"alog":6953,"ĠprÃ¤sentieren":6954,"Ġdachte":6955,"farben":6956,"Ġklassischen":6957,"ĠDresden":6958,"ĠGru":6959,"Ã¼hle":6960,"ĠJungen":6961,"ĠSau":6962,"bis":6963,"Ġwelchem":6964,"aster":6965,"erklÃ¤rung":6966,"Bei":6967,"ĠTick":6968,"ĠEuropÃ¤ischen":6969,"Ġehemaligen":6970,"izieren":6971,"ĠStock":6972,"Ġkomplex":6973,"Ġmeines":6974,"ĠJust":6975,"alerweise":6976,"Ġliefern":6977,"ĠDigit":6978,"Ġdunk":6979,"Ġausges":6980,"gefÃ¼hl":6981,"Ġiden":6982,"ĠHandels":6983,"ĠSei":6984,"Ã¶rungen":6985,"96":6986,"seits":6987,"Ġwenden":6988,"liesen":6989,"ĠKlar":6990,"reuen":6991,"ĠRegeln":6992,"ĠTrainings":6993,"andern":6994,"liegenden":6995,"Ġentfernen":6996,"ĠVerhÃ¤ltnis":6997,"weiÃŁ":6998,"ĠKonto":6999,"ĠMut":7000,"2015":7001,"ĠGrundstÃ¼ck":7002,"!)":7003,"ĠTitten":7004,"weisung":7005,"wege":7006,"veranst":7007,"umin":7008,"Ã¼re":7009,"ĠHan":7010,"rÃ¼st":7011,"auschen":7012,"ĠMotto":7013,"ikanische":7014,"Ġ75":7015,"Ġgetan":7016,"ĠGrÃ¼nde":7017,"Ġbrachte":7018,"Ġ1000":7019,"eise":7020,"ĠVertrauen":7021,"ĠPre":7022,"Ġbislang":7023,"ĠGi":7024,"Ã¶tt":7025,"ĠLandschaft":7026,"Ġinformiert":7027,"ĠlÃ¤ngst":7028,"ĠerhÃ¶ht":7029,"ĠMad":7030,"ĠZut":7031,"suchen":7032,"Ġsogenannte":7033,"ĠAmts":7034,"Ġmusikal":7035,"ĠAbenteuer":7036,"Ã¼rn":7037,"ĠNutzen":7038,"ĠBir":7039,"ilien":7040,"Ġstabil":7041,"ĠSÃ¼":7042,"Ġmann":7043,"ĠAnzeige":7044,"halter":7045,"Ġfalls":7046,"Ġverlie":7047,"agra":7048,"Ã¤cher":7049,"sn":7050,"Ġindividuellen":7051,"Or":7052,"ĠKonkur":7053,"ĠAufgrund":7054,"ĠBunde":7055,"ĠLaden":7056,"ĠReal":7057,"Ġdauert":7058,"ĠTelef":7059,"ĠWÃ¼nsche":7060,"ĠgrÃ¶ÃŁere":7061,"Ã¤hler":7062,"ĠEmpfeh":7063,"LE":7064,"ĠRede":7065,"Ġleiden":7066,"gemeinschaft":7067,"Ġpolitische":7068,"orts":7069,"ĠRezept":7070,"ĠBill":7071,"Ġangenehm":7072,"wirken":7073,"urn":7074,"ĠStiftung":7075,"ĠDirekt":7076,"ĠPrÃ¤sident":7077,"ĠAutos":7078,"ĠDennoch":7079,"ĠLud":7080,"ĠHochzeit":7081,"ĠJournal":7082,"ĠAlternative":7083,"ĠEinrichtung":7084,"ĠÃ¶ffentlich":7085,"ĠauÃŁen":7086,"ĠHyp":7087,"ĠGemÃ¼se":7088,"Ġdest":7089,"ĠMassage":7090,"Ġverwand":7091,"aming":7092,"Ġkrank":7093,"merksamkeit":7094,"essour":7095,"wohnung":7096,"Ġraum":7097,"ziplin":7098,"Ġhalb":7099,"ĠAbsatz":7100,"ĠParis":7101,"Ġfahr":7102,"ĠNet":7103,"ĠBahnhof":7104,"ĠÃ¶ffnen":7105,"ikationen":7106,"ĠPoly":7107,"zeichnis":7108,"ĠGolf":7109,"Ġstaat":7110,"gels":7111,"ÑĢ":7112,"ĠThr":7113,"rastruktur":7114,"anc":7115,"una":7116,"Ġtreten":7117,"Ġneun":7118,"olt":7119,"ags":7120,"ĠArme":7121,"ĠJose":7122,"Ġgetroffen":7123,"het":7124,"iertes":7125,"soft":7126,"ĠKarr":7127,"ĠWare":7128,"Ġarbeite":7129,"PS":7130,"fot":7131,"Ġrest":7132,"politik":7133,"hler":7134,"Â¤":7135,"Ġtrain":7136,"Ent":7137,"ĠOpen":7138,"Â«,":7139,"ĠBu":7140,"ĠPerspe":7141,"ĠSE":7142,"ĠSat":7143,"ĠAndroid":7144,"ĠEi":7145,"beln":7146,"zern":7147,"iale":7148,"teten":7149,"Spiel":7150,"ĠStudenten":7151,"arbeits":7152,"luss":7153,"Ġgesetzlichen":7154,"Ġausgel":7155,"ĠAlbum":7156,"ĠMatt":7157,"Ġcool":7158,"anische":7159,"ĠPlattform":7160,"ĠCDU":7161,"Ġeins":7162,"ĠMindest":7163,"metho":7164,"Ġitalien":7165,"ĠmÃ¼sste":7166,"Ġelektr":7167,"ĠGutschein":7168,"App":7169,"fÃ¼llt":7170,"hÃ¶ren":7171,"iente":7172,"ĠGerman":7173,"hnt":7174,"ĠZun":7175,"Ġwechseln":7176,"atch":7177,"...]":7178,"ĠVersicherungs":7179,"zusetzen":7180,"ĠÃ¼berzeugen":7181,"ĠTipp":7182,"ĠEinrichtungen":7183,"89":7184,"ĠKompl":7185,"ĠGratis":7186,"ĠStad":7187,"Ġentdeckt":7188,"ĠSeele":7189,"imen":7190,"indust":7191,"ĠmÃ¶glichen":7192,"ppich":7193,"ĠRand":7194,"Ġverlieren":7195,"Ġkompeten":7196,"elen":7197,"beck":7198,"ĠAbm":7199,"samen":7200,"ĠBadezimmer":7201,"Ġwillst":7202,"farbe":7203,"ubil":7204,"ĠAnf":7205,"ĠmÃ¤dchen":7206,"ĠMÃ¼ller":7207,"nicht":7208,"ĠNachmittag":7209,"ĠAustausch":7210,"Ã¼mer":7211,"Ġnahezu":7212,"ĠEcht":7213,"ĠVersuch":7214,"Ġlive":7215,"ĠQuelle":7216,"ĠÃĦrzte":7217,"reck":7218,"arn":7219,"ĠMedia":7220,"ĠKonfl":7221,"Ġwasser":7222,"Ġjedenfalls":7223,"ĠMac":7224,"Ñģ":7225,"schlossen":7226,"bliothek":7227,"tis":7228,"Ġsofern":7229,"ĠberÃ¼hm":7230,"ĠKategorien":7231,"okratie":7232,"ymbol":7233,"Ġpo":7234,"elles":7235,"ationale":7236,"Ġschwierig":7237,"Ġentsp":7238,"las":7239,"ĠHalle":7240,"leistet":7241,"ĠSchreiben":7242,"ĠGeneral":7243,"ĠBeide":7244,"iguren":7245,"musik":7246,"ĠFick":7247,"ĠKÃ¶r":7248,"Ġfreue":7249,"EU":7250,"zepti":7251,"zufÃ¼hren":7252,"kleidung":7253,"Ġweb":7254,"IV":7255,"Ġwest":7256,"Ġvorge":7257,"Ã¼lle":7258,"verk":7259,"arbeitern":7260,"ĠSomit":7261,"ĠTÃ¼rk":7262,"ĠBra":7263,"lieÃŁt":7264,"Ġ120":7265,"ĠBedien":7266,"Ġsh":7267,"Ġverab":7268,"ĠÃĦnderungen":7269,"ĠStÃ¤dte":7270,"Ġbezahlen":7271,"Ġtechnische":7272,"sichts":7273,"ĠBauern":7274,"ĠJahrhunderts":7275,"Ġwarm":7276,"gier":7277,"ona":7278,"ĠNewsletter":7279,"ric":7280,"asi":7281,"ĠAcht":7282,"wiegend":7283,"Ġvermutlich":7284,"paratur":7285,"Ġeigent":7286,"ĠArsch":7287,"ĠST":7288,"kund":7289,"same":7290,"Ġbewegen":7291,"ĠVoraussetzungen":7292,"Ġerinnert":7293,"ĠBremen":7294,"Ġabend":7295,"ĠRosen":7296,"ĠAktien":7297,"ĠVerwaltung":7298,"aller":7299,"gewiesen":7300,"ĠPfarr":7301,"ĠVerband":7302,"ĠSho":7303,"ĠMio":7304,"UNG":7305,"ards":7306,"ilde":7307,"Ġgemeinsame":7308,"Ġirgendwann":7309,"top":7310,"Ã¤rm":7311,"ĠVertreter":7312,"hte":7313,"Ġgegangen":7314,"ĠregelmÃ¤ÃŁ":7315,"ĠUmfang":7316,"Ġles":7317,"ĠEhren":7318,"Ġgestaltet":7319,"ffizienz":7320,"Ġ34":7321,"rechnung":7322,"ĠBord":7323,"ĠGenau":7324,"maÃŁnahmen":7325,"ĠBM":7326,"isen":7327,"Techn":7328,"bÃ¼rger":7329,"Ġgeschaffen":7330,"Ġeignet":7331,"ĠZoll":7332,"ĠHeiz":7333,"ĠgeschÃ¼tzt":7334,"orten":7335,"ĠrÃ¼ck":7336,"Ġco":7337,"stuhl":7338,"ĠEgal":7339,"isieren":7340,"Ġgeeig":7341,"ĠstÃ¤rker":7342,");":7343,"Ġinspir":7344,"ĠVermÃ¶gen":7345,"legten":7346,"Ġlegt":7347,"ĠJugendlichen":7348,"gesprÃ¤":7349,"ĠBalkon":7350,"ĠTim":7351,"Ġgehe":7352,"RA":7353,"ĠBedÃ¼rfnisse":7354,"63":7355,"struktion":7356,"Ġ55":7357,"beweg":7358,"ĠMaria":7359,"Ã¤hlten":7360,"Ġ48":7361,"ĠRefer":7362,"ĠBildern":7363,"ĠungefÃ¤hr":7364,"ĠglÃ¼cklich":7365,"ĠbestÃ¤tigt":7366,"ĠKla":7367,"ĠhÃ¤ngt":7368,"ĠProfess":7369,"ĠSchmerzen":7370,"ĠBerat":7371,"Ġ33":7372,"ĠBig":7373,"ĠSortiment":7374,"ĠGhostwriter":7375,"Ġspezielle":7376,"loud":7377,"Ġverste":7378,"fÃ¼llung":7379,"Ġ2003":7380,"pal":7381,"ĠÃ¶ffentliche":7382,"Produ":7383,"bindung":7384,"Ġmeistens":7385,"sdorf":7386,"ĠBÃ¶":7387,"ĠLat":7388,"ĠZusÃ¤tzlich":7389,"drucken":7390,"Ġsetzte":7391,"rhein":7392,"ĠAutoren":7393,"Ġkorre":7394,"Ġglob":7395,"ĠJungs":7396,"Ġallgemeinen":7397,"ĠWagen":7398,"ĠTrink":7399,"gerichts":7400,"Ġerlebt":7401,"ĠZÃ¼rich":7402,"kopf":7403,"armon":7404,"ĠKapital":7405,"61":7406,"Ġbenutzt":7407,"ĠGeschÃ¤ftsfÃ¼hrer":7408,"Ġgebaut":7409,"vermittlung":7410,"ĠAspe":7411,"fahrung":7412,"ĠSchnee":7413,"Ġerinnern":7414,"unken":7415,"ĠlÃ¶":7416,"ĠUser":7417,"SP":7418,"ĠWahrheit":7419,"ĠausdrÃ¼cklich":7420,"Ġmanche":7421,"acke":7422,"ĠGrill":7423,"ĠiPhone":7424,"ĠHinweise":7425,"pass":7426,"ĠmaÃŁ":7427,"Ġanerk":7428,"ĠAnkauf":7429,"ĠEich":7430,"ĠKrankenhaus":7431,"anze":7432,"lines":7433,"ĠPflicht":7434,"62":7435,"2014":7436,"Ġangemessen":7437,"cc":7438,"Ġinternationale":7439,"tr":7440,"ĠLernen":7441,"ĠYork":7442,"ĠHon":7443,"Ġoffenbar":7444,"ĠAufmerksamkeit":7445,"ĠRett":7446,"Ã¼tter":7447,"ainer":7448,"ĠÂ°":7449,"reit":7450,"Ġrum":7451,"ĠNah":7452,"Ġauspro":7453,"Ġprivat":7454,"mach":7455,"ĠZuschauer":7456,"Ġbegleitet":7457,"ĠBelast":7458,"Ġschafft":7459,"Ġ2002":7460,"ĠLieblings":7461,"ody":7462,"ĠWerke":7463,"ĠSpitze":7464,"ĠParkplatz":7465,"Ã¼llen":7466,"ata":7467,"ĠStress":7468,"raÃŁe":7469,"Ġauseinander":7470,"ĠlÃ¶sen":7471,"ĠunabhÃ¤ngig":7472,"ĠSki":7473,"ĠCH":7474,"ĠRenn":7475,"Ġkurzer":7476,"ads":7477,"Ã¤testens":7478,"reiter":7479,"Ġbetroffene":7480,"Ġra":7481,"Gesch":7482,"ĠCro":7483,"mst":7484,"ĠArg":7485,"ikon":7486,"Ġprofitieren":7487,"ĠRestaurants":7488,"ĠUSB":7489,"verwaltung":7490,"rahmen":7491,"ĠBeschreibung":7492,"Ġruhig":7493,"ĠWaffen":7494,"Ġerhielt":7495,"ĠSend":7496,"schauen":7497,"ĠerklÃ¤rte":7498,"Ġzog":7499,"EM":7500,"ĠHoll":7501,"ĠCan":7502,"zwe":7503,"Ġideen":7504,"ĠLeitung":7505,"prÃ¼fung":7506,"fordern":7507,"Ġletzter":7508,"ĠdÃ¼n":7509,"ĠOne":7510,"ĠSchwier":7511,"Ġhoher":7512,"Ġgezogen":7513,"funk":7514,"ĠMas":7515,"ĠVerÃ¶ffentlich":7516,"struktur":7517,"Ġholen":7518,"ĠKomfort":7519,"Ġsolltest":7520,"ĠGeneration":7521,"uliert":7522,"ĠBanken":7523,"ĠRollen":7524,"dam":7525,"Serv":7526,"ĠGefÃ¼":7527,"ĠBlu":7528,"ged":7529,"ĠBit":7530,"ĠLaufe":7531,"51":7532,"otten":7533,"Ġteuer":7534,"ĠSÃ¤":7535,"ĠPR":7536,"industrie":7537,"ĠÃ¼bernommen":7538,"500":7539,"ĠÃľbersicht":7540,"Ġwunderbar":7541,"ĠDaniel":7542,"ĠSum":7543,"ĠÃ¼berraschen":7544,"ĠZwecke":7545,"barung":7546,"ologien":7547,"RW":7548,"Ġplatz":7549,"bil":7550,"ye":7551,"wirt":7552,"Ġfair":7553,"52":7554,"brechen":7555,"ĠMedikamen":7556,"ĠNerv":7557,"TS":7558,",-":7559,"alit":7560,"ĠWeihnachten":7561,"ĠheiÃŁen":7562,"Ġanti":7563,"ĠLim":7564,"Ġsk":7565,"ĠFlor":7566,"Ġaussehen":7567,"Shop":7568,"ĠBre":7569,"ĠSchwerpunkt":7570,"agentur":7571,"Ġbehandeln":7572,"Ġerleich":7573,"Ġsoziale":7574,"ĠHoffnung":7575,"gebnisse":7576,"Ġmonat":7577,"ical":7578,"ĠSocial":7579,"ĠStreit":7580,"heil":7581,"ĠCal":7582,"ĠAblauf":7583,"lichem":7584,"ĠÃ¤uÃŁerst":7585,"grÃ¶ÃŁe":7586,"ĠMonats":7587,"ĠFront":7588,"prÃ¤gt":7589,"achter":7590,"Â»,":7591,"Ġvideo":7592,"2013":7593,"loser":7594,"ĠRoh":7595,"FÃ¼r":7596,"ĠFu":7597,"Ã¼te":7598,"Ġfu":7599,"rainer":7600,"station":7601,"Ġhistorischen":7602,"sidenten":7603,"53":7604,"Ġeinfachen":7605,"ĠGrau":7606,"inu":7607,"ĠSchÃ¤den":7608,"kk":7609,"Ġ250":7610,"ĠErotische":7611,"modell":7612,"ĠerÃ¶ffnet":7613,"tl":7614,"male":7615,"ĠVerÃ¤nderungen":7616,"Ã¼rk":7617,"loÃŁ":7618,"Ġmar":7619,"sfÃ¤h":7620,"sert":7621,"bef":7622,"ĠDekor":7623,"Ġschrieb":7624,"))":7625,"54":7626,"ris":7627,"ĠKab":7628,"ĠJesus":7629,"sieht":7630,"fÃ¤llig":7631,"ĠVortrag":7632,"ĠVerstÃ¤ndnis":7633,"ĠStimmung":7634,"ĠAusgang":7635,"ĠCol":7636,"rang":7637,"leisten":7638,"Ġthis":7639,"ĠCasinos":7640,"ĠPen":7641,"Ġunbek":7642,"rages":7643,"Ġheil":7644,"Ġeinfacher":7645,"ĠauÃŁergewÃ¶hn":7646,"ĠAlkohol":7647,"ĠVielen":7648,"ĠQuad":7649,"ring":7650,"ausend":7651,"Ġallgemein":7652,"artikel":7653,"sprecher":7654,"ĠHafen":7655,"spor":7656,"ĠNachricht":7657,"ĠTatsache":7658,"Ġdahin":7659,"ĠKÃ¤":7660,"Ġbeit":7661,"tÃ¤":7662,"Ġerschienen":7663,"ous":7664,"ĠUnterkunft":7665,"ĠhÃ¤uf":7666,"ĠMethode":7667,"ĠGemeinschaft":7668,"haltet":7669,"druckt":7670,"Ġerhoben":7671,"Ġqualif":7672,"worben":7673,"spart":7674,"Ġoffenen":7675,"ĠHaft":7676,"Ġinternational":7677,"Ġzug":7678,"Ġreife":7679,"ĠWolfgang":7680,"kirchen":7681,"ĠNorden":7682,"ĠSchuld":7683,"Ġgehabt":7684,"Ġsexy":7685,"licherweise":7686,"Ð¾Ð":7687,"ĠgewÃ¶hn":7688,"stern":7689,"stechnik":7690,"auben":7691,"ĠZugriff":7692,"ĠDial":7693,"ĠHab":7694,"eth":7695,"Ġechte":7696,"gst":7697,"ĠkrÃ¤f":7698,"holung":7699,"ĠBein":7700,"Ġaltern":7701,"Ġbekam":7702,"Ġtesten":7703,"Ġyou":7704,"Ġgepf":7705,"ĠVariante":7706,"wirkung":7707,"pper":7708,"ĠKÃ¼r":7709,"Ġgelang":7710,"ĠFÃ¤higkeiten":7711,"Ġtritt":7712,"ĠerhÃ¶hen":7713,"Ġmotiv":7714,"inderung":7715,"werks":7716,"ĠPubl":7717,"zten":7718,"Ġtrau":7719,"ĠfÃ¶rdern":7720,"Ġ39":7721,"azier":7722,"ĠfÃ¼hlt":7723,"ĠAutom":7724,"Ġkennenlernen":7725,"ymnas":7726,"Ġansehen":7727,"zÃ¼g":7728,"ĠGrundlagen":7729,"dis":7730,"ĠVari":7731,"platten":7732,"ĠTeilen":7733,"Ġverbringen":7734,"ĠAusnahme":7735,"ĠUnternehmer":7736,"ĠschÃ¶ner":7737,"ĠKos":7738,"ĠYou":7739,"ĠIN":7740,"ĠBetreuung":7741,"ĠArbeitnehmer":7742,"essourcen":7743,"Ġgeschafft":7744,"ĠDipl":7745,"ÃŃ":7746,"Ġweib":7747,"Ġkap":7748,"Ġbildet":7749,"Ġklicken":7750,"Ã¶ffnung":7751,"gf":7752,"Ġhielt":7753,"Ġdeswegen":7754,"Ġintensiv":7755,"denk":7756,"hlung":7757,"ove":7758,"Ã¼hrt":7759,"ĠKino":7760,"Ġwusste":7761,"ĠLudwig":7762,"ii":7763,"best":7764,"Ġreden":7765,"Ġwillkommen":7766,"ya":7767,"Ã¤usern":7768,"ĠÃ¼bersch":7769,"57":7770,"ĠFokus":7771,"eldet":7772,"ĠBrun":7773,"Ġgelegt":7774,"lebt":7775,"ĠIntegration":7776,"Ġbegonnen":7777,"siehe":7778,"ĠSeminar":7779,"ĠPower":7780,"Ãľber":7781,"ĠLeg":7782,"pret":7783,"ĠsÃ¤mtliche":7784,"igi":7785,"tragung":7786,"ĠAuswirkungen":7787,"ĠNÃ¤ch":7788,"Ġpoten":7789,"ĠDarstellung":7790,"Ġnormal":7791,"ĠfÃ¼rs":7792,"ĠBund":7793,"ĠSchwe":7794,"Ġtra":7795,"ĠFÃ¼hrungs":7796,"Ġaufmerksam":7797,"Ġvorgesehen":7798,"ĠAutob":7799,"ĠHerstellung":7800,"Ġanhand":7801,"ĠWebseiten":7802,"Ġsichtbar":7803,"hotel":7804,"ĠObst":7805,"athem":7806,"ave":7807,"!\"":7808,"frauen":7809,"ĠVielfalt":7810,"Ġbesitzen":7811,"Ġstanden":7812,"fÃ¤llt":7813,"ĠCap":7814,"Ġfiel":7815,"West":7816,"annter":7817,"rÃ¤ch":7818,"ziel":7819,"ĠCity":7820,"ĠPrÃ¤sent":7821,"ĠVerlauf":7822,"sprozess":7823,"ĠFahrzeuge":7824,"ulin":7825,"ĠRing":7826,"herr":7827,"ĠEinblick":7828,"Ġbrit":7829,"ĠYog":7830,"Ġgingen":7831,"ĠArchitektur":7832,"ĠBrenn":7833,"aktionen":7834,"Ġakzepti":7835,"ĠHaare":7836,"ĠWachstum":7837,"Ġrechten":7838,"ĠGrÃ¶ÃŁen":7839,"Ġhell":7840,"Ġha":7841,"Ġdesto":7842,"ĠHobby":7843,"Ġleichte":7844,"ĠBehand":7845,"Unser":7846,"ools":7847,"book":7848,"SU":7849,"ĠGeorg":7850,"ĠSpanien":7851,"Ġrezept":7852,"Ġdro":7853,"Ġli":7854,"ĠSchlieÃŁlich":7855,"Ġster":7856,"ĠBeine":7857,"ĠgeÃ¶ffnet":7858,"Ġjene":7859,"97":7860,"Ġbenutzen":7861,"ĠKaiser":7862,"bart":7863,"ĠBem":7864,"ĠFan":7865,"Ġverbr":7866,"Ġkomfort":7867,"ĠEinkommen":7868,"sÃ¤chlich":7869,"Ġbesucht":7870,"ĠStiefel":7871,"ĠSympt":7872,"ĠSens":7873,"ĠLast":7874,"fÃ¤llen":7875,"urlaub":7876,"ba":7877,"Ġerstes":7878,"opf":7879,"ĠPunkten":7880,"medizin":7881,"ony":7882,"emm":7883,"ĠHen":7884,"ĠNote":7885,"ĠParteien":7886,"rollen":7887,"Ġhervorragen":7888,"ĠStellung":7889,"ĠHistor":7890,"##":7891,"ĠDatei":7892,"Ġschme":7893,"position":7894,"selben":7895,"geschlagen":7896,"erischen":7897,"ĠAllgemein":7898,"ĠBehÃ¶rden":7899,"gert":7900,"ĠDarm":7901,"Land":7902,"Ġausgezeichnet":7903,"âĢĿ,":7904,"Ġverlei":7905,"ffel":7906,"ĠSchmuck":7907,"ĠEbene":7908,"artet":7909,"ĠerwÃ¤hnt":7910,"standen":7911,"tags":7912,"ademie":7913,"artig":7914,"ĠAB":7915,"ĠZuhause":7916,"gener":7917,"ĠEdelstahl":7918,"tÃ¤u":7919,"Ġgenauer":7920,"door":7921,"Ġna":7922,"anter":7923,"abilitÃ¤t":7924,"ĠBundestag":7925,"ĠHerausforderungen":7926,"antast":7927,"Ã¤sser":7928,"ĠAnn":7929,"rauben":7930,"ĠTief":7931,"Ġstimmt":7932,"ucken":7933,"Ġreal":7934,"Ġgelie":7935,"Ġlecker":7936,"Ġbetrieb":7937,"Ġreichen":7938,"bald":7939,"zwei":7940,"design":7941,"ĠQualif":7942,"wÃ¤hlen":7943,"Reg":7944,"ĠPok":7945,"ĠFicken":7946,"ĠBaumw":7947,"ments":7948,"mas":7949,"Ġ000":7950,"ega":7951,"Ġvollen":7952,"legte":7953,"rÃ¼ck":7954,"schmerzen":7955,"ĠgrÃ¶ÃŁeren":7956,"Ġhoffen":7957,"ĠKapitel":7958,"Ġrunter":7959,"Ġniemals":7960,"Ġteilnehmen":7961,"ĠjÃ¤hrlich":7962,"code":7963,"ĠRobert":7964,"Ġdiesmal":7965,"Ġergibt":7966,"Aut":7967,"Ġbundes":7968,"Ġmitten":7969,"ubilÃ¤um":7970,"nei":7971,"ĠKlinik":7972,"ĠLiebes":7973,"icker":7974,"gra":7975,"ĠDS":7976,"Ġholz":7977,"becken":7978,"ĠSub":7979,"fÃ¼hrten":7980,"Bild":7981,"Ġ2001":7982,"arben":7983,"aner":7984,"ĠVorbereitung":7985,"leiben":7986,"zeption":7987,"ĠKÃ¤ufer":7988,"ĠMak":7989,"sorge":7990,"ĠSchatten":7991,"Ġspeziellen":7992,"ĠGeile":7993,"weist":7994,"ĠAR":7995,"ĠWiderruf":7996,"enzt":7997,"Ġ42":7998,"ĠschÃ¶nsten":7999,"ĠWirklich":8000,"Ġeingeladen":8001,"\"-":8002,"Ġmelden":8003,"Ġhierbei":8004,"ĠSzene":8005,"ĠverÃ¤ndern":8006,"Ġgebraucht":8007,"ĠHÃ¶hen":8008,"ĠErweiter":8009,"Ġgerecht":8010,".).":8011,"ĠTerrasse":8012,"ids":8013,"Ġfarb":8014,"Ġspiele":8015,"ĠGrafik":8016,"Ã¶lf":8017,"DS":8018,"ĠAnaly":8019,"Che":8020,"Ġstren":8021,"etzungen":8022,"ĠFertig":8023,"ĠAnleitung":8024,"Ġjeg":8025,"Ġfaszin":8026,"Ġstattfinden":8027,"Ġspezial":8028,"ĠNÃ¼rn":8029,"rats":8030,"ki":8031,"ĠAusstattung":8032,"Ġ06":8033,"ĠAmb":8034,"Ġliefert":8035,"ĠIndividu":8036,"Unter":8037,"Ã¤tigung":8038,"ĠVerbesserung":8039,"ĠRem":8040,"klass":8041,"ĠSollten":8042,"ĠerlÃ¤u":8043,"keln":8044,"ĠFrÃ¼hl":8045,"ĠHerausforderung":8046,"ĠBatter":8047,"ĠCoach":8048,"stÃ¼cke":8049,"Ġnett":8050,"sung":8051,"ĠKeller":8052,"Ġrad":8053,"Ġsystem":8054,"ĠDavid":8055,"Ġhervorragend":8056,"falen":8057,"ĠOhr":8058,"Eine":8059,"Ġerr":8060,"ĠWM":8061,"ĠNiveau":8062,"gefÃ¼":8063,"ahrungs":8064,"ĠAnzeigen":8065,"ĠOberflÃ¤che":8066,"melden":8067,"Ġfreie":8068,"schiede":8069,"Ġkauf":8070,"ĠMitarbeitern":8071,"problem":8072,"azit":8073,"ĠFischer":8074,"ĠZwar":8075,"ĠÃ¼bernimmt":8076,"ĠCam":8077,"ĠAngel":8078,"Ã¤tzung":8079,"Ġproduziert":8080,"osen":8081,"Ġmeint":8082,"ĠWall":8083,"ulieren":8084,"stil":8085,"Ġcon":8086,"lan":8087,"ĠBetreiber":8088,"Ġenorm":8089,"Ġsolcher":8090,"ĠHals":8091,"ton":8092,"ĠRohr":8093,"Ġoptimale":8094,"ĠRum":8095,"ĠDollar":8096,"ĠMilf":8097,"ĠMassen":8098,"Du":8099,"Ġrelev":8100,"Ġ..":8101,"ĠStatt":8102,"mag":8103,"ĠTrotzdem":8104,"ĠLieb":8105,"ĠMuse":8106,"ga":8107,"Ġdurfte":8108,"ĠDurchfÃ¼hrung":8109,"ieur":8110,"JÃ¤hrige":8111,"azz":8112,"ras":8113,"Ã¼tte":8114,"onstr":8115,"ĠmÃ¶glicherweise":8116,"Ġverzichten":8117,"Ġverdient":8118,"Ġbegleiten":8119,"ĠEntwicklungs":8120,"2012":8121,"count":8122,"ĠMicrosoft":8123,"wendungs":8124,"eral":8125,"ĠDR":8126,"ĠAnlass":8127,"ĠGemeinsam":8128,"Ġsichern":8129,"ĠWin":8130,"ĠOptionen":8131,"ĠIsrael":8132,"onym":8133,"Ã¶rderung":8134,"tau":8135,"ĠBekannt":8136,"Ġbestellt":8137,"sc":8138,"gas":8139,"ĠHochschule":8140,"ham":8141,"Ġchrist":8142,"freiheit":8143,"reift":8144,"reibe":8145,"ĠSchwester":8146,"ĠFremd":8147,"ĠRegistr":8148,"ĠNachw":8149,"ĠParlament":8150,"reinigung":8151,"lings":8152,"rinzip":8153,"Ġfreut":8154,"For":8155,"ĠKleidung":8156,"rÃ¤glich":8157,"ĠTom":8158,"ĠAgentur":8159,"ĠKarriere":8160,"Ġ[...]":8161,"Ġfanden":8162,"folger":8163,"yd":8164,"ĠGerne":8165,"hebung":8166,"ĠPress":8167,"Ġabwechs":8168,"gerechnet":8169,"Ġtop":8170,"ĠJede":8171,"Ã¤ub":8172,"Ġmaximal":8173,"ichteten":8174,"ĠStrategie":8175,"ĠAndere":8176,"achelorarbeit":8177,"Ġvergleichen":8178,"Ã¤rten":8179,"ĠRuf":8180,"Ġlog":8181,"Ġmach":8182,"Ġvollkommen":8183,"ĠBewertungen":8184,"biert":8185,"uminium":8186,"hÃ¤ngig":8187,"ĠUntersuchung":8188,"runde":8189,"Ġwid":8190,"Ġweiterlesen":8191,"ĠschÃ¶nes":8192,"Ġvia":8193,"ĠgeÃ¤ndert":8194,"ĠNav":8195,"ĠÃĦnderung":8196,"ĠErgÃ¤n":8197,"IF":8198,"ĠeinschlieÃŁlich":8199,"ĠMr":8200,"stren":8201,"terne":8202,"lÃ¶sen":8203,"pression":8204,"ĠRennen":8205,"ĠErklÃ¤rung":8206,"Ġverletzt":8207,"Ġdran":8208,"ĠFrÃ¼hjahr":8209,"ĠWesen":8210,"ico":8211,"Ġgespannt":8212,"ec":8213,"ĠfrÃ¼hen":8214,"Des":8215,"ĠBranchen":8216,"Ã¤rt":8217,"ĠBereiche":8218,"Ġsingle":8219,"Ġanzeigen":8220,"ĠReifen":8221,"Ġberlin":8222,"fektion":8223,"Ġdigitalen":8224,"hÃ¶rigen":8225,"ĠAngriff":8226,"Ġstartet":8227,"ĠSenioren":8228,"ĠAlte":8229,"Ġumgesetzt":8230,"ĠFund":8231,"lichten":8232,"deckung":8233,"stoffen":8234,"Ġsenden":8235,"ĠObjekt":8236,"GH":8237,"âĢľ-":8238,"ministerium":8239,"Nr":8240,"Ġvieler":8241,"berater":8242,"ĠBonn":8243,"Ġnormalen":8244,"ĠViertel":8245,"Ã¤fte":8246,"osophie":8247,"Ġkomme":8248,"Ġeigener":8249,"lappt":8250,"ĠMittelpunkt":8251,"ĠBesitz":8252,"ieden":8253,"ee":8254,"Ġverarbeitet":8255,"ĠEintritt":8256,"ĠEntscheidungen":8257,"ĠErwart":8258,"euchtigkeit":8259,"Ã¶hnen":8260,"Ġmehrfach":8261,"Ġkontakt":8262,"Ġfeiern":8263,"Ġthem":8264,"Ġchar":8265,"ĠWirk":8266,"Ġabsolv":8267,"regel":8268,"ĠFehl":8269,"glas":8270,"Ġgarten":8271,"sicherheit":8272,"ĠUmfeld":8273,"afÃ©":8274,"ĠLuxus":8275,"ĠGelÃ¤nde":8276,"hor":8277,"Ġsw":8278,"ĠOft":8279,"ĠFast":8280,"ĠKuchen":8281,"ĠGroÃŁen":8282,"Ġwohnzimmer":8283,"Ã¼nstige":8284,"cam":8285,"ext":8286,"ĠKlim":8287,"ĠKÃ¼ndig":8288,"Â§":8289,"Ġverstanden":8290,"rol":8291,"aj":8292,"Ġweite":8293,"ĠVersch":8294,"inken":8295,"Ġhandeln":8296,"94":8297,"ehren":8298,"izierte":8299,"unterricht":8300,"anner":8301,"ĠspÃ¤t":8302,"ĠElemente":8303,"utsch":8304,"Ġauftreten":8305,"ĠGalerie":8306,"SS":8307,"kehrt":8308,"igte":8309,"Ġsteigt":8310,"ĠTrum":8311,"ĠMÃ¼nster":8312,"werken":8313,"Ġpassieren":8314,"ĠSysteme":8315,"ĠTee":8316,"Ġbehalten":8317,"ĠEbenso":8318,"Ġsitzt":8319,"Ġausgeschlossen":8320,"Ã¼ll":8321,"Ġdeutscher":8322,"bÃ¼cher":8323,"ella":8324,"west":8325,"ĠFlex":8326,"ĠWik":8327,"ĠWen":8328,"ĠmÃ¶gliche":8329,"ĠVal":8330,"beschichtung":8331,"ĠReinigung":8332,"ĠErf":8333,"immern":8334,"ĠReparatur":8335,"wein":8336,"ĠVerkÃ¤ufer":8337,"ĠEck":8338,"ĠSchritte":8339,"Ġschau":8340,"ebel":8341,"ĠLein":8342,"Ġsteuer":8343,"92":8344,"Ġ37":8345,"ĠnatÃ¼rliche":8346,"ĠSchmid":8347,"systeme":8348,"Ġeingerichtet":8349,"stoÃŁ":8350,"ĠAllein":8351,"Ad":8352,"Ġfreiwill":8353,"Ġgep":8354,"rÃ¼stung":8355,"ĠGrenze":8356,"otheke":8357,"werden":8358,"Ġschwarze":8359,"Ġtest":8360,"urst":8361,"Ġ05":8362,"nitz":8363,"ĠÃľberrasch":8364,"Fil":8365,"ĠFass":8366,"uth":8367,"ĠKriterien":8368,"ĠStimmen":8369,"IR":8370,"stÃ¤tte":8371,"aken":8372,"Ã¶rsen":8373,"Ġmoment":8374,"Deut":8375,"ĠSchok":8376,"Ã¤ser":8377,"Ġdritte":8378,"ĠAnruf":8379,"ĠAussicht":8380,"Ġvirt":8381,"ĠVorstellung":8382,"DE":8383,"Ġbeliebt":8384,"handlungen":8385,"Ġsammeln":8386,"Mar":8387,"Ġversteht":8388,"ĠQuellen":8389,"ĠTurnier":8390,"schlagen":8391,"ĠhÃ¶here":8392,"ward":8393,"ĠgeprÃ¼":8394,"ĠAussage":8395,"Ġ65":8396,"pekt":8397,"Ġter":8398,"Ġbestimmen":8399,"heimer":8400,"dach":8401,"Ġstammt":8402,"jahres":8403,"Ġkeines":8404,"oline":8405,"ĠKlang":8406,"ĠAlexander":8407,"Neu":8408,"ĠKreativ":8409,"Pf":8410,"verkauf":8411,"Ġorien":8412,"ĠEntfern":8413,"Ġdunkel":8414,"ĠTasche":8415,"ĠJohannes":8416,"temperatur":8417,"ĠEingang":8418,"abrik":8419,"gÃ¤nglich":8420,"86":8421,"erenz":8422,"Ã³":8423,"ĠKenntnis":8424,"Ġjapan":8425,"ump":8426,"ĠErl":8427,"Ġklingt":8428,"ĠVir":8429,"Ġschlimm":8430,"horn":8431,"Ġkomplette":8432,"Ġkeinerlei":8433,"Ġschlaf":8434,"ĠKleine":8435,"Ġstammen":8436,"ĠRang":8437,"ĠGeschlecht":8438,"decke":8439,"ĠWLAN":8440,"Ġumge":8441,"Ġirgendwo":8442,"ĠGriff":8443,"Ġabgesch":8444,"ĠStudio":8445,"ĠAtem":8446,"rost":8447,"ĠOster":8448,"ĠArchiv":8449,"lub":8450,"ĠAufwand":8451,"Ġberichten":8452,"Ġbetrachtet":8453,"Ġdargestellt":8454,"ĠerzÃ¤hlen":8455,"dige":8456,"Ã¼rgen":8457,"leistungs":8458,"Ġwirk":8459,"Ġbeobachten":8460,"gemÃ¤ÃŁ":8461,"Com":8462,"ĠhÃ¶rt":8463,"ĠfÃ¤hrt":8464,"Ġneuesten":8465,"empl":8466,"bran":8467,"ĠGrenz":8468,"ĠDist":8469,"sites":8470,"hÃ¤ltnisse":8471,"ĠRechn":8472,"Ġgelangen":8473,"kirche":8474,"ĠTwitter":8475,"scheidung":8476,"ĠPause":8477,"ĠDiabet":8478,"ĠSchlei":8479,"produkte":8480,"ĠDigital":8481,"ĠNeues":8482,"Ã¶pfe":8483,"ronen":8484,"Ġversehen":8485,"ĠGumm":8486,"projekt":8487,"Ġbeschlossen":8488,"ĠGemeinden":8489,"ĠBeschwerde":8490,"stehenden":8491,"Ġmaxim":8492,"ĠDVD":8493,"ĠUni":8494,"ĠXxx":8495,"ĠRet":8496,"ramm":8497,"isierte":8498,"Ġ--":8499,"ĠKrie":8500,"Ġbegeg":8501,"Ġdurchschnitt":8502,"?âĢľ":8503,"ĠPrivate":8504,"ĠSÃ¼den":8505,"Ġverbinden":8506,"ĠSchÃ¼lerinnen":8507,"Ġvermitteln":8508,"ĠZauber":8509,"ĠWurz":8510,"nÃ¼":8511,"gendes":8512,"ĠGitar":8513,"ĠhÃ¼b":8514,"Ġdeutschland":8515,"losigkeit":8516,"ĠHÃ¤nden":8517,"ĠNik":8518,"ĠCO":8519,"ĠTemperaturen":8520,"ĠApps":8521,"vider":8522,"rip":8523,"iner":8524,"Ġbraun":8525,"ĠPack":8526,"ĠBraun":8527,"AU":8528,"ĠDritte":8529,"Ġfuer":8530,"kop":8531,"fÃ¼hrungen":8532,"hes":8533,"ĠPaket":8534,"ierer":8535,"ĠSchmerz":8536,"ĠDate":8537,"ĠGerichts":8538,"formance":8539,"iens":8540,"Ġaufgebaut":8541,"ellschaften":8542,"ĠWesten":8543,"Ã¤chs":8544,"ĠMuschi":8545,"ĠMontage":8546,"ĠMÃ¤nnern":8547,"emit":8548,"ĠWiener":8549,"staat":8550,"Ġsl":8551,"haf":8552,"ĠAnw":8553,"ĠPferde":8554,"TM":8555,"vergleich":8556,"ĠZentral":8557,"Ġpositive":8558,"ĠSÃ¤nger":8559,"ration":8560,"freien":8561,"ĠPa":8562,"--------":8563,"Ġhierzu":8564,"auff":8565,"ĠBereit":8566,"Ġplanen":8567,"attet":8568,"ĠErste":8569,"ental":8570,"ĠverÃ¶ffentlich":8571,"Ġunmittelbar":8572,"zens":8573,"ĠHaust":8574,"ders":8575,"ckte":8576,"etaill":8577,"Ġherz":8578,"ĠEier":8579,"ĠRessourcen":8580,"hu":8581,"ĠAv":8582,"ĠDiagno":8583,"kord":8584,"Ġapp":8585,"ĠHÃ¶ch":8586,"enken":8587,"ĠSuchen":8588,"ĠprÃ¼fen":8589,"Ġkenne":8590,"verschluss":8591,"pla":8592,"km":8593,"ĠAbstand":8594,"ĠnatÃ¼rlichen":8595,"Ġnochmals":8596,"stem":8597,"Ġalter":8598,"ĠLok":8599,"Ġbau":8600,"ĠEiner":8601,"ĠKle":8602,"PrÃ¤":8603,"ĠAqu":8604,"ĠschlieÃŁen":8605,"pern":8606,"ĠVerbr":8607,"ĠSupp":8608,"82":8609,"Ġerotische":8610,"ĠtÃ¶":8611,"uel":8612,"mmern":8613,"Ġbuchen":8614,"Ġ(âĢŀ":8615,"Ġ04":8616,"Fr":8617,"ary":8618,"Ġvertrau":8619,"Ġbestens":8620,"Ġbisherigen":8621,"ilber":8622,"Ġnennt":8623,"oter":8624,"ĠKindes":8625,"ĠGeschwindigkeit":8626,"Ġgra":8627,"ĠInternational":8628,"indlich":8629,"pers":8630,"ĠEhr":8631,"Ġbezahlt":8632,"ĠAfr":8633,"ĠMuskel":8634,"kÃ¶":8635,"gemeinde":8636,"ĠZÃ¤":8637,"ĠNackt":8638,"ĠWiderstand":8639,"ĠWellness":8640,"ĠKalender":8641,"ula":8642,"weiten":8643,"Ġhom":8644,"ĠAnwendungen":8645,"onto":8646,"Ġgelernt":8647,"ĠZahlung":8648,"orfer":8649,"Ġsobald":8650,"ĠðŁĻ":8651,"ĠLeidenschaft":8652,"ĠWilhelm":8653,"ilitÃ¤t":8654,"ĠHell":8655,"ĠAL":8656,"heben":8657,"Ġmachten":8658,"93":8659,"Ġfa":8660,"ĠSem":8661,"Ġev":8662,"ĠAnschlieÃŁend":8663,"ĠSchuh":8664,"schech":8665,"Ġ600":8666,"Ġetabl":8667,"Ġschweren":8668,"kÃ¶rper":8669,"ĠWegen":8670,"Ġdiverse":8671,"ĠReihen":8672,"Gen":8673,"ĠBÃ¤":8674,"Ġverdienen":8675,"ãĥ":8676,"oÃŁ":8677,"Ġentspann":8678,"ĠGrÃ¼nen":8679,"ĠTabellen":8680,"ĠIII":8681,"Ġehrlich":8682,"Ġdel":8683,"anisch":8684,"ĠhÃ¶chste":8685,"ĠKost":8686,"kea":8687,"neu":8688,"ĠBeob":8689,"Ġempfohlen":8690,"ĠTelefonn":8691,"ĠLohn":8692,"ava":8693,"ĠSieger":8694,"ĠHot":8695,"ĠlÃ¤dt":8696,"Ġeingestellt":8697,"ĠgrÃ¼":8698,"ĠAdvent":8699,"DP":8700,"Ġproblemlos":8701,"kar":8702,"Ġmeinte":8703,"ĠOtt":8704,"aa":8705,"Ġschicken":8706,"Ġvideos":8707,"87":8708,"eutr":8709,"ĠOptim":8710,"ĠGlob":8711,"ĠErnst":8712,"Ġggf":8713,"ĠBeispiele":8714,"Ġfunktionieren":8715,"recken":8716,"bilden":8717,"atischen":8718,"wid":8719,"zz":8720,"Ġgesund":8721,"ĠAuflage":8722,"astrop":8723,"ĠFluss":8724,"ĠdrauÃŁen":8725,"nd":8726,"stimmen":8727,"ĠSold":8728,"ĠhauptsÃ¤chlich":8729,"tend":8730,"spunkt":8731,"Hand":8732,"ĠVern":8733,"ĠKleider":8734,"Ġmy":8735,"ĠAst":8736,"irr":8737,"ĠKirch":8738,"ĠAsy":8739,"anzler":8740,"Dat":8741,"ĠFormat":8742,"ĠStau":8743,"willigung":8744,"Ġnied":8745,"ĠErinnerung":8746,"Ġangekommen":8747,"ĠRich":8748,"Ġwirksam":8749,"Ġkostenlosen":8750,"ĠStich":8751,"ĠInspir":8752,"ĠInstallation":8753,"ĠPri":8754,"wÃ¤sche":8755,"Ġghostwriter":8756,"ĠhierfÃ¼r":8757,"Ġnutzt":8758,"Ġjur":8759,"ĠBoot":8760,"amera":8761,"ĠzukÃ¼nf":8762,"kÃ¼nfte":8763,"ĠKompetenz":8764,"Ġemotion":8765,"ĠHÃ¤ndler":8766,"reihe":8767,"Ġgearbeitet":8768,"ĠAusbildungs":8769,"ulen":8770,"Ġdigitale":8771,"chenke":8772,"stunden":8773,"ĠEinladung":8774,"aktieren":8775,"kompl":8776,"ley":8777,"ĠEmail":8778,"rÃ¤nken":8779,"work":8780,"paar":8781,"ĠVerlust":8782,"pos":8783,"Ã¼cksichtigt":8784,"ĠPremium":8785,"klar":8786,"pat":8787,"sper":8788,"Ġveranst":8789,"Ġgesundheit":8790,"Ġerweitert":8791,"Ġroman":8792,"Ġoffensichtlich":8793,"ĠGegenteil":8794,"Team":8795,"ĠGewerbe":8796,"bauten":8797,"Ġerfolgreiche":8798,"ĠSteu":8799,"ĠRealitÃ¤t":8800,"Ġlief":8801,"ĠVerpack":8802,"Stand":8803,"amilie":8804,"ĠIng":8805,"ĠPornos":8806,"Ġvergeben":8807,"ĠhÃ¶chsten":8808,"Ġ02":8809,"ĠWart":8810,"glÃ¼ck":8811,"Ġrichtet":8812,"Ġbetreffen":8813,"chester":8814,"ĠKlÃ¤ger":8815,"ĠWorld":8816,"ala":8817,"ĠPartnersuche":8818,"Ġexklus":8819,"bares":8820,"ĠZeug":8821,"Hier":8822,"ĠzusÃ¤tzlichen":8823,"Ġechten":8824,"Ġerm":8825,"ĠIslam":8826,"Ġdamal":8827,"Ã¼rzt":8828,"fur":8829,"ĠVogel":8830,"BN":8831,"flex":8832,"bereiche":8833,"anw":8834,"Ġhinsichtlich":8835,"ĠEigentlich":8836,"leister":8837,"verbrauch":8838,"kunst":8839,"ĠZeich":8840,"entwick":8841,"mass":8842,"allel":8843,"Ġbun":8844,"ĠAdr":8845,"Ġbetrieben":8846,"Ġfern":8847,"ĠBeziehungen":8848,"ampagne":8849,"tikeln":8850,"Bet":8851,"digung":8852,"Ġentstand":8853,"ĠDortmund":8854,"ritzen":8855,"ĠAktionen":8856,"Ġnackt":8857,"Ġdis":8858,"ĠZin":8859,"ĠhÃ¶heren":8860,"ĠInitiative":8861,"Ã¤hrungs":8862,"Ġselben":8863,"ĠSammlung":8864,"Ġhoff":8865,"ĠKÃ¶":8866,"ush":8867,"Ġersetzt":8868,"Ã¨":8869,"polit":8870,"Ġanspruchs":8871,"Ġglaub":8872,"Ġenglisch":8873,"Ġgeg":8874,"ĠMilitÃ¤r":8875,"Ġbeinhaltet":8876,"Ġfreundlich":8877,"ision":8878,"Ġspannend":8879,"ziger":8880,"\":":8881,"otte":8882,"Ġsteckt":8883,"Ġkontakte":8884,"Ġseid":8885,"asste":8886,"ĠSchie":8887,"ĠFilter":8888,"ĠInn":8889,"ĠErz":8890,"ĠAusfÃ¼hrung":8891,"Ġhochwertigen":8892,"gerecht":8893,"ĠKloster":8894,"ĠBewegungs":8895,"ĠAluminium":8896,"ey":8897,"ĠNackte":8898,"Ġleb":8899,"EC":8900,"Ã¤b":8901,"ĠMehrheit":8902,"Ġspielte":8903,"Ã¼hen":8904,"Ã¼nden":8905,"ausende":8906,"core":8907,"Ġchines":8908,"ĠTrÃ¤ger":8909,"Ġentf":8910,"ĠZivil":8911,"ĠMotorrad":8912,"Ġbitten":8913,"ĠAnsprech":8914,"schritt":8915,"ray":8916,"Ġgewisse":8917,"SC":8918,"Ġvi":8919,"Ġchat":8920,"ĠAmateur":8921,"ato":8922,"ĠFutter":8923,"board":8924,"strom":8925,"ĠHauptstadt":8926,"tiere":8927,"ĠKass":8928,"Ġeinzigen":8929,"zugs":8930,"stÃ¤tten":8931,"aft":8932,"Ġ44":8933,"OC":8934,"ĠgenÃ¼gend":8935,"ĠZutaten":8936,"ĠMischung":8937,"ilfen":8938,"ĠMom":8939,"ĠArchite":8940,"ĠFal":8941,"ĠVan":8942,"stab":8943,"weichen":8944,"ĠLeicht":8945,"ĠÃ¼bert":8946,"skon":8947,"ĠEcke":8948,"Ġverp":8949,"Bo":8950,"Ġstil":8951,"mÃ¤n":8952,"ĠMusiker":8953,"Ġgeblieben":8954,"ĠOlymp":8955,"Ġsim":8956,"ĠMach":8957,"ĠLange":8958,"ĠJedes":8959,"oppelt":8960,"ĠDor":8961,"hÃ¶hung":8962,"Ġweshalb":8963,"zel":8964,"analyse":8965,"ĠDenken":8966,"strich":8967,"ĠDDR":8968,"papier":8969,"ĠBesten":8970,"Ġspezif":8971,"ĠEinstellung":8972,"zene":8973,"ĠkÃ¼nftig":8974,"ikat":8975,"usen":8976,"ĠBeratungs":8977,"tor":8978,"ĠmÃ¤nn":8979,"ĠAspekte":8980,"Ġangepasst":8981,"ĠGibt":8982,"ĠPool":8983,"ĠHÃ¤user":8984,"ĠFuss":8985,"htt":8986,"Ġgesprochen":8987,"ĠMittler":8988,"ĠFÃ¤lle":8989,"gebnis":8990,"ĠJer":8991,"Ġvorzu":8992,"ĠRud":8993,"eigern":8994,"ĠCa":8995,"ĠJed":8996,"Ġreduziert":8997,"Ġeindeutig":8998,"Ġdo":8999,"ĠKandid":9000,"ĠSerien":9001,"Ġzunehmend":9002,"eicht":9003,"une":9004,"ĠArbeiter":9005,"ĠWohnungs":9006,"ĠRÃ¤ume":9007,"formular":9008,"Ġordentlich":9009,"fÃ¶r":9010,"hÃ¤nge":9011,"ĠTodes":9012,"ĠNRW":9013,"ĠKarls":9014,"ĠOsten":9015,"ĠDienste":9016,"ĠBestimmungen":9017,"ĠSpenden":9018,"Ã¼hrung":9019,"ĠVorgehen":9020,"mmer":9021,"stÃ¤ndigkeit":9022,"ĠLos":9023,"ĠUpdate":9024,"ĠDatenschutzerklÃ¤rung":9025,"Ġkalt":9026,"fred":9027,"ieht":9028,"ĠVerantwortlichen":9029,"Ġklassische":9030,"Ġangenommen":9031,"werfen":9032,"ĠGegend":9033,"ographie":9034,"ĠMerkel":9035,"Ġunterscheiden":9036,"Ġberechtigt":9037,"geschichten":9038,"ĠStell":9039,"ĠVerteidig":9040,"Ġlinken":9041,"Ġgefahren":9042,"Ġvari":9043,"Ġerfolgreichen":9044,"Ġweich":9045,"ologen":9046,"Ġimmerhin":9047,"ĠUrheber":9048,"ĠtÃ¼rk":9049,"gi":9050,"ĠVersorgung":9051,"Ġbrauch":9052,"ĠspÃ¤testens":9053,"otheken":9054,"83":9055,"ĠDusche":9056,"Ġvermittelt":9057,"Ġbeteiligt":9058,"Form":9059,"ĠCode":9060,"ĠTank":9061,"Ġbetrifft":9062,"Ġeventuell":9063,"ĠGÃ¤sten":9064,"ĠMarkus":9065,"ĠMasse":9066,"Ġorganisiert":9067,"fit":9068,"ĠPlast":9069,"ucher":9070,"Ġpost":9071,"ĠLandwirtschaft":9072,"lÃ¤":9073,"ws":9074,"korb":9075,"WÃ¼rt":9076,"Ġoftmals":9077,"Ġhilfreich":9078,"dar":9079,"ĠfÃ¼hl":9080,"KE":9081,"mens":9082,"ĠDisplay":9083,"ĠPhot":9084,"ĠFlÃ¤chen":9085,"wÃ¼n":9086,"ĠIdent":9087,"bro":9088,"Ġgewissen":9089,"ĠmÃ¶chtest":9090,"ĠInfo":9091,"ĠBranche":9092,"bring":9093,"Ġsub":9094,"ĠDemokratie":9095,"ĠPersÃ¶nlichkeit":9096,"arke":9097,"ĠNeuer":9098,"Sti":9099,"ĠAnsprÃ¼che":9100,"leiÃŁ":9101,"ãĤ":9102,"ney":9103,"ypen":9104,"ĠZuge":9105,"luft":9106,"beginn":9107,"handlung":9108,"ĠSlot":9109,"irol":9110,"leun":9111,"webe":9112,"kum":9113,"ĠAns":9114,"ĠWohnungen":9115,"Ġsolange":9116,"kinder":9117,"bildungen":9118,"ĠSper":9119,"ĠBeweis":9120,"Ġdenk":9121,"Ã¤tzt":9122,"Stud":9123,"anda":9124,"namen":9125,"ĠSpar":9126,"ĠheiÃŁe":9127,"ĠFlÃ¼chtlinge":9128,"Ġdekor":9129,"fÃ¤hig":9130,"Ġohn":9131,"Ġvorbereitet":9132,"ĠHamburger":9133,"ĠDam":9134,"ĠSchÃ¶nheit":9135,"ĠAnsicht":9136,"Ġspannende":9137,"merk":9138,"ĠgÃ¼nstigen":9139,"fahrten":9140,"ĠKond":9141,"winkel":9142,"ĠInfrastruktur":9143,"IA":9144,"rak":9145,"nehmern":9146,"ĠVarianten":9147,"ĠErschein":9148,"Ġ00":9149,"quenz":9150,"Mehr":9151,"ĠHir":9152,"umenten":9153,"lÃ¶":9154,"ĠSob":9155,"Jahr":9156,"ĠGriechen":9157,"ĠSongs":9158,"ĠInstitu":9159,"utton":9160,"senden":9161,"oir":9162,"Ġdauern":9163,"Ġeinsetzen":9164,"ĠGarantie":9165,"WÃ¼rttemberg":9166,"zeits":9167,"Ġverbessert":9168,"Ġeinsch":9169,"ĠabhÃ¤ngig":9170,"Ġgelingt":9171,"ĠerÃ¶ff":9172,"ĠKapit":9173,"Ġleistungs":9174,"Welt":9175,"Ġstimm":9176,"offer":9177,"ĠBestandteil":9178,"Ġveran":9179,"formation":9180,"Ġgo":9181,"schlÃ¼sse":9182,"ĠTarif":9183,"treff":9184,"Ġstruktur":9185,"rac":9186,"ĠWorten":9187,"set":9188,"spezif":9189,"behÃ¶rde":9190,"ĠkÃ¤mpfen":9191,"Ġendg":9192,"Ġfestgestellt":9193,"ĠSchwimm":9194,"SGVO":9195,"91":9196,"ĠGames":9197,"onus":9198,"Ġbeantworten":9199,"ĠHaftung":9200,"sberg":9201,"Ġgesamm":9202,"ĠMc":9203,"ĠEuropas":9204,"insel":9205,"Ġschwarzen":9206,"ĠReserv":9207,"afel":9208,"ĠLassen":9209,"ĠHomosexuell":9210,"schaff":9211,"zeichnete":9212,"Ġhef":9213,"Ġdefinitiv":9214,"ĠGastgeber":9215,"ĠmÃ¼sse":9216,"ĠFried":9217,"Ġmil":9218,"ĠAudio":9219,"ĠLade":9220,"El":9221,"Ho":9222,"felder":9223,"ĠFantas":9224,"ĠGleichzeitig":9225,"UM":9226,"ĠWillen":9227,"ĠAff":9228,"oÃŁen":9229,"feuer":9230,"mitglieder":9231,"ettbewerb":9232,"geschoss":9233,"ĠFlÃ¤che":9234,"swÃ¼rdig":9235,"ĠFigur":9236,"ĠLizenz":9237,"ĠFeder":9238,"ĠwÃ¤r":9239,"wissenschaften":9240,"ĠErwachsenen":9241,"ĠBreite":9242,"odes":9243,"Ġgleicher":9244,"orge":9245,"Ġeig":9246,"igungen":9247,"ĠWellen":9248,"ĠManager":9249,"zone":9250,"ĠgewÃ¤hrleisten":9251,"ĠzwÃ¶lf":9252,"Bahn":9253,"Ġehemalige":9254,"Ġmobile":9255,"now":9256,"Ġwenigstens":9257,"orse":9258,"Ã¶m":9259,"ĠHalt":9260,"Ġstolz":9261,"ĠTÃ¼rkei":9262,"edt":9263,"Ġdenkt":9264,"ĠEinheit":9265,"Ġdringend":9266,"schiff":9267,"Ġbewegt":9268,"ible":9269,"84":9270,"haut":9271,"Ġdiejenigen":9272,"Ġdesign":9273,"ĠBast":9274,"ĠÃ¼berprÃ¼fen":9275,"ĠgelÃ¶":9276,"ituation":9277,"ING":9278,"Ġanschauen":9279,"izierten":9280,"ĠKonkurrenz":9281,"Â¶":9282,"grenzen":9283,"gno":9284,"ĠSolar":9285,"Ġrechnen":9286,"hauses":9287,"ĠbezÃ¼glich":9288,"hofen":9289,"ĠIll":9290,"Ġverteilt":9291,"Ġverschiedener":9292,"ideen":9293,"ĠEdition":9294,"ĠJuden":9295,"produktion":9296,"uld":9297,"Ġverhindert":9298,"ĠProfessor":9299,"ĠTermine":9300,"ĠGrÃ¼ndung":9301,"Ġabsch":9302,"ĠFotograf":9303,"sprogramm":9304,"ĠStÃ¤dten":9305,"log":9306,"ĠKG":9307,"stufe":9308,"rÃ¤nk":9309,"aters":9310,"ĠPolitiker":9311,"ĠKatze":9312,"lÃ¤sslich":9313,"Ġschein":9314,"Ġpart":9315,"ielte":9316,"BA":9317,"aumen":9318,"Ġsiehe":9319,"ĠKontaktanzeigen":9320,"Ġfeier":9321,"Ġnachfol":9322,"ĠkÃ¼nstler":9323,"Ġplus":9324,"Ġanf":9325,"ĠjÃ¼nger":9326,"kaufen":9327,"ausschuss":9328,"ĠGehirn":9329,"Ġ1998":9330,"ci":9331,"Ġfroh":9332,"ĠFinden":9333,"ĠWerkzeug":9334,"ĠZustimmung":9335,"ischof":9336,"kasten":9337,"ĠSn":9338,"Ġideale":9339,"Ġnerv":9340,"raht":9341,"Ġstarte":9342,"leute":9343,"TER":9344,"ĠSich":9345,"Ġtrinken":9346,"ĠGanze":9347,"Ġnotwendigen":9348,"let":9349,"resse":9350,"Ġbar":9351,"anbieter":9352,"Ġbesonderes":9353,"Ġ800":9354,"ĠDatum":9355,"ĠGlÃ¼cks":9356,"fakt":9357,"ĠAsi":9358,"zeichnungen":9359,"Ġunglaublich":9360,"Ġup":9361,"ĠberÃ¼cksichtigt":9362,"ĠEinstieg":9363,"Ã¼cher":9364,"spolitik":9365,"ĠSeb":9366,"ĠBlatt":9367,"blog":9368,"ĠNÃ¼rnberg":9369,"Ġaufnehmen":9370,"Ġgeboten":9371,"Ġwohnen":9372,"112":9373,"spreis":9374,"ĠGefÃ¼hle":9375,"Pal":9376,"Ġtraum":9377,"ĠMaÃŁe":9378,"Ġerotik":9379,"ĠAustr":9380,"Ġleg":9381,"Fahr":9382,"istin":9383,"Ġmiss":9384,"anteil":9385,"ĠSchwarze":9386,"ĠVerÃ¶ffentlichung":9387,"Ġkombiniert":9388,"Ġzuge":9389,"De":9390,"ĠBearbeitung":9391,"Ġunternehmen":9392,"ĠBetracht":9393,"2011":9394,"ĠSexkontakte":9395,"ĠGenuss":9396,"pot":9397,"ouren":9398,"ronik":9399,"Ġsepar":9400,"brit":9401,"testet":9402,"Ġbay":9403,"nacht":9404,"ĠIV":9405,"ĠHessen":9406,"Ġerzielen":9407,"strÃ¤ger":9408,"verhÃ¤ltnis":9409,"Ġ:-)":9410,"ĠðŁĻĤ":9411,"abschluss":9412,"Ġfordert":9413,"ĠBenz":9414,"Ã¤llig":9415,"ĠTun":9416,"ascht":9417,"ĠRegionen":9418,"ĠUmstÃ¤nden":9419,"gyp":9420,"ĠNase":9421,"Ġverwir":9422,"ĠVerpflicht":9423,"aps":9424,"grÃ¶ÃŁ":9425,"ĠEinstellungen":9426,"Ġ1999":9427,"Ġgreifen":9428,"ĠjÃ¼ng":9429,"ĠØ":9430,"ĠFrucht":9431,"ĠReaktion":9432,"ĠOrte":9433,"Ã¤mpfer":9434,"Ġok":9435,"ĠQualitÃ¤ts":9436,"ĠjÃ¼d":9437,"ĠSchulter":9438,"ieder":9439,"ĠVerÃ¶ffentlicht":9440,"ĠCloud":9441,"ĠVoraussetzung":9442,"ĠHauses":9443,"tial":9444,"ĠgeprÃ¤gt":9445,"brÃ¼":9446,"ĠBetrag":9447,"ĠSchwangerschaft":9448,"Ġsowas":9449,"ĠkÃ¼mmern":9450,"ĠSpielautomaten":9451,"cort":9452,".),":9453,"mat":9454,"uropa":9455,"ĠHilfs":9456,"informationen":9457,"ĠErkenntnis":9458,"ĠFernsehen":9459,"lehen":9460,"dex":9461,"ĠHerkunft":9462,"Ġnord":9463,"Ġdanke":9464,"plant":9465,"vorsitzen":9466,"ĠOma":9467,"ĠÃľbrigen":9468,"gy":9469,"Ġanalys":9470,"rone":9471,"ĠBewohner":9472,"ĠZweifel":9473,"Ġoffene":9474,"ĠEngland":9475,"bw":9476,"Ġint":9477,"wohnungen":9478,"ĠMerc":9479,"ĠsorgfÃ¤l":9480,"ĠCamping":9481,"zenten":9482,"Ġsowieso":9483,"dustr":9484,"eistern":9485,"preise":9486,"Ã¶ne":9487,"ĠNachfrage":9488,"erkennung":9489,"eis":9490,"ĠAnsatz":9491,"Ġ03":9492,"ĠweiÃŁen":9493,"Ġinteressieren":9494,"Ġbestehenden":9495,"html":9496,"ĠAusflug":9497,"artigen":9498,"ĠLen":9499,"ologisch":9500,"ĠAngabe":9501,"wood":9502,"konzept":9503,"ĠIrgend":9504,"shop":9505,"ĠTheorie":9506,"ĠEintrag":9507,"Ġbesseren":9508,"ĠBildschirm":9509,"ĠÃ¶k":9510,"ĠOutdoor":9511,"iversitÃ¤t":9512,"lim":9513,"ĠLinien":9514,"ĠÂ©":9515,"Ġras":9516,"Ġnix":9517,"wahr":9518,"stÃ¤d":9519,"grenz":9520,"asten":9521,"inuier":9522,"Ġschlagen":9523,"ĠPolen":9524,"Ġvorgenommen":9525,"the":9526,"ĠCy":9527,"ehin":9528,"ĠgÃ¼nstiger":9529,"steil":9530,"jektiv":9531,"ĠFestival":9532,"andelt":9533,"Ġoper":9534,"cription":9535,"GE":9536,"Ġabgest":9537,"ĠNieders":9538,"ĠProstat":9539,"rans":9540,"Und":9541,"ehle":9542,"ĠDuft":9543,"szeit":9544,"âĢ¢":9545,"ĠSeitensprung":9546,"ĠmÃ¶gen":9547,"ĠAsyl":9548,"ĠMeld":9549,"ĠSab":9550,"Ġqualit":9551,"richter":9552,"ĠRabatt":9553,"Leist":9554,"Ġletztlich":9555,"Ġit":9556,"Ġtat":9557,"ĠSar":9558,"Ġfestge":9559,"eten":9560,"ĠStartseite":9561,"ĠAusbau":9562,"okoll":9563,"Ġ$":9564,"Ġendet":9565,"ĠPlÃ¤tze":9566,"ĠEinschrÃ¤n":9567,"ĠMagen":9568,"bauer":9569,"ĠRichtig":9570,"ĠTourismus":9571,"Haus":9572,"adel":9573,"Ġschnellen":9574,"ĠFaktoren":9575,"ĠProzesse":9576,"Ġdok":9577,"ĠAuftraggeber":9578,"Ġschlechte":9579,"ĠGehalt":9580,"iler":9581,"serie":9582,"Ġehren":9583,"sichtigen":9584,"........":9585,"ĠTreff":9586,"ĠSchÃ¶ne":9587,"81":9588,"stete":9589,"ĠLack":9590,"Ġvorn":9591,"ĠSchauspiel":9592,"waren":9593,"here":9594,"verhalten":9595,"Ġunteren":9596,"afr":9597,"team":9598,"ĠDE":9599,"schafter":9600,"ĠKratz":9601,"ĠSorgen":9602,"ora":9603,"ĠJubilÃ¤um":9604,"Ġlegte":9605,"Ġerreichbar":9606,"ĠAussch":9607,"Ġlautet":9608,"Ġerworben":9609,"ĠÃ¤ltere":9610,"region":9611,"ĠWillkommen":9612,"Ġtiefer":9613,"odurch":9614,"Ġweist":9615,"ĠAccess":9616,"Ġdomin":9617,"ĠJustiz":9618,"Ġnamen":9619,"ĠSituationen":9620,"ĠKonzentr":9621,"ĠVersicherung":9622,"ĠFranken":9623,"ĠSur":9624,"ichtigung":9625,"ranken":9626,"ĠangekÃ¼ndig":9627,"Diese":9628,"brig":9629,"Ġabnehmen":9630,"ĠGetrÃ¤nke":9631,"ĠmÃ¤ch":9632,"Ġkrie":9633,"ĠBeam":9634,"ussy":9635,"Ġstrate":9636,"ĠAnsprechpartner":9637,"ĠmÃ¼":9638,"Ã¤cheln":9639,"kern":9640,"ĠanschlieÃŁen":9641,"ĠursprÃ¼nglich":9642,"ĠHeinrich":9643,"ĠTÃ¼ren":9644,"Ġphys":9645,"Ġverlangen":9646,"iment":9647,"ĠEinwohner":9648,"ĠSec":9649,"offen":9650,"fÃ¤ll":9651,"fleisch":9652,"ĠBerech":9653,"ĠJagd":9654,"act":9655,"kra":9656,"ĠAuflÃ¶sung":9657,"prÃ¤sident":9658,"Ġquasi":9659,"srecht":9660,"Ġaust":9661,"ĠTerror":9662,"automat":9663,"Ġabgeb":9664,"ĠBevor":9665,"ĠAnsonsten":9666,"ĠServices":9667,"Ġjemanden":9668,"organisation":9669,"Ġ43":9670,"hallen":9671,"Ġansonsten":9672,"ĠCent":9673,"ĠDateien":9674,"ĠSobald":9675,"Ġmanchen":9676,"Ã¤chen":9677,"Ġdarstellen":9678,"ĠManchmal":9679,"Ġarch":9680,"ĠgefÃ¼hl":9681,"ĠQuer":9682,"Ġschien":9683,"ĠNachhal":9684,"On":9685,"hrt":9686,"ĠAnliegen":9687,"ĠverstÃ¤nd":9688,"ĠKrÃ¤uter":9689,"einsatz":9690,"kette":9691,"Mo":9692,"âĢľ)":9693,"ĠBewerb":9694,"Ġinhalt":9695,"ĠOf":9696,"Ġhinweg":9697,"sicher":9698,"Ġintegriert":9699,"Ġklare":9700,"ativer":9701,"bogen":9702,"planung":9703,"ĠMaschine":9704,"zeugung":9705,"iam":9706,"ĠEffe":9707,"Ġsterben":9708,"stellbar":9709,"gibt":9710,"ĠMatth":9711,"ĠSC":9712,"ĠSprecher":9713,"ĠTelekom":9714,"ĠFunk":9715,"vgl":9716,"ĠRenten":9717,"isierten":9718,"Ġfrom":9719,"ĠJÃ¼rgen":9720,"ĠMobile":9721,"ĠKam":9722,"ĠHandeln":9723,"2010":9724,"ĠPartie":9725,"Service":9726,"Ġerwachsen":9727,"ingern":9728,"Ġzit":9729,"versicher":9730,"Da":9731,"arl":9732,"wachung":9733,"ĠbeschÃ¤ftigen":9734,"ĠNutzungs":9735,"arische":9736,"Ġmet":9737,"ĠRettungs":9738,"Ġnehme":9739,"arriere":9740,"behalten":9741,"Ġdirekten":9742,"bestand":9743,"Ġkeinem":9744,"Ġpraktische":9745,"mÃ¶bel":9746,"ĠForscher":9747,"Ġvielmehr":9748,"Ġprofessionelle":9749,"ĠSofern":9750,"ĠSpannung":9751,"ĠAnhÃ¤nger":9752,"mpf":9753,"ĠMarc":9754,"ĠFreiburg":9755,"ibilitÃ¤t":9756,".:.:":9757,"britann":9758,"gebÃ¤ude":9759,"ĠUrsache":9760,"HE":9761,"Ġabwechslungs":9762,"Ġentwickelte":9763,"Ġklin":9764,"Ġgewann":9765,"grÃ¼nden":9766,"ĠVerÃ¤nderung":9767,"eintrÃ¤ch":9768,"ĠVordergrund":9769,"ĠBundesregierung":9770,"Ġnein":9771,"ĠFeier":9772,"ĠTenn":9773,"Ġgross":9774,"ĠfrÃ¼heren":9775,"Ġdetaill":9776,"ĠLeuten":9777,"werbung":9778,"ĠYoga":9779,"ĠSoft":9780,"rust":9781,"tritt":9782,"ension":9783,"ĠGewÃ¤hr":9784,"ĠSchle":9785,"Ġ49":9786,"ĠRechtsanwalt":9787,"Ġfrage":9788,"Ġpartnersuche":9789,"ĠGrab":9790,"ĠLippen":9791,"mension":9792,"ĠungewÃ¶hn":9793,"ĠKriegs":9794,"ahrt":9795,"ĠZy":9796,"Ġdirekte":9797,"Ġï":9798,"ĠGre":9799,"verlauf":9800,"Ġverbindet":9801,"ĠWeltkrieg":9802,"ĠTum":9803,"ĠKohlen":9804,"Ġinstalliert":9805,"ĠGramm":9806,"Ġfotograf":9807,"ĠSchweden":9808,"otherapie":9809,"Ġnette":9810,"ĠSauer":9811,"ĠMix":9812,"gewinn":9813,"Ġbeschreibt":9814,"Ġrie":9815,"betrag":9816,"ĠDame":9817,"ĠAkku":9818,"Ġums":9819,"kontakt":9820,"ĠNiederl":9821,"ĠglÃ¤n":9822,"stisch":9823,"ĠKleid":9824,"thm":9825,"ahnsinn":9826,"itation":9827,"ĠModer":9828,"Ġap":9829,"ĠAuseinander":9830,"scheinlichkeit":9831,"ĠDunkel":9832,"version":9833,"ĠPir":9834,"ehmigung":9835,"ickte":9836,"ĠInsbesondere":9837,"ĠgewÃ¼nschten":9838,"ĠEngel":9839,"ĠVorstellungen":9840,"zwungen":9841,"ĠDurchschnitt":9842,"ĠEntfernung":9843,"Ġkleinere":9844,"ĠWerden":9845,"nur":9846,"Ġbeding":9847,"verlust":9848,"born":9849,"ĠBras":9850,"reicher":9851,"orgungs":9852,"ieller":9853,"elbe":9854,"ĠKro":9855,"fÃ¶rm":9856,"Ã¤gt":9857,"konom":9858,"Ġsign":9859,"ĠAlpen":9860,"Ġwodurch":9861,"kw":9862,"Ġtau":9863,"ĠSchicks":9864,"ĠHierbei":9865,"ĠPreisen":9866,"ĠRisiken":9867,"ĠBegr":9868,"astur":9869,"ofen":9870,"ĠTÃ¤ter":9871,"ĠReligion":9872,"behandlung":9873,".Â»":9874,"irl":9875,"Ġ1990":9876,"ging":9877,"ĠSterne":9878,"Ġroten":9879,"ĠSubst":9880,"oret":9881,"ugen":9882,"ĠAuftritt":9883,"Ġfragte":9884,"Ġausser":9885,"arischen":9886,"nes":9887,"ĠFrist":9888,"Ġzentrale":9889,"ĠLap":9890,"grad":9891,"ĠwÃ¤chst":9892,"jÃ¤hriger":9893,"ĠAnwalt":9894,"otter":9895,"euchten":9896,"ĠWissenschaftler":9897,"Ġangesehen":9898,"itur":9899,"ĠPod":9900,"Ġbeziehen":9901,"Daten":9902,"fenster":9903,"ĠPhase":9904,"Ġschneiden":9905,"Ã¤mpft":9906,"ĠSpuren":9907,"ĠunzÃ¤hl":9908,"ĠGame":9909,"zell":9910,"agerung":9911,"Ġunkompl":9912,"ĠMedikamente":9913,"Ġverboten":9914,"ĠÃ¼berrascht":9915,"ĠwÃ¼nsche":9916,"ĠErb":9917,"ĠMesser":9918,"Ġspont":9919,"ĠSehenswÃ¼rdig":9920,"Ġohnehin":9921,"ĠNichts":9922,"ĠKonsequ":9923,"brauch":9924,"ĠeB":9925,"ĠDIN":9926,"rÃ¤der":9927,"Ġgeraten":9928,"Ġkontinuier":9929,"ĠDampf":9930,"Ġgetestet":9931,"ĠSingleb":9932,"ialen":9933,"Ġdavor":9934,"ĠergÃ¤nzt":9935,"ĠFiguren":9936,"ĠChor":9937,".âĢĿ":9938,"pum":9939,"Ġeffektiv":9940,"Ġschwere":9941,"ĠstÃ¤rk":9942,"Ġmenschen":9943,"iehlt":9944,"ettet":9945,"ida":9946,"ĠPotenz":9947,"hÃ¤ndler":9948,"anzeige":9949,"ĠMaus":9950,"ĠHandwerk":9951,"vision":9952,"Ġverkauf":9953,"ĠâĢº":9954,"schnittlich":9955,"ĠSymptome":9956,"ĠAllgemeinen":9957,"?\"":9958,"ĠÃ¼berlegen":9959,"ĠUlt":9960,"Ã¤be":9961,"dest":9962,"ĠTrump":9963,"ĠDatenbank":9964,"Ġsa":9965,"Ġeinzigartige":9966,"ĠISBN":9967,"Ġerstaun":9968,"ĠTrinkwasser":9969,"weiler":9970,"ĠStÃ¤rke":9971,"ĠKul":9972,"urer":9973,"ience":9974,"ĠZen":9975,"ĠCr":9976,"ature":9977,"leder":9978,"voller":9979,"ĠEvents":9980,"Ġme":9981,"bay":9982,"iÃŁ":9983,"Funktion":9984,"DA":9985,"oche":9986,"Ġgezielt":9987,"ema":9988,"ĠOrganisationen":9989,"ria":9990,"gebiete":9991,"ĠBlÃ¼ten":9992,"eins":9993,"ĠÃľbungen":9994,"ĠUnterhalt":9995,"ĠOberflÃ¤chen":9996,"ĠNachwuchs":9997,"ĠgeprÃ¼ft":9998,"tex":9999,"ĠBarb":10000,"steine":10001,"ĠVorschriften":10002,"ĠAutomat":10003,"ungsverfahren":10004,"ĠKomponenten":10005,"Ġamerikanischen":10006,"Ġ180":10007,"ĠPortal":10008,"ĠKommission":10009,"ĠLoch":10010,"ĠDiabetes":10011,"Ġleck":10012,"ĠExistenz":10013,"ĠAM":10014,"berichte":10015,"ilian":10016,"Ġschlicht":10017,"ĠSchalt":10018,"ĠErfÃ¼llung":10019,"ĠauswÃ¤hlen":10020,"verarbeitung":10021,"orfen":10022,"ĠBezirks":10023,"hose":10024,"ĠHit":10025,"ĠHau":10026,"schÃ¶nen":10027,"ĠFra":10028,"atin":10029,"arts":10030,"ĠBraut":10031,"reue":10032,"ĠCommunity":10033,"Ġrechtzeitig":10034,"Ã¼rger":10035,"Ġuntersch":10036,"Ġverlangt":10037,"101":10038,"sozial":10039,"ĠKindergarten":10040,"ĠDJ":10041,"lÃ¤nge":10042,"ĠDialog":10043,"Ġbevorzu":10044,"ĠQuadrat":10045,"hau":10046,"Ġ46":10047,"inten":10048,"ĠgewÃ¤hrleistet":10049,"stitu":10050,"âĢĿ.":10051,"finanz":10052,"ĠiP":10053,"zusehen":10054,"lÃ¤uf":10055,"ĠIngen":10056,"itÃ¤ts":10057,"mitglied":10058,"Ð»":10059,"mil":10060,"Ġtrat":10061,"ĠBetroffenen":10062,"ĠBach":10063,"Ã¼bung":10064,"ĠverstÃ¤rkt":10065,"ĠgelÃ¶scht":10066,"ĠzuverlÃ¤ss":10067,"Ġkathol":10068,"Med":10069,"ĠDesigner":10070,"Ã¶h":10071,"ĠGefahren":10072,"isa":10073,"ĠtÃ¤glichen":10074,"Ġvolle":10075,"ĠNahrung":10076,"ĠÃĦhn":10077,"Ã¤ÃŁt":10078,"Ġfuhr":10079,"bedÃ¼rf":10080,"wn":10081,"ĠBundesliga":10082,"Ġbedarf":10083,"itsch":10084,"zend":10085,"ĠBesitzer":10086,"ĠhÃ¤ngen":10087,"schlÃ¼ssel":10088,"Ġkonkre":10089,"ĠVW":10090,"ĠRiesen":10091,"Ġsichere":10092,"Ã¼rzen":10093,"ups":10094,"TC":10095,"brand":10096,"ĠSpekt":10097,"gin":10098,"Ġeingetragen":10099,"portal":10100,"ĠGB":10101,"ĠĠĠĠ":10102,"bewegung":10103,"vi":10104,"etze":10105,"klÃ¤rt":10106,"ĠCenter":10107,"ĠSpur":10108,"Ã¶sser":10109,"gent":10110,"ĠAnna":10111,"Ġgeschieht":10112,"kus":10113,"Ġsicheren":10114,"Ã¼ge":10115,"ĠFlÃ¼ss":10116,"ĠBMW":10117,"chner":10118,"ĠErstellung":10119,"astian":10120,"Ġerkannt":10121,"ĠLiga":10122,"Ġdiversen":10123,"schwer":10124,"ĠAuskunft":10125,"format":10126,"ĠHitze":10127,"gesetzes":10128,"ĠButter":10129,"nam":10130,"asser":10131,"Ġreagieren":10132,"ĠfranzÃ¶sischen":10133,"ĠEntwickler":10134,"ĠAbteilung":10135,"Ġtraditionellen":10136,"ĠThÃ¼r":10137,"ĠBesser":10138,"ĠUrsachen":10139,"ĠBetreu":10140,"Ġbrauche":10141,"ĠPerformance":10142,"ĠLook":10143,"âĢ¦.":10144,"ĠhieÃŁ":10145,"ĠLied":10146,"ĠElement":10147,"ĠMond":10148,"ĠMetern":10149,"architektur":10150,"Ġmu":10151,"Ġverarbeiten":10152,"ĠgroÃŁzÃ¼g":10153,"Ġmomentan":10154,"ado":10155,"prÃ¤sent":10156,"dienste":10157,"ulÃ¤r":10158,"einheit":10159,"hagen":10160,"ĠEffekt":10161,"ĠRauch":10162,"Ġchron":10163,"wes":10164,"ĠStift":10165,"ĠVeranstaltungs":10166,"ĠRepublik":10167,"ĠUnterschiede":10168,"mÃ¤r":10169,"Ġuntersucht":10170,"Ġkostenfrei":10171,"obel":10172,"ĠAppl":10173,"klang":10174,"ĠEinwilligung":10175,"Ġstat":10176,"Ġerkenn":10177,"wende":10178,"ĠEvangel":10179,"Ġverursacht":10180,"Ġspiegel":10181,"sendung":10182,"ĠFinanzierung":10183,"nimmt":10184,"Ġschlechter":10185,"Ã¤cht":10186,"Ro":10187,"ted":10188,"Ġschlafen":10189,"hÃ¶rer":10190,"ĠAufstieg":10191,"ĠTu":10192,"gau":10193,"stÃ¤rke":10194,"fried":10195,"ĠSamsung":10196,"Ġerwerben":10197,"gesprÃ¤ch":10198,"ĠSS":10199,"Ġweisen":10200,"Ġkontaktieren":10201,"Ġbewerten":10202,"ĠðŁĺī":10203,"usion":10204,"ĠChamp":10205,"riech":10206,"ĠProblemen":10207,"ĠKartoff":10208,"Ġgrosse":10209,"kind":10210,"speicher":10211,"Ġschriftlich":10212,"Ġgeliefert":10213,"adies":10214,"Seite":10215,"ĠÃ¶fter":10216,"ĠHandlungs":10217,"Ġerschien":10218,"ĠPferd":10219,"drÃ¼ckt":10220,"aby":10221,"ĠTG":10222,"ĠBewerbung":10223,"ĠHÃ¶chst":10224,"ago":10225,"ĠProgramme":10226,"kasse":10227,"ĠStory":10228,"ĠKugel":10229,"quote":10230,"Ġentscheidet":10231,"schi":10232,"Ġzweimal":10233,"ipedia":10234,"ĠMitgliedern":10235,"ĠZurÃ¼ck":10236,"ms":10237,"Als":10238,"ĠHochzeits":10239,"griffen":10240,"ĠFlucht":10241,"Ġgeschickt":10242,"add":10243,"outube":10244,"nÃ¶":10245,"ĠUnterlagen":10246,"Ġfeststellen":10247,"ĠBundesland":10248,"ĠAussagen":10249,"Ġscheinen":10250,"Ġlanger":10251,"ĠBeschwerden":10252,"Ã¶ll":10253,"ague":10254,"ther":10255,"ĠWalter":10256,"Ġgeringer":10257,"ĠDÃ¤m":10258,"Ġnachvoll":10259,"Ġgefertigt":10260,"Ġspeichern":10261,"Ġmenschlichen":10262,"izei":10263,"ION":10264,"Ġallgemeine":10265,"ĠÃ¤lte":10266,"ĠRau":10267,"Ġhalte":10268,"Ġintelligen":10269,"ĠFeed":10270,"ĠPrÃ¤sentation":10271,"ringe":10272,"uver":10273,"eto":10274,"pÃ¤ck":10275,"rik":10276,"ĠEntwicklungen":10277,"zutage":10278,"methoden":10279,"ĠAnton":10280,"ĠMuss":10281,"Ġdick":10282,"ĠSchwierigkeiten":10283,"ĠRec":10284,"fÃ¼hrte":10285,"Ġberu":10286,"Ġbetrachten":10287,"leitungen":10288,"Ġare":10289,"ĠWeiterbildung":10290,"Ġpdf":10291,"kÃ¤":10292,"eutzutage":10293,"oli":10294,"blau":10295,"ĠzugÃ¤nglich":10296,"ppchen":10297,"dens":10298,"ĠGegenwart":10299,"Ġbeendet":10300,"liessen":10301,"familien":10302,"videos":10303,"ahe":10304,"ces":10305,"Ġbreite":10306,"Ġnackte":10307,"Ġherunterladen":10308,"ordnen":10309,"Programm":10310,"AA":10311,"ĠEntspannung":10312,"Ġoberen":10313,"ĠHem":10314,"Ġ41":10315,"ĠKÃ¶nnen":10316,"anspruch":10317,"Ġmassiv":10318,"ĠBR":10319,"Ġwerfen":10320,"ĠmÃ¤nner":10321,"mes":10322,"ĠArbeitsplatz":10323,"kleber":10324,"ĠRost":10325,"Ġgenerell":10326,"Ġsor":10327,"ĠBaut":10328,"Ġchem":10329,"ĠAtom":10330,"ĠÃ¤lteren":10331,"hi":10332,"baus":10333,"oma":10334,"ĠKommunikations":10335,"Ġirgendwel":10336,"quelle":10337,"ieben":10338,"ĠIdeal":10339,"Ġbekomme":10340,"kas":10341,"ĠProjekten":10342,"ĠGewinne":10343,"ĠWebsites":10344,"Ġaussieht":10345,"ĠTeppich":10346,"ĠDiff":10347,"Ġabges":10348,"Ġgegebenen":10349,"ĠRegierungs":10350,"ĠDSGVO":10351,"anzlei":10352,"Ġil":10353,"geladen":10354,"ĠTouristen":10355,"Ġanmelden":10356,"linik":10357,"ĠJazz":10358,"Ġreligi":10359,"ĠMenÃ¼":10360,"baut":10361,"ĠExtra":10362,"ĠtatsÃ¤ch":10363,"Ġzeichnet":10364,"Ġfix":10365,"ĠTablet":10366,"Ġeinstellen":10367,"Ġschaut":10368,"ĠBeinen":10369,"ĠAltstadt":10370,"ĠIntens":10371,"Ġgelassen":10372,"ĠGrunde":10373,"eget":10374,"Ġpassend":10375,"ĠGreen":10376,"ĠSchokol":10377,"republik":10378,"ĠJeden":10379,"ĠGesprÃ¤che":10380,"britannien":10381,"ĠInvestition":10382,"ĠOrten":10383,"Ġgewinnt":10384,"cast":10385,"swerte":10386,"Up":10387,"Ġhundert":10388,"ĠDrogen":10389,"Ġverfolgt":10390,"ĠArz":10391,"scheid":10392,"Ġ;-)":10393,"Ġfragt":10394,"ĠEM":10395,"Ġorg":10396,"Ġlocker":10397,"Ġzuhause":10398,"irmen":10399,"ĠGrÃ¼nder":10400,"drÃ¼cken":10401,"ĠHaltung":10402,"aufgaben":10403,"muster":10404,"alition":10405,"Ġerkennt":10406,"ĠKonzern":10407,"ĠBeschluss":10408,"Ġbeeinflussen":10409,"retung":10410,"umfang":10411,"Ã¼lern":10412,"Ġnormalerweise":10413,"lÃ¤ndischen":10414,"Ã¤nomen":10415,"ĠAudi":10416,"ĠStrukturen":10417,"].":10418,"Ġnacht":10419,"ulette":10420,"Mus":10421,"HR":10422,"nehmung":10423,"ĠFinale":10424,"locken":10425,"Ġtolles":10426,"ĠSlots":10427,"ĠInnovation":10428,"weilig":10429,"Ġ->":10430,"Ġanger":10431,"ĠzustÃ¤ndig":10432,"CO":10433,"Angeb":10434,"ĠCafÃ©":10435,"ĠlieÃŁen":10436,"ĠBewusstsein":10437,"Ġsonn":10438,"ĠFranzÃ¶s":10439,"tischer":10440,"Ġgeschehen":10441,"ĠSteck":10442,"Ġkurzem":10443,"ĠLehre":10444,"Ġthat":10445,"wenn":10446,"rÃ¼cken":10447,"Ġnachzu":10448,"hoff":10449,"ĠFavor":10450,"einrichtungen":10451,"Ġerzeugt":10452,"Ġ64":10453,"Ġhistorische":10454,"Ġnormale":10455,"cript":10456,"Ġunterb":10457,"Ġbeherr":10458,"branche":10459,"Ġsingles":10460,"ĠVorfeld":10461,"mannschaft":10462,"ĠErwartungen":10463,"ĠPhilipp":10464,"rohr":10465,"senz":10466,"ĠEinbau":10467,"ĠÃ¼berwiegend":10468,"ĠSpazier":10469,"krÃ¤f":10470,"ĠRechner":10471,"ĠOhren":10472,"rische":10473,"ĠBd":10474,"Ġzufolge":10475,"ĠBeton":10476,"reien":10477,"ĠInnenstadt":10478,"ror":10479,"Ġwartet":10480,"ausbildung":10481,"Ġfordern":10482,"ĠWerkstatt":10483,"ĠAkt":10484,"ĠMB":10485,"ĠVerfÃ¼g":10486,"bein":10487,"Ġleer":10488,"ĠEreignisse":10489,"ĠKonflikt":10490,"Ġausprobieren":10491,"uz":10492,"olen":10493,"staaten":10494,"samkeit":10495,"Ġerzeugen":10496,"ĠSprachen":10497,"nungszeiten":10498,"mess":10499,"ĠPhys":10500,"altete":10501,"Ã¤umt":10502,"ĠSoldaten":10503,"ĠVerbrauch":10504,"Ġliebsten":10505,"zahlungen":10506,"ĠBrau":10507,"betreiber":10508,"hythm":10509,"wÃ¶rter":10510,"ĠBasel":10511,"Ġpositiven":10512,"Ġgenaue":10513,"pool":10514,"ĠBa":10515,"Tube":10516,"ĠRÃ¤":10517,"ĠUrlaubs":10518,"erische":10519,"Ġprodu":10520,"ĠDrittel":10521,"ãĢ":10522,"ĠRevolution":10523,"ordnet":10524,"bÃ¼ro":10525,"ĠTax":10526,"ĠSchmidt":10527,"ĠPlug":10528,"museum":10529,"Ġumwelt":10530,"Ġwissenschaftlichen":10531,"ĠnÃ¶r":10532,"tere":10533,"Ġteils":10534,"ctor":10535,"zustand":10536,"ĠEN":10537,"ĠReh":10538,"ĠHohen":10539,"ĠZunÃ¤chst":10540,"ĠGÃ¼n":10541,"ĠSchles":10542,"pflanzen":10543,"ĠJosef":10544,"kolle":10545,"ĠZwie":10546,"Ġdynam":10547,"ĠFÃ¼nf":10548,"futter":10549,"ĠBam":10550,"ene":10551,"Ġfliegen":10552,"Ġberuh":10553,"ĠKlick":10554,"schicht":10555,"Ġdeaktiv":10556,"Ġstet":10557,"Ġrichten":10558,"ildet":10559,"ĠBuchst":10560,"ĠVin":10561,"reiches":10562,"ĠSitzung":10563,"Ġgeschm":10564,"ĠNic":10565,"ĠEinkaufs":10566,"istent":10567,"Ġgetrennt":10568,"ĠMech":10569,"Ġkonsequ":10570,"uchst":10571,"ĠKey":10572,"Ġstrateg":10573,"ĠHerstell":10574,"uro":10575,"ĠKonzer":10576,"Ġoffiziellen":10577,"Ġeignen":10578,"gu":10579,"otoren":10580,"Ġabends":10581,"gemÃ¤":10582,"Ġbeziehungs":10583,"ĠStrecken":10584,"Ã¼nde":10585,"ĠhÃ¶chst":10586,"landschaft":10587,"\")":10588,"ĠSehenswÃ¼rdigkeiten":10589,"ĠTextil":10590,"Ġverwendeten":10591,"ĠBrandenburg":10592,"Ġbeitragen":10593,"ĠRegional":10594,"sparen":10595,"Ġangeblich":10596,"Ġerfasst":10597,"ĠDachbeschichtung":10598,"kÃ¶mm":10599,"Ġoffiziell":10600,"sti":10601,"ĠFreien":10602,"Ġempfiehlt":10603,"roman":10604,"Ġreduzieren":10605,"Ã¤tigkeiten":10606,"ĠkÃ¼nst":10607,"Schn":10608,"Ġ(\"":10609,"ior":10610,"welle":10611,"irts":10612,"ĠGebÃ¼hren":10613,"ĠGesetzes":10614,"ĠPhilosophie":10615,"Ã¶gel":10616,"ĠfÃ¼n":10617,"ettel":10618,"ĠSebastian":10619,"ĠNeuen":10620,"Ġweitgehend":10621,"iode":10622,"ĠMount":10623,"Ġvis":10624,"Ġschlafzimmer":10625,"Ġamb":10626,"ple":10627,"bungs":10628,"fÃ¼llen":10629,"sphase":10630,"ĠLeinwand":10631,"ĠEigentÃ¼mer":10632,"Ġeinerseits":10633,"uschel":10634,"Ġdiskutiert":10635,"ĠDeinen":10636,"Ġmitge":10637,"allo":10638,"ĠenttÃ¤u":10639,"Ġperfekten":10640,"ĠFrÃ¼hling":10641,"Ġharmon":10642,"ĠSpir":10643,"Co":10644,"Ġhum":10645,"fels":10646,"ktiver":10647,"ĠVorlage":10648,"ranten":10649,"Ġyour":10650,"Ġbeliebtesten":10651,"ĠChristoph":10652,"liess":10653,"pping":10654,"garn":10655,"Ã¤nen":10656,"jet":10657,"obb":10658,"ĠKnie":10659,"anking":10660,"erung":10661,"emann":10662,"ĠAro":10663,"ĠOnlines":10664,"Ġgestartet":10665,"ali":10666,"su":10667,"ĠSystems":10668,"ĠDiesen":10669,"Ġlokalen":10670,"ĠAnfÃ¤nger":10671,"rektur":10672,"Ã¶ger":10673,"Ġwh":10674,"Ġbefest":10675,"genau":10676,"ĠGran":10677,"ĠÃ¤hnliche":10678,"Ġnen":10679,"zert":10680,"Ã¼nder":10681,"geschnitten":10682,"ĠTabelle":10683,"ĠergÃ¤nzen":10684,"ronomie":10685,"ĠKrankheiten":10686,"ĠAngeboten":10687,"ĠWirklichkeit":10688,"kÃ¼r":10689,"ĠMieter":10690,"ĠHelfer":10691,"Ġfehl":10692,"ĠErwerb":10693,"FA":10694,"UT":10695,"WE":10696,"Ġpfl":10697,"Ġglaubt":10698,"Ġ;)":10699,"arbe":10700,"Ġdokumen":10701,"Ġdauerhaft":10702,"ĠweiÃŁe":10703,"ĠClau":10704,"Ã¼tze":10705,"fÃ¼ll":10706,"riedenheit":10707,"ura":10708,"ritts":10709,"ĠPum":10710,"ĠManche":10711,"ĠPatient":10712,"stehende":10713,"ĠBezeichnung":10714,"ĠKrebs":10715,"ĠAbschnitt":10716,"ĠER":10717,"tifiziert":10718,"SA":10719,"ĠSÃ¼ÃŁ":10720,"esh":10721,"ĠmÃ¼ssten":10722,"ĠzurÃ¼ckge":10723,"hÃ¤ngen":10724,"MA":10725,"ĠSyr":10726,"Ġnahmen":10727,"acker":10728,"ktivitÃ¤t":10729,"ĠHeidel":10730,"omet":10731,"Ġ52":10732,"Ġerheblich":10733,"ĠVerwand":10734,"Ġanfangen":10735,"ĠSonst":10736,"ĠWag":10737,"ĠFarbt":10738,"ĠÃ¼blichen":10739,"Ġass":10740,"ĠGewinner":10741,"zufÃ¼gen":10742,"ĠStation":10743,"Ġsach":10744,"Ġ85":10745,"aka":10746,"urteilen":10747,"ĠMama":10748,"iers":10749,"ĠOrien":10750,"ohne":10751,"ĠLieder":10752,"vort":10753,"Ġempfangen":10754,"ĠStuhl":10755,"breite":10756,"ssel":10757,"Ġwirtschaftlichen":10758,"Ġgarantieren":10759,"ĠFliesen":10760,"ĠdurchfÃ¼hren":10761,"ĠhÃ¤ufiger":10762,"drucks":10763,"ĠstÃ¤rken":10764,"ĠErkrankungen":10765,"stande":10766,"urteilt":10767,"ords":10768,"ĠKnochen":10769,"Ġgolden":10770,"ĠTrocken":10771,"Ġgewohnt":10772,"Ġkenn":10773,"beschreibung":10774,"Ġexpl":10775,"!!!!":10776,"rÃ¤t":10777,"dates":10778,"ĠÂĦ":10779,"bereiten":10780,"geblich":10781,"ĠProp":10782,"ĠAusgleich":10783,"Ġgrossen":10784,"Ã¼nstig":10785,"Ġbeeindrucken":10786,"ĠbestÃ¤tigen":10787,"ĠStabilitÃ¤t":10788,"Ġvorhandenen":10789,"rechtlichen":10790,"ĠNordrhein":10791,"ĠStatus":10792,"stant":10793,"deutschen":10794,"beruf":10795,"ĠDigitalisierung":10796,"ĠSchild":10797,"ĠTreppen":10798,"ĠSchauspieler":10799,"geschwindigkeit":10800,"Ġfolgte":10801,"lech":10802,"ĠÃ¶ffnet":10803,"Ġmorgens":10804,"Ã¼tten":10805,"gÃ¤ng":10806,"ĠStÃ¼cke":10807,"zo":10808,"ĠFlach":10809,"ĠGriechenland":10810,"ĠDingen":10811,"ĠGroup":10812,"Ġpraktischen":10813,"ĠEngl":10814,"scheine":10815,"Ġstelle":10816,"Ġvoran":10817,"Ġbelegt":10818,"stock":10819,"zucker":10820,"Ġbeschreiben":10821,"ĠKrÃ¤fte":10822,"ĠWerner":10823,"ĠIl":10824,"Ġversuchte":10825,"kammer":10826,"zension":10827,"teilte":10828,"ĠAutobahn":10829,"ĠHeiÃŁe":10830,"Ġ95":10831,"worfen":10832,"ĠTiefe":10833,"Ġ99":10834,"center":10835,"prozess":10836,"Ġstattf":10837,"gnÃ¼gen":10838,"alb":10839,"Ġallzu":10840,"Ġfesten":10841,"Fre":10842,"ĠGR":10843,"ĠPlatten":10844,"ĠVitamin":10845,"ĠFeuchtigkeit":10846,"ĠLabor":10847,"ĠlÃ¶schen":10848,"ird":10849,"Ġausgesprochen":10850,"zÃ¼ndung":10851,"ehend":10852,"ĠUntersuchungen":10853,"ĠHandt":10854,"Ġbezieht":10855,"ĠFÃ¼hrer":10856,"ĠEtwas":10857,"Ġanmeldung":10858,"Ġbreiten":10859,"ĠSchuppen":10860,"ĠDurchmesser":10861,"ĠÃĸk":10862,"ĠRheinland":10863,"Zu":10864,"ĠVorm":10865,"Ġeingehen":10866,"ĠMei":10867,"Ġvorsichtig":10868,"ĠKiel":10869,"ĠDiesel":10870,"ĠKrimin":10871,"atives":10872,"ĠJedoch":10873,"Ġfund":10874,"wal":10875,"uÃŁer":10876,"ĠVeranstalter":10877,"Ġniedriger":10878,"ĠFazit":10879,"Ġpop":10880,"Ġwichtigste":10881,"Ġtraf":10882,"Ã¶sungs":10883,"ĠStreifen":10884,"forum":10885,"Geb":10886,"ĠFÃ¼ÃŁe":10887,"Ġfantast":10888,"ĠSupport":10889,"seitige":10890,"ĠDefin":10891,"Ġbil":10892,"volles":10893,"ĠAnders":10894,"ĠAkte":10895,"ĠStufe":10896,"Ã¼cksichtigung":10897,"prof":10898,"Ã¤ndige":10899,"Ðº":10900,"ĠProbe":10901,"ĠRÃ¼":10902,"Ġaufgel":10903,"ĠNoten":10904,"hod":10905,"oral":10906,"rel":10907,"Ġche":10908,"reibungen":10909,"Ġout":10910,"ĠUnabhÃ¤ng":10911,"Ġdrehen":10912,"ĠSus":10913,"schneiden":10914,"Ġswinger":10915,"./":10916,"ĠBGB":10917,"ĠJava":10918,"mech":10919,"ĠLaser":10920,"Ġverlin":10921,"Ġdiff":10922,"reckt":10923,"strecke":10924,"folio":10925,"ĠAlp":10926,"ĠLesb":10927,"ĠLaufen":10928,"Ġbad":10929,"ĠExempl":10930,"Ġbetreiben":10931,"ĠTennis":10932,"ila":10933,"Ġliebt":10934,"Ġverbreitet":10935,"ferien":10936,"onte":10937,"ĠAbsol":10938,"Ġasiat":10939,"ĠunmÃ¶glich":10940,"ĠSaar":10941,"ĠSchÃ¼tzen":10942,"ĠGÃ¶tt":10943,"iene":10944,"ĠBÃ¼ch":10945,"ĠImpul":10946,"alitÃ¤ten":10947,"Mitglie":10948,"asmus":10949,"vern":10950,"wel":10951,"ĠJahrzehnten":10952,"ĠKÃ¼hlschrank":10953,"ĠNiedersachsen":10954,"iefert":10955,"ĠMÃ¶ch":10956,"ĠRegistrierung":10957,"ĠAN":10958,"ils":10959,"Ġ47":10960,"Ġbeziehungsweise":10961,"ĠTechnologien":10962,"ĠRecher":10963,"ĠWÃ¼rde":10964,"ĠzuverlÃ¤ssig":10965,"2008":10966,"ĠBaumwolle":10967,"eber":10968,"flÃ¼ge":10969,"Po":10970,"ĠProduktions":10971,"wunsch":10972,"Ġteen":10973,"ĠBibel":10974,"Ġmieten":10975,"titel":10976,"omb":10977,"Start":10978,"Ġq":10979,"ĠBart":10980,"ĠSteuern":10981,"Ġscheinbar":10982,"ĠLogo":10983,"IK":10984,"ĠNagel":10985,"Ġausgest":10986,"Rei":10987,"ĠWohnen":10988,"macher":10989,"Ġverfolgen":10990,"Ġfrischen":10991,"?!":10992,"athie":10993,"ĠPaare":10994,"weich":10995,"ĠWahrscheinlichkeit":10996,"arry":10997,"hten":10998,"ĠStaffel":10999,"menge":11000,"Ġbegeistern":11001,"Projekt":11002,"ĠSeg":11003,"ĠTricks":11004,"ĠDeiner":11005,"ĠBrit":11006,"Ã¶ffentlichen":11007,"Ġumso":11008,"/-":11009,"werber":11010,"perten":11011,"ĠlÃ¤ngere":11012,"ĠLiebling":11013,"ĠBrÃ¼cke":11014,"ĠKlassiker":11015,"ĠPiz":11016,"undern":11017,"Port":11018,"info":11019,"stagram":11020,"ĠChristus":11021,"Ġleichten":11022,"ĠAnwendungs":11023,"arbeitungs":11024,"woche":11025,"Ġansprechen":11026,"Ã¼ht":11027,"ĠClass":11028,"Ã¼ndigen":11029,"ahne":11030,"Ġbasiert":11031,"ĠVÃ¶lker":11032,"ĠZeitschrift":11033,"ingu":11034,"ĠBerater":11035,"ĠkW":11036,"Ġnachhaltig":11037,"Ġersetzen":11038,"schluÃŁ":11039,"Ur":11040,"urteilung":11041,"ĠNahrungs":11042,"Ġehe":11043,"arma":11044,"Ġretten":11045,"Ã¶ss":11046,"Ġeinrichten":11047,"Art":11048,"ĠTeig":11049,"endorf":11050,"Ġunverb":11051,"ĠKnow":11052,"Ġsolch":11053,"ĠTeu":11054,"ĠAnerkennung":11055,"lein":11056,"Ġfeste":11057,"Ġ1997":11058,"beauftrag":11059,"ĠBerÃ¼cksichtigung":11060,"ĀĀĀĀĀĀĀĀĀĀĀĀĀĀĀĀ":11061,"ikaner":11062,"ĠgefÃ¶rdert":11063,"gemacht":11064,"Ã¤ule":11065,"Ġdan":11066,"Ġac":11067,"olfen":11068,"ĠLaun":11069,"Ġverliert":11070,"ĠEnergien":11071,"gesetzten":11072,"Ã¼ste":11073,"ĠModerne":11074,"ĠNaz":11075,"ĠÃ¼brig":11076,"antrag":11077,"hst":11078,"bestimm":11079,"ĠErweiterung":11080,"Version":11081,"ieber":11082,"Ã¶cher":11083,"ĠprÃ¤z":11084,"andt":11085,"gelen":11086,"ĠLuc":11087,"ĠHung":11088,"ĠTrage":11089,"kraine":11090,"mÃ¶glichkeit":11091,"amburg":11092,"Bereich":11093,"ĠFÃ¤higkeit":11094,"ĠWÃ¶rter":11095,"oe":11096,"ysi":11097,"istet":11098,"ĠschlÃ¤gt":11099,"ĠBÃ¼nd":11100,"petenzen":11101,"ĠwunderschÃ¶ne":11102,"ausstattung":11103,"ĠHi":11104,"Vert":11105,"Ġ1996":11106,"Ġgerech":11107,"ĠRegisse":11108,"ĠWorkshops":11109,"ĠMercedes":11110,"ĠVorgaben":11111,"Ġangelegt":11112,"ĠAnwesen":11113,"ĠDokumente":11114,"Ġinnovative":11115,"Ġlaufenden":11116,"Ġehrenamt":11117,"ĠÃľbersetzung":11118,"hnacht":11119,"ĠRE":11120,"izont":11121,"ĠwunderschÃ¶nen":11122,"einrichtung":11123,"ington":11124,"indungs":11125,"mern":11126,"Ġende":11127,"ĠDarauf":11128,"Ġsonstige":11129,"mittler":11130,"machung":11131,"istan":11132,"ĠMengen":11133,"Serie":11134,"agern":11135,"ĠVerst":11136,"schlagwortet":11137,"phase":11138,"ĠgÃ¼nstige":11139,"ĠVerletzung":11140,"ĠMatthias":11141,"ĠBan":11142,"Ġangesichts":11143,"Ġjener":11144,"ĠRegelung":11145,"ĠBotschaft":11146,"klassen":11147,"instrum":11148,"aufbau":11149,"ĠLogistik":11150,"Ġstecken":11151,"ĠMotivation":11152,"ĠFakten":11153,"verordnung":11154,"Ġgesunde":11155,"hÃ¤usern":11156,"ĠTore":11157,"atures":11158,"ĠbegrÃ¼ÃŁ":11159,"PC":11160,"ĠWÃ¤":11161,"ĠModul":11162,"bacher":11163,"Ġreisen":11164,"ĠausgefÃ¼hrt":11165,"ros":11166,"Ġbetont":11167,"ixel":11168,"ĠVereine":11169,"Ġversorgt":11170,"ĠCheck":11171,"Ġfehler":11172,"aufe":11173,"ĠKonstruktion":11174,"gÃ¤":11175,"ĠApfel":11176,"Ġangeschlossen":11177,"AV":11178,"ĠEntsteh":11179,"ĠMul":11180,"ierbar":11181,"rest":11182,"Tra":11183,"Ġinvestieren":11184,"ĠLesben":11185,"ĠSG":11186,"ĠHinsicht":11187,"Ġrechte":11188,"ĠKoordin":11189,"ĠKÃ¶nigs":11190,"iertem":11191,"ĠNotwend":11192,"estern":11193,"Ã¼ndet":11194,"Inst":11195,"Ġattraktiv":11196,"ĠVilla":11197,"indliche":11198,"Ġjugend":11199,"ĠAfD":11200,"ĠHeiligen":11201,"arz":11202,"ĠScheiben":11203,"2009":11204,"ĠKas":11205,"ĠBekl":11206,"banken":11207,"mg":11208,"ĠProfession":11209,"ĠEleg":11210,"flÃ¼ss":11211,"dir":11212,"ĠAbwehr":11213,"ize":11214,"ĠDÃ¶r":11215,"Ġru":11216,"ĠRezepte":11217,"ĠInstrument":11218,"weilen":11219,"gers":11220,"ĠPfe":11221,"ardinen":11222,"uxe":11223,"ĠFormul":11224,"Ġvereinbar":11225,"ĠMeeres":11226,"ĠBoch":11227,"Ã¤ngnis":11228,"ĠschlieÃŁt":11229,"ĠBezirk":11230,"Westfalen":11231,"ĠUnterhaltung":11232,"win":11233,"Ġtechnisch":11234,"Ã¤ndigen":11235,"attformen":11236,"ĠberÃ¼ck":11237,"rsg":11238,"Ġhaut":11239,"ĠGerÃ¤ten":11240,"Ġerweitern":11241,"Ġliefer":11242,"ĠErfahrungs":11243,"furter":11244,"ĠfÃ¼hrenden":11245,"Ġorigin":11246,"Ġangefangen":11247,"Ġstill":11248,"Ġrote":11249,"bit":11250,"ĠSin":11251,"ĠBul":11252,"grenze":11253,"ĠschÃ¤tzen":11254,"sprÃ¤":11255,"ĠSalzburg":11256,"Ġnam":11257,"Ġtelefonisch":11258,"Ġvereinbart":11259,"wachsen":11260,"Ġbesonderer":11261,"ĠGroÃŁbritannien":11262,"mÃ¤ch":11263,"ĠPau":11264,"ĠLind":11265,"enner":11266,"ĠSpeisen":11267,"ĠOtto":11268,"Gro":11269,"istischer":11270,"Zeit":11271,"ĠStudierenden":11272,"gebÃ¼hr":11273,"Ã¼ttel":11274,"Kreis":11275,"ĠKenntnisse":11276,"ĠAD":11277,"ĠZweit":11278,"lers":11279,"ĠMauer":11280,"ĠForderungen":11281,"ĠSturm":11282,"Ġjeweilige":11283,"ĠDos":11284,"hÃ¶rige":11285,"ĠSpiels":11286,"legenheit":11287,"ĠBetr":11288,"tien":11289,"ĠDing":11290,"anzig":11291,"ĠGÃ¶t":11292,"ĠAutomaten":11293,"TL":11294,"ĠKarlsruhe":11295,"ĠIdentitÃ¤t":11296,"ĠDomain":11297,"utung":11298,"ĠPick":11299,"teils":11300,"Ġziel":11301,"ĠLG":11302,"ĠAutomobil":11303,"ymnasium":11304,"Ġentspannt":11305,"Ġangesprochen":11306,"ĠMÃ¤d":11307,"ays":11308,"Ġeinheit":11309,"++":11310,"ollt":11311,"ĠReiÃŁ":11312,"lieferung":11313,"ĠZÃ¤hne":11314,"jo":11315,"Ġerfolgte":11316,"Ġseri":11317,"ĠOperation":11318,"ĠMachen":11319,"isser":11320,"ĠzustÃ¤ndigen":11321,"fahrungen":11322,"ĠOptik":11323,"Ġcan":11324,"ĠKok":11325,"ratet":11326,"gekommen":11327,"ĠAhnung":11328,"finale":11329,"verd":11330,"Ġhinterlassen":11331,"Ġberuflichen":11332,"ĠSignal":11333,"block":11334,"ĠAdmin":11335,"irten":11336,"ĠLaptop":11337,"dlichen":11338,"ĠColle":11339,"hersteller":11340,"ĠGroÃŁer":11341,"bungen":11342,"ĠFonds":11343,"ĠDiplom":11344,"mungs":11345,"ĠFlo":11346,"ĠAachen":11347,"Ġgriech":11348,"ĠBÃ¤ume":11349,"Ġtranspor":11350,"ĠspÃ¼r":11351,"TA":11352,"tal":11353,"bietern":11354,"ĠWiderspruch":11355,"HL":11356,"Ġverschl":11357,"Ġschmerz":11358,"ĠNachhaltigkeit":11359,"ĠHammer":11360,"ĠAntrieb":11361,"uste":11362,"ĠAufnahmen":11363,"ĠEbenfalls":11364,"ĠMathem":11365,"ĠNeur":11366,"ĠNachbarn":11367,"ĠBudget":11368,"Ġaufre":11369,"ĠHardware":11370,"ĠSendung":11371,"ettern":11372,"Ã¶sterreich":11373,"Ġverschiedensten":11374,"Hol":11375,"testen":11376,"Ġ110":11377,"bal":11378,"ĠAusgaben":11379,"Ġerweiter":11380,"ĠBehandlungs":11381,"ifest":11382,"âĢ¦)":11383,"Ġflexibel":11384,"Ã¤mpfe":11385,"Ã¤len":11386,"Ġgesammelt":11387,"ĠKath":11388,"Ġlangfristig":11389,"ĠBerichte":11390,"ĠUV":11391,"lade":11392,"Mark":11393,".....":11394,"ppel":11395,"Ġermittelt":11396,"phan":11397,"kÃ¶n":11398,"oires":11399,"ĠMS":11400,"ĠMun":11401,"Ġgefeiert":11402,"Se":11403,"ĠeuropÃ¤ische":11404,"ĠEinmal":11405,"ĠMineral":11406,"ĠTelefonnummer":11407,"ĠâĢĺ":11408,"lÃ¤ndern":11409,"Ġbearbeiten":11410,"ĠArbeitspl":11411,"euchte":11412,"Ġerzielt":11413,"ĠgefÃ¤hrlich":11414,"wirkt":11415,"ĠQuart":11416,"zeichneten":11417,"ĠDesigns":11418,"ĠAugsburg":11419,"meldungen":11420,"ĠgrÃ¼nen":11421,"ĠMittlerweile":11422,"ĠLiv":11423,"ĠRathaus":11424,"ĠEmpfehlungen":11425,"Ġbezogen":11426,"ĠToil":11427,"ĠAnwender":11428,"dicht":11429,"prechen":11430,"Ġsog":11431,"gnor":11432,"ablen":11433,"ĠProvin":11434,"Ġandererseits":11435,"nutzung":11436,"ĠGewerk":11437,"Ġrufen":11438,"Ġinneren":11439,"logen":11440,"ĠBogen":11441,"grÃ¼nde":11442,"geordneten":11443,"Ġwahren":11444,"ĠPerspektive":11445,"ĠRal":11446,"ĠKlavier":11447,"ĠangekÃ¼ndigt":11448,"ĠArznei":11449,"metik":11450,"ĠPsychologie":11451,"ĠaufgefÃ¼hrt":11452,"ĠMord":11453,"ĠSied":11454,"ĠSternen":11455,"Ġlern":11456,"ĠspÃ¼ren":11457,"ĠKrise":11458,"Ġspezialisiert":11459,"Berlin":11460,"ĠJak":11461,"Netz":11462,"Ġfin":11463,"ĠAction":11464,"ĠErÃ¶ffnung":11465,"ta":11466,"stands":11467,"freunde":11468,"abteilung":11469,"Ġ56":11470,"ĠVollzeit":11471,"indlichen":11472,"Ġsteigern":11473,"anzt":11474,"ĠBeleuchtung":11475,"plex":11476,"Ġfrische":11477,"PU":11478,"betreuung":11479,"ĠDynam":11480,"zieher":11481,"teilungen":11482,"ĠTouren":11483,"ĠYouTube":11484,"Ġoption":11485,"viertel":11486,"start":11487,"bringung":11488,"Web":11489,"Ġbege":11490,"Grund":11491,"Ġgebunden":11492,"TR":11493,"Ġsm":11494,"ĠDokumentation":11495,"Ã¼hlen":11496,"ĠMangel":11497,"Ġinfo":11498,"ĠMÃ¶n":11499,"ĠBlÃ¤tter":11500,"einheiten":11501,"Ġberechnet":11502,"Ġevtl":11503,"SE":11504,"dom":11505,"Ġnationalen":11506,"ĠTieren":11507,"gleichen":11508,"web":11509,"gs":11510,"ĠHochschul":11511,"Ġerfordert":11512,"Li":11513,"ĠLeucht":11514,"ĠErhalt":11515,"Ġabgegeben":11516,"etik":11517,"ĠPlastik":11518,"ussten":11519,"ĠMex":11520,"ĠausgewÃ¤hlt":11521,"ĠWach":11522,"ĠUhren":11523,"anleitung":11524,"Ã¶nt":11525,"Ġzugelassen":11526,"Ġsech":11527,"ĠKleinen":11528,"uns":11529,"ĠKontext":11530,"beutel":11531,"ĠObjekte":11532,"bÃ¶":11533,"Ġkonstru":11534,"Ġhalbe":11535,"Ġschmal":11536,"Ġbeige":11537,"ĠgehÃ¶r":11538,"ĠBerge":11539,"Ġkonkrete":11540,"ĠTrag":11541,"steck":11542,"ĠeingefÃ¼hrt":11543,"Ġrasch":11544,"Ġdurchge":11545,"ĠSorge":11546,"kreten":11547,"ĠFak":11548,"Ġikea":11549,"ĠTube":11550,"ĠAnnahme":11551,"uther":11552,"Ġhohem":11553,"tra":11554,"ementen":11555,"StraÃŁe":11556,"gefunden":11557,"ĠInhalten":11558,"Ġ140":11559,"Ġbestehende":11560,"ĠRas":11561,"ĠKreativitÃ¤t":11562,"ĠSoweit":11563,"post":11564,"ordnungs":11565,"zeitung":11566,"deutschland":11567,"liebe":11568,"perrt":11569,"regungen":11570,"ĠNamens":11571,"ĠWolken":11572,"ĠBron":11573,"datum":11574,"ĠKÃ¤se":11575,"bio":11576,"ĠMahl":11577,"ĠDritten":11578,"termin":11579,"Ġgeplanten":11580,"ĠkÃ¼rzlich":11581,"ĠNavig":11582,"video":11583,"ĠFell":11584,"ĠKonferenz":11585,"ĠChristen":11586,"inkt":11587,"pÃ¤dagog":11588,"ĠHeiÃŁ":11589,"schieben":11590,"ĠMainz":11591,"ĠBetriebssystem":11592,"ili":11593,"Go":11594,"ĠDol":11595,"Ġdicke":11596,"ĠSaal":11597,"coin":11598,"akete":11599,"Ġgemeint":11600,"strate":11601,"lowjob":11602,"ĠNachfolger":11603,"Ġbewertet":11604,"lehnt":11605,"Ġzentralen":11606,"put":11607,"ĠLetz":11608,"Ġdeutschsprach":11609,"ĠEntwurf":11610,"New":11611,"sal":11612,"ĠHub":11613,"Inter":11614,"ĠWÃ¼nschen":11615,"Ã¼nkt":11616,"ĠRuhr":11617,"mein":11618,"witz":11619,"Ġdreht":11620,"Ġreinigen":11621,"Ġfestgelegt":11622,"sofern":11623,"Ġkorrekt":11624,"Ġsage":11625,"listen":11626,"ĠWord":11627,"ĠSchÃ¼lern":11628,"ĠNeubau":11629,"Ġinstallieren":11630,"Ġoff":11631,"Ã¤digung":11632,"ĠPotenzial":11633,"ĠErzÃ¤hl":11634,"ĠberÃ¼cksichtigen":11635,"Ġ54":11636,"ĠHermann":11637,"Ġerrichtet":11638,"Ã¤le":11639,"puter":11640,"Sport":11641,"ĠGeheimnis":11642,"griff":11643,"Ã¶rg":11644,"meer":11645,"lehrer":11646,"Ġport":11647,"ĠstÃ¤d":11648,"Ġstehe":11649,"Ġliest":11650,"Ġsau":11651,"ĠFreundschaft":11652,"Ġeinzigartigen":11653,"ĠAfrika":11654,"Ġzauber":11655,"kretÃ¤r":11656,"herm":11657,"ĠWÃ¤hlen":11658,"ĠMinder":11659,"zÃ¼nd":11660,"Ġbez":11661,"ĠEmpfang":11662,"Ġauss":11663,"Ġgekenn":11664,";;;;;;;;;;;;;;;;":11665,"lebnisse":11666,"ĠGalax":11667,"Ġfinanzielle":11668,"ĠDecken":11669,"oman":11670,"eiler":11671,"ĠAbsch":11672,"ĠBisher":11673,"ais":11674,"Ġfoto":11675,"list":11676,"ĠgÃ¤ng":11677,"ĠZe":11678,"Ġaufeinander":11679,"ume":11680,"ĠIndien":11681,"gegnung":11682,"liegende":11683,"Ġprofessionellen":11684,"ĠVorstands":11685,"ĠCur":11686,"Ġwechsel":11687,"edig":11688,"ĠherkÃ¶mm":11689,"schuh":11690,"ĠBeteiligung":11691,"ĠHinblick":11692,"ĠHose":11693,"iki":11694,"eigung":11695,"ĠKoalition":11696,"amerika":11697,"werker":11698,"ĠMehrwert":11699,"ĠGab":11700,"gÃ¤ngen":11701,"ĠPayPal":11702,"ĠRucks":11703,"Ġmg":11704,"Ġaufger":11705,"ĠTit":11706,"Ġdahinter":11707,"unsten":11708,"Ġreagiert":11709,"Ġaktive":11710,"undet":11711,"ĠSmartphones":11712,"Âĵ":11713,"Ġkop":11714,"ahme":11715,"sanierung":11716,"ĠÃ¤ndert":11717,"Ġausgesch":11718,"fahrzeug":11719,"ĠGehÃ¤use":11720,"ĠIntelligen":11721,"rix":11722,"ĠBegleitung":11723,"ĠSCH":11724,"ĠdrÃ¼cken":11725,"UniversitÃ¤t":11726,"icen":11727,"Ġwahre":11728,"linder":11729,"Br":11730,"Ġsc":11731,"Ġumfassende":11732,"ĠPenis":11733,"ĠHallen":11734,"ĠMÃ¼he":11735,"pfung":11736,"ĠKund":11737,"ĠSchi":11738,"Ġmore":11739,"Sa":11740,"Ġlangfrist":11741,"kehren":11742,"ĠStd":11743,"ĠWandel":11744,"ĠKanton":11745,"Ġunangen":11746,"ited":11747,"Ġanpassen":11748,"krit":11749,"Alle":11750,"ternen":11751,"ĠImpress":11752,"Ġfile":11753,"ĠMannschaften":11754,"irma":11755,"Ġversp":11756,"ĠHierzu":11757,"ĠMaxim":11758,"ĠGeschÃ¤fte":11759,"ĠÃľbung":11760,"ĠKurse":11761,"ails":11762,"gehalt":11763,"ĠVenen":11764,"ĠAugenblick":11765,"etto":11766,"ĠAS":11767,"ĠKoffer":11768,"ĠErdbe":11769,"bÃ¶rse":11770,"2019":11771,"azitÃ¤t":11772,"Ġgenannte":11773,"ĠSne":11774,"ĠbloÃŁ":11775,"Ob":11776,"ĠProfi":11777,"apter":11778,"ocht":11779,"ĠâĨĳ":11780,"ĠSy":11781,"ĠAkademie":11782,"mutter":11783,"kleider":11784,"ĠErinnerungen":11785,"^^":11786,"ĠgÃ¼l":11787,"ĠBrÃ¼ste":11788,"venz":11789,"ĠSky":11790,"oland":11791,"enkt":11792,"Ġvan":11793,"Ġâľ":11794,"ĠHÃ¶hepunkt":11795,"ĠlÃ¤ÃŁt":11796,"scheiben":11797,"ĠLeich":11798,"Ġerreichte":11799,"Ġseitens":11800,"ĠBoots":11801,"ĠRespekt":11802,"ĠbefÃ¼r":11803,"ĠEines":11804,"ĠSumme":11805,"Ġnamens":11806,"Tag":11807,"ero":11808,"Ġaussch":11809,"ĠGirls":11810,"Ġrenomm":11811,"ĠSchleswig":11812,"Ġkonkreten":11813,"Ġilleg":11814,"ĠBÃ¼hnen":11815,"Ġlasse":11816,"ĠDeutscher":11817,"ĠgewÃ¼nschte":11818,"ĠVerordnung":11819,"Ġdarstellt":11820,"entlicher":11821,"ĠAttra":11822,"Ġaktiven":11823,"Ġfalsche":11824,"schaffung":11825,"ĠNaturschutz":11826,"blen":11827,"Su":11828,"Ġdemokrat":11829,"110":11830,"',":11831,"ĠVorschlag":11832,"bahnhof":11833,"ĠgemÃ¼tlich":11834,"Ġdurften":11835,"Ġorganisieren":11836,"ĠOnlineshop":11837,"ĠReform":11838,"ĠVorhaben":11839,"aille":11840,"ĠAustralien":11841,"Ġstimmen":11842,"imme":11843,"ĠfÃ¼llen":11844,"affe":11845,"ĠSkla":11846,"ĠJahreszeit":11847,"ĠCHF":11848,"ĠRedaktion":11849,"Ġdurchschnittliche":11850,"Ġdownload":11851,"Ġwild":11852,"ICHT":11853,"Ġhalben":11854,"ĠVerkaufs":11855,"ĠTranspar":11856,"ĠverÃ¶ffentlichen":11857,"ĠBundesrepublik":11858,"ympath":11859,"ĠBibliothek":11860,"liver":11861,"Ġkar":11862,"zusagen":11863,"ĠExtrem":11864,"ĠSchatz":11865,"ĠPrim":11866,"einigt":11867,"umb":11868,"gefÃ¼gt":11869,"ĠDeswegen":11870,"ĠHandlung":11871,",...":11872,"Ġfit":11873,"schnitte":11874,"ĠSpark":11875,"ĠVorjahr":11876,"ĠAnleger":11877,"ĠHost":11878,"ĠVf":11879,"Ġgeschnitten":11880,"Ġsolches":11881,"ĠRechnungs":11882,"wetter":11883,"ĠPlÃ¤ne":11884,"prakti":11885,"ĠEth":11886,"lappen":11887,"ĠgroÃŁem":11888,"Best":11889,"ĠFreie":11890,"ĠspÃ¤teren":11891,"Ġbedienen":11892,"ĠkÃ¼rz":11893,"Ġletztes":11894,"verstÃ¤ndnis":11895,"wanderung":11896,"ĠAbendessen":11897,"300":11898,"spflicht":11899,"ĠDritter":11900,"fehler":11901,"kau":11902,"ĠKaufen":11903,"uni":11904,"ĠverlÃ¤nger":11905,"Ġarbeits":11906,"ĠKammer":11907,"ĠKassen":11908,"ĠzurÃ¼ckzu":11909,"ĠBeteiligten":11910,"ĠzerstÃ¶rt":11911,"steht":11912,"Ã¤ud":11913,"risten":11914,"ĠTherap":11915,"ĠInzwischen":11916,"Ġumgehen":11917,"ĠSchub":11918,"Ã¤rzt":11919,"ĠPartnerschaft":11920,"ĠÃ¶rt":11921,"verstanden":11922,"irur":11923,"ĠfÃ¶rdert":11924,"dpa":11925,"bereichen":11926,"ĠJeans":11927,"Preis":11928,"ĠErkrankung":11929,"stedt":11930,"idar":11931,"ĠKons":11932,"Ġkir":11933,"ario":11934,"Ġwissenschaftliche":11935,"ĠAmerika":11936,"gig":11937,"ĠHÃ¶l":11938,"entsprechend":11939,"ingend":11940,"Ġangebracht":11941,"ĠNation":11942,"Ġzusammengestellt":11943,"strasse":11944,"ĠÃ¼bergeben":11945,"Ã¼ben":11946,"Ġangesch":11947,"vit":11948,"Ġtrans":11949,"ĠNat":11950,"ĠFax":11951,"ĠRegelungen":11952,"ĠKoll":11953,"Ġpubl":11954,"Ġvorab":11955,"steten":11956,"ĠgrÃ¼nd":11957,"ĠKrist":11958,"Men":11959,"Ġgewerb":11960,"haar":11961,"personen":11962,"ĠKÃ¼ndigung":11963,"eigent":11964,"ĠSowohl":11965,"ĠVerdacht":11966,"ĠOm":11967,"amik":11968,"Ġvierten":11969,"sbaden":11970,"ĠAktuell":11971,"INE":11972,"Ġzurecht":11973,"ĠLoc":11974,"ĠbeschrÃ¤nkt":11975,"ĠSchneider":11976,"ĠÃľberraschung":11977,"Ġeinzeln":11978,"ĠTests":11979,"agert":11980,"temberauben":11981,"ĠTrÃ¤":11982,"Lin":11983,"weig":11984,"landes":11985,"ĠXX":11986,"Ġpflegen":11987,"Design":11988,"Ġbett":11989,"Bundes":11990,"ĠEuropÃ¤ische":11991,"ĠFritz":11992,"Ġausgehen":11993,"Ġ51":11994,"weisungen":11995,"ĠBegleiter":11996,"ĠTeilnehmern":11997,"ĠRasen":11998,"freude":11999,"ĠRichard":12000,"ĠFeiert":12001,"ĠÃľbernahme":12002,"ĠInstitutionen":12003,"ices":12004,"ĠAutorin":12005,"mont":12006,"Ġauthen":12007,"Ġanfang":12008,"ĠJournalisten":12009,"aufwand":12010,"hafter":12011,"ĠKÃ¶rpers":12012,"ĠStaub":12013,"ĠSolche":12014,"ĠPrÃ¤sidenten":12015,"ĠRÃ¼ckkehr":12016,"ĠSchein":12017,"zeitige":12018,"Ġkonzentrieren":12019,"ĠErmitt":12020,"ĠTrends":12021,"ĠNÃ¤hr":12022,"Ġumfangreiche":12023,"ĠChemie":12024,"ĠKennen":12025,"plemen":12026,"ĠPanor":12027,"nische":12028,"Ġbemerken":12029,"auten":12030,"verantwort":12031,"ĠLeon":12032,"ĠJobs":12033,"messe":12034,"Ġklasse":12035,"ĠStreet":12036,"eder":12037,"aturen":12038,"Ġgutem":12039,"ĠBatterie":12040,"ĠVorsitzende":12041,"konferenz":12042,"bund":12043,"ĠVersandkosten":12044,"ĠunnÃ¶":12045,"ĠSelbstverstÃ¤ndlich":12046,"ĠSteuerung":12047,"bahnen":12048,"Ġstre":12049,"scheibe":12050,"Ġumzu":12051,"munikation":12052,"Ġ130":12053,"gesellschaften":12054,"ĠBegeister":12055,"ĠTickets":12056,"ĠNu":12057,"kurse":12058,"Ġwesentlichen":12059,"kabel":12060,"Ġdicht":12061,"Ã¼rtel":12062,"ĠKontroll":12063,"Ġbeliebten":12064,"Ġriesige":12065,"Ġ1995":12066,"Ġ1994":12067,"wartet":12068,"legenheiten":12069,"ĠErkenntnisse":12070,"ĠJens":12071,"vertreter":12072,"fass":12073,"Ġtier":12074,"ĠAC":12075,"gess":12076,"Ã¤nglich":12077,"DI":12078,"Prof":12079,"ĠZo":12080,"rint":12081,"ĠPfeffer":12082,"ĠGrÃ¼ÃŁe":12083,"ĠunverzÃ¼glich":12084,"ĠAufsichts":12085,"affung":12086,"tliche":12087,"ĠAusblick":12088,"Ġgere":12089,"ĠSauna":12090,"Ġsonstigen":12091,"akterien":12092,"ĠMission":12093,"ĠSchicksal":12094,"ĠAbmagerung":12095,"ript":12096,"skosten":12097,"ĠschÃ¼tzt":12098,"ĠDA":12099,"Ġgeringen":12100,"Ġmobilen":12101,"ĠInstagram":12102,"name":12103,"Test":12104,"lef":12105,"ĠSofort":12106,"ĠErfolge":12107,"Ġwarmen":12108,"ĠÃĸffnungszeiten":12109,"Ġdamaligen":12110,"ĠTopf":12111,"BB":12112,"Ġselt":12113,"ehrte":12114,"ĠÃ¶sterreichischen":12115,"Ste":12116,"zungen":12117,"Ġdefiniert":12118,"Gem":12119,"Ġabgel":12120,"Ġwirtschaftliche":12121,"ziele":12122,"ĠReit":12123,"Chr":12124,"rischen":12125,"ĠVerw":12126,"Ġjunger":12127,"osm":12128,"Ġabgestimmt":12129,"Met":12130,"Ġpersonenbezogener":12131,"ĠAllgemeine":12132,"Ġinnere":12133,"âĢĭ":12134,"entin":12135,"ĠPositionen":12136,"ĠErsch":12137,"imi":12138,"ĠInt":12139,"Ġheutige":12140,"Ġeuer":12141,"ĠBelastung":12142,"ĠOP":12143,"Ġreine":12144,"blÃ¤tter":12145,"Ġproduzieren":12146,"Ġbachelorarbeit":12147,"ĠDiagnose":12148,"ni":12149,"ĠSchal":12150,"ĠEurope":12151,"ĠDomin":12152,"Ġlit":12153,"Ġfac":12154,"Ġgrundlegen":12155,"ĠLady":12156,"Ġlegend":12157,"ĠPrÃ¼fungs":12158,"ĠSant":12159,"ashion":12160,"Ġniedrig":12161,"ĠWehr":12162,"Ġmech":12163,"ĠAP":12164,"reden":12165,"Ġbegrenzt":12166,"ĠMÃ¼ll":12167,"ĠNerven":12168,"Ġexper":12169,"Ġfinanziellen":12170,"ĠerlÃ¤utert":12171,"ĠHex":12172,"ĠMannheim":12173,"ĠDM":12174,"ĠGegenstand":12175,"Ġangeht":12176,"ĠLevel":12177,"stufen":12178,"ĠStor":12179,"igh":12180,"lassung":12181,"Ġbot":12182,"gerÃ¤ten":12183,"ield":12184,"ated":12185,"ĠStadtteil":12186,"Ġkonkret":12187,"ĠAnregungen":12188,"Ġschmeckt":12189,"Ġgegenseitig":12190,"ĠForst":12191,"Ġpur":12192,"ĠWeis":12193,"esp":12194,"ĠBom":12195,"ĠHalte":12196,"rasse":12197,"Ġgalt":12198,"real":12199,"sprÃ¼chen":12200,"ĠAussehen":12201,"ĠContent":12202,"ĠAmbiente":12203,"ĠGerÃ¤u":12204,"ĠRÃ¤um":12205,"ĠTrennung":12206,"Ġanstatt":12207,"fas":12208,"any":12209,"Ġoptisch":12210,"Ġberichtete":12211,"ĠIsland":12212,"ĠSpielzeug":12213,"scheinend":12214,"ĠSchulden":12215,"ĠÃ¼blich":12216,"tics":12217,"ĠWann":12218,"rimin":12219,"reibst":12220,"ĠVeg":12221,"Ġkleineren":12222,"Ġschaff":12223,"ĠBesuchern":12224,"Ġsamt":12225,"Ġtreiben":12226,"sprochen":12227,"uppert":12228,"euerung":12229,"ĠkÃ¼mmer":12230,"Ġvertraut":12231,"ĠBass":12232,"ĠWarte":12233,"ĠÃĦgyp":12234,"Ġdiskutieren":12235,"ĠMu":12236,"ĠTot":12237,"Ġscharf":12238,"fotos":12239,"OG":12240,"ĠberÃ¼hmten":12241,"Ġ53":12242,"ĠImmun":12243,"ĠMountain":12244,"achim":12245,"Ã¤mpfung":12246,"Ġjahrel":12247,"bem":12248,"ĠsorgfÃ¤ltig":12249,"ologe":12250,"alteten":12251,"Ġbeobachtet":12252,"Ġ700":12253,"ĠEmpfÃ¤nger":12254,"Ġbetreut":12255,"ĠGroÃŁteil":12256,"Chef":12257,"Ġriesigen":12258,"Ġworauf":12259,"ĠUkraine":12260,"ĠZufall":12261,"Ġqualitativ":12262,"ĠMÃ¤ngel":12263,"Ġschar":12264,"ĠCouch":12265,"ĠFreiwill":12266,"Unsere":12267,"Ġrob":12268,"Ġschlechten":12269,"lÃ¶sungen":12270,"He":12271,"Min":12272,"Ġhy":12273,"riester":12274,"ffizient":12275,"inderten":12276,"Part":12277,"skom":12278,"ĠGerichte":12279,"Stadt":12280,"ĠRunden":12281,"Ġabsolute":12282,"Kinder":12283,"ulÃ¤ren":12284,"Ġbesei":12285,"anny":12286,"ĠMem":12287,"mode":12288,"ĠGenerationen":12289,"VP":12290,"ĠAnkunft":12291,"ĠMÃ¼nchner":12292,"ammern":12293,"ĠFerienwohnung":12294,"Ġheutzutage":12295,"ĠToten":12296,"Ġinteressanten":12297,"Ġzeigten":12298,"Ġlustig":12299,"Ac":12300,"beteil":12301,"Ġaufgestellt":12302,"ĠTreffer":12303,"verbandes":12304,"punkten":12305,"ragten":12306,"FF":12307,"ally":12308,"ĠVorgÃ¤nger":12309,"Ġerforderlichen":12310,"ĠEreignis":12311,"zungs":12312,"passung":12313,"Ġess":12314,"krie":12315,"Ã¤chtnis":12316,"ĠGipfel":12317,"Ġumgeben":12318,"Ġschwanger":12319,"ĠSchrank":12320,"ĠGrand":12321,"dule":12322,"alth":12323,"col":12324,"Ġelegant":12325,"ĠHandbuch":12326,"ĠÃ¼berprÃ¼ft":12327,"Ġerkunden":12328,"...)":12329,"ĠMagazin":12330,"beitrag":12331,"brem":12332,"ĠFrisch":12333,"laubnis":12334,"ĠReinigungs":12335,"ĠFeedback":12336,"Ã¤ngerung":12337,"ĠMau":12338,"ĠGerÃ¼":12339,"http":12340,"obe":12341,"tiven":12342,"itas":12343,"ĠKalk":12344,"ustr":12345,"ĠGross":12346,"Seit":12347,"Ġgesetzliche":12348,"ĠBeschÃ¤ftigung":12349,"gg":12350,"steuerung":12351,"ĠKindheit":12352,"nummern":12353,"Ġlux":12354,"Ġgold":12355,"ĠZell":12356,"Ġgepflegt":12357,"gebÃ¼hren":12358,"Ġprogramm":12359,"ĠFormel":12360,"eminar":12361,"ĠTerrassen":12362,"ĠHonig":12363,"farb":12364,"ĠArmee":12365,"ĠGesichts":12366,".):":12367,"ĠMittelalter":12368,"ĠNovoline":12369,"Ja":12370,"emark":12371,"ĠMitteln":12372,"Gruppe":12373,"Mon":12374,"ĠBeach":12375,"ĠDiam":12376,"stritten":12377,"Ġbeantwortet":12378,"Ġgehei":12379,"ĠDeko":12380,"ĠVision":12381,"ĠDeinem":12382,"ĠdiesjÃ¤hrigen":12383,"ktions":12384,"quellen":12385,"lar":12386,"ĠExpl":12387,"rechn":12388,"Ġversuche":12389,"ĠWinkel":12390,"ĠTau":12391,"bergen":12392,"Ġzeichnen":12393,"ĠtÃ¤gliche":12394,"sertation":12395,"Ġdat":12396,"Ġbezeichnen":12397,"Ã¶ck":12398,"ĠsÃ¼ÃŁ":12399,"ĠCall":12400,"âĢ¢âĢ¢":12401,"sonst":12402,"Ġpolitisch":12403,"ĠWork":12404,"sache":12405,"ĠKf":12406,"Ã¼tung":12407,"wÃ¼rfe":12408,"Ġgewal":12409,"Ã¤digt":12410,"bildet":12411,"ban":12412,"hers":12413,"Ġhilfe":12414,"Ġspekt":12415,"ĠFlugzeug":12416,"Ġbaut":12417,"ĠVorsitzender":12418,"ĠZelt":12419,"gestellten":12420,"ĠStoffe":12421,"ĠGenehmigung":12422,"à¸":12423,"ĠHas":12424,"herz":12425,"Ġkonzip":12426,"ĠDecke":12427,"ĠUmzug":12428,"ĠAnim":12429,"Di":12430,"ui":12431,"ĠBischof":12432,"gast":12433,"ĠRoy":12434,"Ġbekommst":12435,"Ġwertvolle":12436,"HS":12437,"ĠArchitekten":12438,"Ġ160":12439,"ĠCop":12440,"Ġdoppelt":12441,"ĠBernd":12442,"zensionen":12443,"Ġ....":12444,"ausgabe":12445,"ĠBegrÃ¼ndung":12446,"ĠVersionen":12447,"Ġhervorragende":12448,"ĠArn":12449,"ĠErfolgs":12450,"Ñĥ":12451,"ela":12452,"Ġverspricht":12453,"ĠnÃ¤chstes":12454,"ĠCat":12455,"Ġentscheidend":12456,"nischen":12457,"auswahl":12458,"BS":12459,"streifen":12460,"Ġabs":12461,"einigung":12462,"ĠSchlacht":12463,"ĠResult":12464,"Ġtrag":12465,"ĠPin":12466,"Ġlernt":12467,"ĠCha":12468,"ĠTechniken":12469,"ĠStudent":12470,"neter":12471,"Ġliter":12472,"ĠAnfragen":12473,"Ġmoderner":12474,"ietung":12475,"wohnern":12476,"Ġangegebenen":12477,"ĠHorn":12478,"itch":12479,"elemente":12480,"Par":12481,"bekommen":12482,"Ġml":12483,"ĠLou":12484,"solvenz":12485,"fonds":12486,"zelt":12487,"ĠmÃ¼sst":12488,"ĠbegrÃ¼ÃŁen":12489,"ĠBrie":12490,"Ġaktiviert":12491,"ĠBewegungen":12492,"Ġsyn":12493,"ĠPast":12494,"Ġprim":12495,"Ġbehaupten":12496,"genossen":12497,"ĠBecken":12498,"ĠHÃ¤":12499,"ĠErhÃ¶hung":12500,"ĠBilanz":12501,"ĠMol":12502,"ĠOpp":12503,"Ã¤tte":12504,"ĠWeib":12505,"ĠGrundsÃ¤tzlich":12506,"ĠmilitÃ¤r":12507,"gieb":12508,"Ġperman":12509,"ĠTempo":12510,"Ġ.:":12511,"ĠVerletzungen":12512,"ĠLas":12513,"Ġeuren":12514,"ĠSpielothek":12515,"ĠgeschÃ¤ft":12516,"ĠVermieter":12517,"lauch":12518,"Ġreichlich":12519,"ĠKÃ¤lte":12520,"ĠkÃ¼nf":12521,"Ġeinzus":12522,"ĠStrei":12523,"Ġtraditionelle":12524,"Ġstieg":12525,"ĠJon":12526,"ĠgefÃ¼llt":12527,"ĠEure":12528,"Ġschwerer":12529,"ĠStandards":12530,"ĠEv":12531,"Ġbestand":12532,"seln":12533,"ĠSeil":12534,"****":12535,"ĠFun":12536,"ĠFDP":12537,"ĠSperr":12538,"ĠWissens":12539,"ĠBegegnung":12540,"kg":12541,"ĠNachteile":12542,"Ġrussischen":12543,"wanne":12544,"vertreten":12545,"ĠKletter":12546,"kredit":12547,"ĠReport":12548,"tages":12549,"ĠArmen":12550,"ĠWÃ¤l":12551,"ieÃŁt":12552,"Sc":12553,"ĠFassung":12554,"Ġspannenden":12555,"ĠStaatsanwalt":12556,"initi":12557,"Ġbester":12558,"ĠLine":12559,"ĠBlei":12560,"spitze":12561,"zessen":12562,"meisterschaft":12563,"berge":12564,"ĠLob":12565,"cause":12566,"uhe":12567,"Ġincl":12568,"utten":12569,"ĠDritt":12570,"ĠPots":12571,"Ġtrafen":12572,"chron":12573,"ĠTomaten":12574,"Ġverhei":12575,"DV":12576,"unnel":12577,"ĠBrasilien":12578,"ĠInseln":12579,"ergebnisse":12580,"ĠDÃ¤n":12581,"kal":12582,"Ġschade":12583,"ĠZigar":12584,"ĠMomente":12585,"ĠZie":12586,"schÃ¤den":12587,"brÃ¼cke":12588,"ĠEigentum":12589,"Ã¼tt":12590,"NE":12591,"Ġfried":12592,"uri":12593,"worte":12594,"nte":12595,"Ġkrei":12596,"ĠFrÃ¼chte":12597,"vereins":12598,"Ġkunst":12599,"Ġunterhalten":12600,"ĠSchreibtisch":12601,"Ġarbeitete":12602,"Ġumfassenden":12603,"ket":12604,"ĠBenutz":12605,"ĠFraktion":12606,"glanz":12607,"ĠKlage":12608,"ĠBist":12609,"ĠfÃ¼hlte":12610,"ĠWeiterentwicklung":12611,"Ġeffizien":12612,"ĠKanal":12613,"ĠTherm":12614,"ĠÃĦuÃŁer":12615,"ĠWeiterhin":12616,"Ġnegativ":12617,"lÃ¤ndische":12618,"ĠwÃ¶ch":12619,"Ġoptimieren":12620,"pil":12621,"frÃ¼":12622,"Ġseitdem":12623,"ĠFlexibilitÃ¤t":12624,"Ġ1980":12625,"komfort":12626,"ĠTob":12627,"Ġbearbeitet":12628,"ĠAbends":12629,"Ġlebens":12630,"sender":12631,"dner":12632,"ĠTSV":12633,"derte":12634,"ĠÂĸ":12635,"ĠHaushalts":12636,"ĠSpass":12637,"lehnen":12638,"ĠHass":12639,"ĠRekord":12640,"ĠPlaneten":12641,"Ġgeilen":12642,"ĠDisziplin":12643,"Ober":12644,"ikte":12645,"hÃ¶rt":12646,"Ã¼hl":12647,"pu":12648,"Ġumgehend":12649,"Ġelektronischen":12650,"ĠausfÃ¼hrlich":12651,"regung":12652,"ĠOh":12653,"Ã¤ttern":12654,"ĠBond":12655,"meldet":12656,"lohn":12657,"ĠVereinbarung":12658,"Ġfeiert":12659,"ĠTschech":12660,"ĠMent":12661,"ĠGepÃ¤ck":12662,"ĠgegenwÃ¤r":12663,"uffet":12664,"ĠEntstehung":12665,"ĠSpielern":12666,"ĠHalbzeit":12667,"ietet":12668,"ĠMÃ¤rchen":12669,"fein":12670,"folie":12671,"ĠAusfÃ¼hrungen":12672,"lieger":12673,"gegangen":12674,"ĠWiesbaden":12675,"ĠInvestitionen":12676,"gerechte":12677,"Ġveg":12678,"hardt":12679,"Ġunterscheidet":12680,"sthe":12681,"Ġleiten":12682,"Ġdemnach":12683,"ĠFerienhaus":12684,"ĠEmpfehlung":12685,"Ġquer":12686,"ĠAlternativ":12687,"Ġtypischen":12688,"ĠOffice":12689,"Ġgeheim":12690,"zentren":12691,"ĠHelden":12692,"ĠHast":12693,"ĠCast":12694,"ĠOste":12695,"ĠFotografie":12696,"ĠGesetze":12697,"ĠLaufzeit":12698,"ĠGeschenke":12699,"Ġ66":12700,"bedien":12701,"Ġsilber":12702,"kleid":12703,"Ġoffizielle":12704,"ĠKassel":12705,"ĠKob":12706,"ĠOfen":12707,"Ġdunklen":12708,"Ġener":12709,"ĠVerbindungen":12710,"Ġunvergess":12711,"ĠGE":12712,"Ġerleichtern":12713,"Ġgegebenenfalls":12714,"mÃ¤":12715,"ĠTags":12716,"flechte":12717,"Ġauft":12718,"ĠSpons":12719,"ĠFormular":12720,"ĠProje":12721,"IER":12722,"Ġkochen":12723,"ĠWeiteren":12724,"ĠKÃ¶lner":12725,"ĠZeugen":12726,"Ġgeholfen":12727,"bewusstsein":12728,"ĠFlasche":12729,"Ġfalschen":12730,"Ġrat":12731,"siver":12732,"FB":12733,"ĠBochum":12734,"ĠOliven":12735,"ĠNiederlage":12736,"Ġgesellschaftlichen":12737,"ĠAchtung":12738,"ĠNight":12739,"ĠJog":12740,"Ġmedizinische":12741,"ĠEmo":12742,"ĠRegisseur":12743,"Ġbeinahe":12744,"hart":12745,"ĠBege":12746,"ĠGesang":12747,"mitten":12748,"Ġ72":12749,"Teil":12750,"herapeu":12751,"ussion":12752,"media":12753,"Ġprofessionell":12754,"NA":12755,"ĠUmfrage":12756,"ĠTÃ¤tigkeiten":12757,"ĠFernseher":12758,"onde":12759,"ĠBachelor":12760,"ĠvielfÃ¤ltigen":12761,"ents":12762,"Ġhausarbeit":12763,"indel":12764,"attung":12765,"Ġabger":12766,"kenntnisse":12767,"irge":12768,"stunde":12769,"ĠStephan":12770,"verbindung":12771,"Ġintensive":12772,"asy":12773,"Ġverteilen":12774,"Ġsensi":12775,"liesslich":12776,"also":12777,"Ġdankbar":12778,"ĠArgument":12779,"Hz":12780,"tage":12781,"Ġanstren":12782,"auty":12783,"ĠLieferanten":12784,"rumpf":12785,"ĠPortug":12786,"ĠNormal":12787,"ografen":12788,"Ġherrscht":12789,"schaden":12790,"ĠLieben":12791,"Hrsg":12792,"ywood":12793,"ĠISO":12794,"ochten":12795,"ĠBV":12796,"car":12797,"ĠGn":12798,"grammen":12799,"Ã¶ÃŁer":12800,"Ġmehrmals":12801,"Ġ58":12802,"Ġminim":12803,"Ġshort":12804,"ĠKlicken":12805,"rechtlich":12806,"behÃ¶rden":12807,"ĠSchall":12808,"Ġbedanken":12809,"unen":12810,"anzer":12811,"samt":12812,"austausch":12813,"ĠWeile":12814,"tifizierung":12815,"merkt":12816,"warten":12817,"systems":12818,"Ġ0800":12819,"ĠMP":12820,"arbeiteten":12821,"schnitts":12822,"ĠMagnet":12823,"Ġliebevoll":12824,"ĠverstÃ¤ndlich":12825,"ĠRechen":12826,"Ġerstklass":12827,"ĠSprung":12828,"gigen":12829,"jacke":12830,"ĠMall":12831,"eher":12832,"ĠJac":12833,"telle":12834,"ĠgewÃ¼nscht":12835,"Ġ360":12836,"ĠFA":12837,"Ã¼stet":12838,"Bes":12839,"Ġkontrolliert":12840,"Wo":12841,"Ġstation":12842,"Ġerledigt":12843,"ĠKing":12844,"izz":12845,"ĠGrafiken":12846,"gor":12847,"ries":12848,"kin":12849,"ĠCreme":12850,"ĠvorÃ¼ber":12851,"poten":12852,"tlichen":12853,"Ġwunderbare":12854,"disziplin":12855,"ĠBestimmung":12856,"?)":12857,"ĠWÃ¼rmer":12858,"ĠLÃ¶schung":12859,"Ġoriginal":12860,"ĠRichtlinien":12861,"Ġgeringe":12862,"izierung":12863,"gehende":12864,"athon":12865,"ĠOptimierung":12866,"::":12867,"Ã¤rchen":12868,"ĠFla":12869,"seitigen":12870,"Ġbecause":12871,"ĠgehÃ¶rte":12872,"ĠHinzu":12873,"ziehbar":12874,"wies":12875,"Ã¶pfung":12876,"Ġxxx":12877,"Ġgebucht":12878,"ĠTrauer":12879,"ĠWoll":12880,"deutsche":12881,"Ã¶d":12882,"Ġbesetzt":12883,"Ġmithilfe":12884,"Ġwasch":12885,"ĠTransfer":12886,"Ġelf":12887,"ĠBeu":12888,"ĠLokal":12889,"Ġsanft":12890,"Ġmedizinischen":12891,"ĠFrankfurter":12892,"ĠPig":12893,"gebieten":12894,"Ġklappt":12895,"ratzen":12896,"ausstellung":12897,"Ġgesetzlich":12898,"Ġstrahlen":12899,"Ġeinander":12900,"ĠFlaschen":12901,"ĠKÃ¼ste":12902,"ido":12903,"ĠflÃ¼ss":12904,"gasse":12905,"ĠDicke":12906,"Mag":12907,"abeth":12908,"Durch":12909,"ĠKomplett":12910,"olin":12911,"ĠReiter":12912,"ĠInse":12913,"ĠGegenstÃ¤nde":12914,"ĠTempel":12915,"Ġexistieren":12916,"Mein":12917,"dy":12918,"Aber":12919,"Ġgreift":12920,"folgung":12921,"Book":12922,"ĠSU":12923,"Ġhinterher":12924,"ĠAlternativen":12925,"Ġschreibe":12926,"Ġanerkannt":12927,"eide":12928,"ĠBy":12929,"Ġjetz":12930,"gelÃ¤nde":12931,"Ġwollt":12932,"ĠSzenen":12933,"ĠForderung":12934,"Ġsingleb":12935,"Ġerkennbar":12936,"studium":12937,"ĠStrategien":12938,"Ġeigentlichen":12939,"aufnahmen":12940,"Ġabgeben":12941,"Ġdurchschnittlich":12942,"geschritten":12943,"krÃ¤ften":12944,"Ġeinzigartig":12945,"ĠTicket":12946,"ĠInspiration":12947,"ĠFakult":12948,"mu":12949,"sÃ¤tzen":12950,"ĠKommen":12951,"ĠPhÃ¤nomen":12952,"ĠThre":12953,"Ġbeweisen":12954,"geordnete":12955,"Ġoptimalen":12956,"studien":12957,"manns":12958,"ĠMenschheit":12959,"alem":12960,"genÃ¶ss":12961,"ĠKatastrop":12962,"rauchen":12963,"varian":12964,"Ġdaten":12965,"Ã¤tsel":12966,"ĠReb":12967,"cor":12968,"ault":12969,"Ġspektak":12970,"ĠDarlehen":12971,"ktop":12972,"Ġgeld":12973,"Ġhamburg":12974,"ĠCons":12975,"ĠArtikeln":12976,"besitzer":12977,"BER":12978,"Jugend":12979,"ĠWahrnehmung":12980,"achr":12981,"ĠPasswort":12982,"kuchen":12983,"PO":12984,"Ġneugier":12985,"ĠDire":12986,"ĠLeib":12987,"ÃŁt":12988,"Ġbeeinflusst":12989,"endel":12990,"ives":12991,"norm":12992,"Ġignor":12993,"ĠTen":12994,"ĠPussy":12995,"ĠBetten":12996,"index":12997,"ĠSchicht":12998,"ĠVerstÃ¤r":12999,"ĠDiÃ¤t":13000,"mÃ¤ÃŁige":13001,"ĠKollektion":13002,"Ġregionalen":13003,"ĠPerspektiven":13004,"lenburg":13005,"adresse":13006,"ĠvielfÃ¤ltige":13007,"ĠBewerber":13008,"fu":13009,"strahlung":13010,"ĠBabys":13011,"bereitet":13012,"ersatz":13013,"Ġerlauben":13014,"isburg":13015,"aku":13016,"ĠMur":13017,"Ġzuzu":13018,"ĠTonnen":13019,"ĠfrÃ¶h":13020,"ĠCarl":13021,"Ġgefordert":13022,"Ġheisst":13023,"Ġmerk":13024,"Ġkan":13025,"Ġ69":13026,"kam":13027,"Ġfarben":13028,"ĠPoker":13029,"abor":13030,"ĠKult":13031,"wirksam":13032,"ĠSchwein":13033,"Software":13034,"Ġspontan":13035,"ĠLÃ¤cheln":13036,"gungen":13037,"ĠJames":13038,"ĠAuseinandersetzung":13039,"isation":13040,"Ġgibts":13041,"Ġkorrig":13042,"Ġart":13043,"Ġwin":13044,"ĠErsten":13045,"KT":13046,"Ġsolle":13047,"ĠBienen":13048,"ĠSanierung":13049,"ĠEscort":13050,"Ġechter":13051,"Ġhoffentlich":13052,"Ġfeine":13053,"ĠMale":13054,"Ġtiefen":13055,"ĠIM":13056,"ĠGeschw":13057,"Ġverhalten":13058,"Ġrunden":13059,"Ġ1945":13060,"ford":13061,"ĠGuten":13062,"ĠNeum":13063,"Ġgewachsen":13064,"ĠSilv":13065,"Ġtre":13066,"ĠSchuss":13067,"ielefeld":13068,"EST":13069,"ĠInvestoren":13070,"ĠDiskussionen":13071,"ĠDirektor":13072,"Ġgeltend":13073,"Ġexistiert":13074,"ĠiPad":13075,"verbot":13076,"ĠPrint":13077,"Ġumfangreichen":13078,"ĠSchach":13079,"Ġandern":13080,"Ġarbeit":13081,"Ġdaraufhin":13082,"erer":13083,"âĢĶ":13084,"ĠSender":13085,"ĠKandidaten":13086,"Ġ59":13087,"ĠGeburts":13088,"intage":13089,"chef":13090,"Ġenger":13091,"Play":13092,"sprÃ¼fung":13093,"ĠgelÃ¶st":13094,"ĠNationalpark":13095,"ĠWC":13096,"ĠPL":13097,"ĠRoute":13098,"Ġnachhaltige":13099,"besuch":13100,"ĠPV":13101,"Ġbillig":13102,"Ã¤ltigen":13103,"ĠSchuppenflechte":13104,"ellos":13105,"blr":13106,"ĠSchriftsteller":13107,"Ġunkompliziert":13108,"schrau":13109,"ĠIran":13110,"ĠZiff":13111,"mi":13112,"schritte":13113,"Ġzumal":13114,"ameter":13115,"Ġkonf":13116,"ĠZuerst":13117,"regeln":13118,"Ġferner":13119,"ĠTuch":13120,"Ġmaximale":13121,"ĠSyrien":13122,"onne":13123,"Weiter":13124,"Ġeinverstanden":13125,"ĠWatt":13126,"regen":13127,"diger":13128,"Ã¤hle":13129,"ĠVerfassungs":13130,"fertig":13131,"ĠHumor":13132,"ĠÎ":13133,"modelle":13134,"ratze":13135,"Ġgeschlagen":13136,"Ġ1992":13137,"ĠÃ¼berraschend":13138,"ĠMisch":13139,"Ġrief":13140,"Ġmessen":13141,"ĠHut":13142,"Ġwaschen":13143,"Ã¤uschen":13144,"Ġenglischen":13145,"ĠLangen":13146,"ĠVorschlÃ¤ge":13147,"Ġmerkt":13148,"ĠhÃ¶rte":13149,"ĠBuchung":13150,"ĠSpektrum":13151,"ĠGlanz":13152,"heizung":13153,"imeter":13154,"ĠAbstimmung":13155,"fuÃŁ":13156,"Ġerleichtert":13157,"zburg":13158,"athl":13159,"Ġabgesehen":13160,"ĠDev":13161,"Ġzwang":13162,"Ġdetail":13163,"Ġklaren":13164,"Ġletztendlich":13165,"tisches":13166,"Ġmenschliche":13167,"ĠverÃ¤nder":13168,"Ġleise":13169,"jenige":13170,"ĠDI":13171,"ĠBB":13172,"mbh":13173,"ĠSpeed":13174,"ĠKais":13175,"oker":13176,"ĠfÃĥ":13177,"ĠEisenbahn":13178,"nee":13179,"ĠeBay":13180,"OK":13181,"Ġkurzfristig":13182,"ĠOld":13183,"Ġphil":13184,"ua":13185,"Ġunend":13186,"Ã¤che":13187,"ĠKohle":13188,"ĠHeizung":13189,"ichern":13190,"Ġdram":13191,"Ġeinsetz":13192,"ĠGebÃ¼hr":13193,"ĠEffizienz":13194,"ĠschÃ¤d":13195,"familie":13196,"Ġbade":13197,"ĠZinsen":13198,"schef":13199,"saison":13200,"Ġsympath":13201,"Ġkraft":13202,"Ġ68":13203,"ĠLeague":13204,"konto":13205,"ialis":13206,"sive":13207,"astet":13208,"Ġverleihen":13209,"typ":13210,"ĠCle":13211,"Ġausgesetzt":13212,"ĠImmerhin":13213,"Ã¼bt":13214,"ĠGolden":13215,"ĠWiesen":13216,"ĠLay":13217,"ĠEinfl":13218,"ĠSuchmaschinen":13219,"Ġitalienischen":13220,"Ġbenutz":13221,"ĠRh":13222,"steckt":13223,"irche":13224,"ĠSperma":13225,"ĠBegeisterung":13226,"angaben":13227,"ĠlangjÃ¤hrige":13228,"ae":13229,"Ġgelangt":13230,"Ġunterschiedlicher":13231,"ĠAntrags":13232,"ĠAlbert":13233,"Ġgemessen":13234,"ĠVertrau":13235,"Ħ¢":13236,"Ġgerufen":13237,"ĠEL":13238,"mengen":13239,"ĠwÃ¼nscht":13240,"Fest":13241,"ĠOliver":13242,"Ġ1993":13243,"Ġdescription":13244,"pend":13245,"rent":13246,"ĠKub":13247,"ĠJakob":13248,"ĠNachweis":13249,"ology":13250,"ĠOs":13251,"ĠZertif":13252,"Ġbrauchst":13253,"ĠDÃ¼n":13254,"ĠAkten":13255,"ĠMang":13256,"ĠHP":13257,"geist":13258,"ĠBody":13259,"ĠAktuelle":13260,"ĠGastronomie":13261,"Ġwien":13262,"ĠAufruf":13263,"ĠInternetseiten":13264,"ahnung":13265,"Ġvorliegenden":13266,"rend":13267,"Ġblieben":13268,"Ġ{":13269,"Ġgesichert":13270,"ĠErgÃ¤nzung":13271,"Ġ57":13272,"spuren":13273,"ican":13274,"ĠOrdner":13275,"wechslung":13276,"Ġattraktive":13277,"ĠSAP":13278,"ĠRam":13279,"ĠWanderung":13280,"Ġgenial":13281,"fÃ¼hrungs":13282,"atsch":13283,"ĠIC":13284,"ĠRÃ¤umen":13285,"ĠZellen":13286,"Ġzahlt":13287,"ĠAuftrags":13288,"ĠMeck":13289,"feln":13290,"ä¸":13291,"ĠMw":13292,"lechter":13293,"gespielt":13294,"ĠCup":13295,"ĠPfarrer":13296,"ĠMuseums":13297,"ĠendgÃ¼ltig":13298,"ĠInsolvenz":13299,"link":13300,"Ġneutr":13301,"veranstaltung":13302,"Ġgesorgt":13303,"Ġteilte":13304,"Ġgesunden":13305,"ĠKonzentration":13306,"Ġbunt":13307,"Ġkreative":13308,"plÃ¤tzen":13309,"ĠRoulette":13310,"sprodu":13311,"chenkt":13312,"Intern":13313,"sprozesse":13314,"Ġwolle":13315,"Ġatemberauben":13316,"Ã¤hnen":13317,"Ġrechtlichen":13318,"Ġnotwendige":13319,"ĠVersorgungs":13320,"ĠSimon":13321,"Ġstetig":13322,"ĠKetten":13323,"klein":13324,"ĠUmbau":13325,"ĠSeh":13326,"Ġeindrucks":13327,"ĠRod":13328,"ĠApart":13329,"ĠKinderzimmer":13330,"Ġlangweilig":13331,"Dollar":13332,"Ġunber":13333,"Recht":13334,"Ġentdeck":13335,"Ġgestiegen":13336,"Ġsymbol":13337,"optim":13338,"ĠMathematik":13339,"ĠUfer":13340,"Ġtour":13341,"Ðĵ":13342,"Ġgeeignete":13343,"####":13344,"Auch":13345,"wider":13346,"ĠPartnern":13347,"ĠZehn":13348,"ĠKonsum":13349,"ĠGewissen":13350,"schlÃ¤gen":13351,"Markt":13352,"Ġdigital":13353,"verletzung":13354,"lieder":13355,"ĠTurm":13356,"Unternehmen":13357,"RL":13358,"2007":13359,"Ġwitz":13360,"cal":13361,"ĠLÃ¶sungs":13362,"ĠRÃ¼ckseite":13363,"Ġsto":13364,"sprachen":13365,"ĠRap":13366,"Ġgeladen":13367,"ĠzufÃ¤llig":13368,"leiden":13369,"ĠGeschirr":13370,"Ã¶tet":13371,"ĠVorbild":13372,"melde":13373,"Ġenge":13374,"Ġverstehe":13375,"Ġkompletten":13376,"Ġgu":13377,"Ã¶ffel":13378,"ĠSportler":13379,"Dis":13380,"ĠRies":13381,"gewal":13382,"ĠMillion":13383,"Ġresul":13384,"Ġschweiz":13385,"ĠSun":13386,"ĠKleinanzeigen":13387,"ĠDieter":13388,"ĠSpÃ¤ter":13389,"ĠRitter":13390,"bor":13391,"utschen":13392,"ĠVermittlung":13393,"Ġgekennzeichnet":13394,"AF":13395,"Ġaufgehoben":13396,"Ġprobieren":13397,"ĠNotfall":13398,"ĠUlrich":13399,"400":13400,"andal":13401,"Ġirgendwelche":13402,"Ġsonder":13403,"ĠAspekt":13404,"ĠberÃ¼hrt":13405,"Tour":13406,"ĠVel":13407,"Ġstellten":13408,"Shirt":13409,"Ġexakt":13410,"institut":13411,"ĠMÃ¼tter":13412,"ĠBuches":13413,"orientierte":13414,"ĠHeinz":13415,"OB":13416,"kreuz":13417,"tels":13418,"ilen":13419,"ĠDiet":13420,"veranstaltungen":13421,"ĠbewÃ¤hr":13422,"eland":13423,"ĠStore":13424,"Ġcharakter":13425,"ĠSamen":13426,"Th":13427,"ĠCover":13428,"ĠStufen":13429,"aks":13430,"ĠButton":13431,"ĠEhem":13432,"irgend":13433,"utin":13434,"ĠInterpret":13435,"Ġeigentliche":13436,"Ã¤ssigkeit":13437,"eidigen":13438,"Ġparallel":13439,"nÃ¤chst":13440,"ĠAuftakt":13441,"ĠÃ¶st":13442,"Ġunterliegen":13443,"==":13444,"Box":13445,"ĠCharme":13446,"ĠSMS":13447,"ĠSpeise":13448,"ĠKali":13449,"ĠZir":13450,"echselt":13451,"Ġverschwunden":13452,"brief":13453,"Ġanhalten":13454,"Besch":13455,"ĠProtest":13456,"afrika":13457,"Ġkulin":13458,"Ġumsetzen":13459,"ĠGerhard":13460,"ĠTrack":13461,"Ġbehauptet":13462,"Ġzukunft":13463,"ĠPromo":13464,"ĠWurzeln":13465,"ji":13466,"ĠStem":13467,"Ġsahen":13468,"ĠDeckel":13469,"sentwicklung":13470,"ĠLaune":13471,"interest":13472,"sproblem":13473,"Ã¤uden":13474,"Per":13475,"âĢ¦âĢ¦":13476,"ĠEber":13477,"ĠKorrektur":13478,"Rad":13479,"ĠJÃ¼n":13480,"Ġ96":13481,"ĠJÃ¶rg":13482,"mÃ¼hle":13483,"Ġleuchten":13484,"ylon":13485,"feier":13486,"kter":13487,"ason":13488,"Ġunterschiedlichsten":13489,"ĠOrgan":13490,"ĠverknÃ¼":13491,"Ġpotenz":13492,"ĠBedienung":13493,"nchen":13494,"pir":13495,"iessen":13496,"ĠWÃ¤nde":13497,"Gl":13498,"ĠWur":13499,"deburg":13500,"Ġ900":13501,"ĠZielgruppe":13502,"ĠGutes":13503,"ĠSachver":13504,"eman":13505,"ĠFetisch":13506,"produkt":13507,"ĠSir":13508,"ĠSymbole":13509,"ĠÃľbergang":13510,"verse":13511,"ĠVereinigten":13512,"Ġglas":13513,"row":13514,"ĠDerzeit":13515,"ĠBenzin":13516,"ĠLib":13517,"gru":13518,"riss":13519,"Ġindustr":13520,"ehrung":13521,"ĠÃ¼berlassen":13522,"ĠKie":13523,"Ġstarb":13524,"ĠLeber":13525,"alisierte":13526,"ĠÃľbungs":13527,"Ġsteuern":13528,"boy":13529,"Ġermitteln":13530,"ĠBetriebe":13531,"ĠVolumen":13532,"ĠSofa":13533,"ĠausgewÃ¤hlten":13534,"Ġamerikanische":13535,"ĠFR":13536,",.":13537,"kamp":13538,"tagon":13539,"Ġsexkontakte":13540,"Ġlokale":13541,"ween":13542,"ĠGemeinder":13543,"Ġharten":13544,"Ġfamil":13545,"Ġverzichtet":13546,"ĠBerufung":13547,"ĠLande":13548,"Ġaufw":13549,"zeitigen":13550,"ĠMonster":13551,"Ġelektronische":13552,"ĠStick":13553,"ĠBlitz":13554,"ĠMonitor":13555,"ĠElektronik":13556,"Ġbritischen":13557,"ĠReferenz":13558,"Ġvorkommen":13559,"ĠAufbew":13560,"Ġechtes":13561,"hend":13562,"ĠkrÃ¤ftig":13563,"ĠAsien":13564,"ĠVerfÃ¼gbarkeit":13565,"arien":13566,"ĠUngarn":13567,"ĠPflanze":13568,"ĠBraunsch":13569,"Ġversen":13570,"ĠTOP":13571,"Ġ(Â§":13572,"Ġ978":13573,"ĠWikipedia":13574,"funktionen":13575,"Hoch":13576,"ĠKampagne":13577,"ĠGT":13578,"ĠEinhaltung":13579,"Ġ63":13580,"ĠKatalog":13581,"Ġakzeptieren":13582,"studio":13583,"wetten":13584,"schild":13585,"sens":13586,"Ġposition":13587,"verkehrs":13588,"bten":13589,"braun":13590,"ĠbrÃ¼":13591,"Ġ//":13592,"ĠBenutzung":13593,"paket":13594,"ĠFab":13595,"Ġbeider":13596,"vermÃ¶gen":13597,"ĠPapst":13598,"flÃ¼gel":13599,"ĠVic":13600,"Ġ62":13601,"ĠGrÃ¤":13602,"bte":13603,"Ġerfahrenen":13604,"Ġaufweisen":13605,"sky":13606,"Ġtitten":13607,"ĠÃ¼ben":13608,"ĠkÃ¼ndig":13609,"Ġentspannen":13610,"ĠJÃ¤ger":13611,"ĠBibli":13612,"phone":13613,"Ġsorgte":13614,"dro":13615,"schlei":13616,"ĠLautsprecher":13617,"empfeh":13618,"ĠHighlights":13619,"oon":13620,"ĠTool":13621,"ankt":13622,"Ġarg":13623,"herren":13624,"ĠdÃ¼rften":13625,"Ġgaben":13626,"Ġaufgeb":13627,"ides":13628,"Ġbeschleun":13629,"praxis":13630,"Ġunsicher":13631,"ĠUrlau":13632,"Ġrussische":13633,"ĠAnbau":13634,"ĠLese":13635,"ĠBÃ¼chern":13636,"Ġeint":13637,"laster":13638,"ĠWettkampf":13639,"ĠRi":13640,"geburt":13641,"schloss":13642,"ĠCE":13643,"ĠMusic":13644,"Ã¤nner":13645,"Ġrenov":13646,"ĠstÃ¼r":13647,"ĠNehmen":13648,"boot":13649,"ĠGerech":13650,"Holstein":13651,"Ã¤ge":13652,"pause":13653,"sches":13654,"ĠMobilitÃ¤t":13655,"ĠStadion":13656,"reide":13657,"ogramm":13658,"ĠGefÃ¤hr":13659,"Ġidentifiz":13660,"ĠAmtsgericht":13661,"Mann":13662,"lÃ¤sst":13663,"ÑĮ":13664,"ĠHeck":13665,"ĠGermany":13666,"FC":13667,"Ġwiederholt":13668,"iana":13669,"ĠErnÃ¤hrungs":13670,"graben":13671,"eingang":13672,"Ã¤lle":13673,"ĠHelmut":13674,"ani":13675,"Ġpornos":13676,"BM":13677,"ĠToll":13678,"ĠfÃ¼hle":13679,"ï¼":13680,"ĠÃ¶konom":13681,"ĠAlltags":13682,"ĠSurf":13683,"ĠBeck":13684,"ĠTatsÃ¤chlich":13685,"ĠregelmÃ¤ÃŁigen":13686,"ĠMay":13687,"ĠBohr":13688,"Ġstehenden":13689,"ĠDeluxe":13690,"ĠBewerbungs":13691,"ĠKochen":13692,"yll":13693,"ĠHeu":13694,"Ġvereint":13695,"ĠQue":13696,"Ġzugreifen":13697,"Ġcl":13698,"Ã¤ngern":13699,"ickel":13700,"Â».":13701,"ĠMÃ¤dels":13702,"Ġverschwinden":13703,"rund":13704,"bleiben":13705,"ĠÃľberleben":13706,"ĠLow":13707,"ĠOk":13708,"Ġentnehmen":13709,"iasis":13710,"ĠImage":13711,"ĠbeeintrÃ¤ch":13712,"ĠVerpackung":13713,"ĠSchokolade":13714,"dia":13715,"ĠDIE":13716,"ĠAbschied":13717,"ĠDreier":13718,"ĠBegriffe":13719,"vas":13720,"Ã¼pfen":13721,"Ġzwe":13722,"Ġlat":13723,"ĠgewÃ¤hrt":13724,"ĠursprÃ¼nglichen":13725,"ĠFair":13726,"Log":13727,"Ġeingel":13728,"ĠKomplex":13729,"Ġkombinieren":13730,"ĠPant":13731,"Ġaufwend":13732,"ĠJahrgang":13733,"Ġgezwungen":13734,"ĠKommunen":13735,"Leben":13736,"ierst":13737,"Script":13738,"Ġeingegangen":13739,"ĠGras":13740,"ĠTypen":13741,"ĠBakterien":13742,"Ġbit":13743,"Ġausgefallen":13744,"Ġbemerkt":13745,"Ġnachts":13746,"Ġfeinen":13747,"Ã¤rtner":13748,"Ġgebildet":13749,"ĠSpa":13750,"Ġfremden":13751,"ĠDefinition":13752,"Ġvol":13753,"Ġtranspar":13754,"ĠvielfÃ¤ltig":13755,"ĠTeenager":13756,"ĠDonau":13757,"Ã¤udes":13758,"Ġlauf":13759,"ĠfranzÃ¶sische":13760,"Ã¶pfen":13761,"ĠOrigin":13762,"ĠhÃ¤ufigsten":13763,"ĠStatistik":13764,"Ġblock":13765,"handels":13766,"ĠDekoration":13767,"å¤":13768,"Ġunbesch":13769,"ĠCli":13770,"zufinden":13771,"Ġrestlichen":13772,"ĠzukÃ¼nftig":13773,"Ġexternen":13774,"ĠLÃ¤rm":13775,"ĠWeine":13776,"Institut":13777,"ĠHeft":13778,"etooth":13779,"legungen":13780,"Technologie":13781,"Frei":13782,"aunen":13783,"ami":13784,"sprechung":13785,"ĠRatgeber":13786,"Ġjemals":13787,"ĠPrei":13788,"ozi":13789,"schon":13790,"ĠKissen":13791,"Ġsper":13792,"Ġunterhalb":13793,"ĠArab":13794,"ĠAngehÃ¶rigen":13795,"ĠTar":13796,"ĠLE":13797,"izit":13798,"Ġstartete":13799,"ĠTransparenz":13800,"hochschule":13801,"ĠMitteilung":13802,"Ġangewiesen":13803,"ifik":13804,"cer":13805,"hilfen":13806,"ĠKra":13807,"ĠMaler":13808,"Ġgeeigneten":13809,"ĠBeamten":13810,"ĠklÃ¤ren":13811,"ĠRechtsanw":13812,"ĠrÃ¶m":13813,"ĠAufklÃ¤rung":13814,"ĠDarum":13815,"Ġbegegnen":13816,"methode":13817,"âĦ¢":13818,"ĠChin":13819,"klÃ¤rungen":13820,"Ġerleb":13821,"ĠBefest":13822,"Ġdeaktiviert":13823,"ĠHeidelberg":13824,"ĠTast":13825,"ĠImmobilie":13826,"ĠKamin":13827,"ĠWirbel":13828,"sack":13829,"Ġevangel":13830,"ĠregelmÃ¤ÃŁige":13831,"irurgie":13832,"niveau":13833,"wÃ¤nde":13834,"ĠnÃ¼tz":13835,"ĠAuswertung":13836,"ĠGÃ¼ter":13837,"ĠAccount":13838,"],":13839,"ĠAnges":13840,"Ġtrainieren":13841,"schwei":13842,"Ġbelegen":13843,"ĠLight":13844,"Ġganzheit":13845,"hemen":13846,"ĠEndlich":13847,"flekti":13848,"eigert":13849,"Ġ>>":13850,"ĠForen":13851,"feste":13852,"Ġbereitet":13853,"Ã¼ster":13854,"ĠJury":13855,"Ġstattdessen":13856,"ĠGefÃ¤ngnis":13857,"elf":13858,"ĠRucksack":13859,"ĠKnopf":13860,"saal":13861,"ochte":13862,"fahrzeuge":13863,"Ġ1991":13864,"Ġschreck":13865,"ĠDrucker":13866,"ĠSig":13867,"ĠFrÃ¼her":13868,"Ġ1989":13869,"ĠSeen":13870,"ĠPrÃ¼":13871,"Ġgeschichten":13872,"Ġwichtiges":13873,"rohung":13874,"Ġberechnen":13875,"ped":13876,"ĠiOS":13877,"volumen":13878,"Ġsoviel":13879,"ĠZerst":13880,"untersuch":13881,"zweck":13882,"ĠNÃ¤chte":13883,"ĠBlutdruck":13884,"aik":13885,"teste":13886,"ĠPassen":13887,"ĠAuszahlung":13888,"eiz":13889,"ĠBrÃ¼der":13890,"stage":13891,"Ġgesperrt":13892,"Ġfick":13893,"polster":13894,"Ġinvestiert":13895,"tist":13896,"ĠKompetenzen":13897,"ĠInteressenten":13898,"ĠenttÃ¤uscht":13899,"ĠDenkmal":13900,"ĠMeldung":13901,"ĠÃľbrigens":13902,"Ġverlor":13903,"zgl":13904,"Ġ1970":13905,"nÃ¼tz":13906,"ĠVerhandlungen":13907,"Ġcont":13908,"ĠStÃ¤rken":13909,"Ġangebotenen":13910,"itute":13911,"130":13912,"Ã¶ten":13913,"ĠlÃ¶st":13914,"ĠFlecken":13915,"ĠEC":13916,"ĠHunder":13917,"Ġunterhalt":13918,"ĠSegel":13919,"rott":13920,"mband":13921,"Ġmerken":13922,"ĠTÃ¤":13923,"freundlich":13924,"ĠDebatte":13925,"skont":13926,"Ã¼nktlich":13927,"=\"":13928,"Ã¤tzchen":13929,"Ġuntern":13930,"ĠSalat":13931,"aw":13932,"Ġeb":13933,"hofer":13934,"frischen":13935,"oberflÃ¤che":13936,"PR":13937,"ĠJud":13938,"ĠabschlieÃŁen":13939,"ĠKonfigur":13940,"Mails":13941,"Ġfind":13942,"ĠReis":13943,"ĠSwingerclub":13944,"dorfer":13945,"spunkte":13946,"Ġaufgefallen":13947,"Ġausgerichtet":13948,"ĠGesell":13949,"ĠgrÃ¼ne":13950,"anschluss":13951,"ĠPas":13952,"verteidig":13953,"agnost":13954,"ĠSaf":13955,"ĠgleichermaÃŁen":13956,"Ġverwei":13957,"ĠBuchstaben":13958,"rÃ¼cke":13959,"kompetenz":13960,"Ġstudierte":13961,"ĠDistanz":13962,"ĠWi":13963,"Å¸":13964,"ĠEinnahme":13965,"ĠNebenwirkungen":13966,"ky":13967,"Ġaufbauen":13968,"Ã¼llt":13969,"ĠCyber":13970,"seller":13971,"gÃ¤rten":13972,"Ġbast":13973,"ĠlÃ¤ngeren":13974,"ĠOrientierung":13975,"ĠZweiten":13976,"inderte":13977,"ĠVerbreitung":13978,"ĠSteiger":13979,"GeschÃ¤ft":13980,"ĠSW":13981,"Ġmassage":13982,"gÃ¤ste":13983,"ĠMichel":13984,"ĠJulia":13985,"lastung":13986,"Ġganzes":13987,"ĠBestÃ¤tigung":13988,"ĠTauch":13989,"Ġregionale":13990,"Ġtrug":13991,"ĠFas":13992,"ĠTeller":13993,"Ġgeltenden":13994,"online":13995,"lÃ¤ufer":13996,"ĠSlow":13997,"onom":13998,"Ġzustande":13999,"Ġ(âĢ¦)":14000,"ĠProvinz":14001,"ĠLife":14002,"ĠNad":14003,"ĠAusrÃ¼stung":14004,"Ġfilm":14005,"ĠMessen":14006,"Ġleitet":14007,"Ġvorder":14008,"Buch":14009,"Foto":14010,"ĠVertrÃ¤ge":14011,"ĠSM":14012,"ĠMA":14013,"ĠRichtlinie":14014,"bezir":14015,"rian":14016,"Ã¤ll":14017,"ĠsaÃŁ":14018,"Ġeinwand":14019,"urce":14020,"ĠGeht":14021,"ĠNotwendigkeit":14022,"ĠVerh":14023,"ĠRubr":14024,"ĠFlÃ¼ssigkeit":14025,"wjet":14026,"ĠEst":14027,"ĠSchrauben":14028,"ĠEingabe":14029,"Ġgebeten":14030,"dliche":14031,"ĠAdressen":14032,"ĠUns":14033,"nÃ¤":14034,"ĠKÃ¼nst":14035,"ĠAndr":14036,"gezogen":14037,"ĠWagner":14038,"ĠMeg":14039,"antes":14040,"Ġbunten":14041,"Ġruft":14042,"ĠFlirt":14043,"Ġma":14044,
[...]
